{
  "version": "1.0",
  "truncation": {
    "direction": "Right",
    "max_length": 512,
    "strategy": "LongestFirst",
    "stride": 0
  },
  "padding": {
    "strategy": "BatchLongest",
    "direction": "Right",
    "pad_to_multiple_of": null,
    "pad_id": 0,
    "pad_type_id": 0,
    "pad_token": "[PAD]"
  },
  "added_tokens": [
    {
      "id": 0,
      "content": "[PAD]",
      "single_word": false,
      "lstrip": false,
      "rstrip": false,
      "normalized": false,
      "special": true
    },
    {
      "id": 1,
      "content": "[UNK]",
      "single_word": false,
      "lstrip": false,
      "rstrip": false,
      "normalized": false,
      "special": true
    },
    {
      "id": 2,
      "content": "[CLS]",
      "single_word": false,
      "lstrip": false,
      "rstrip": false,
      "normalized": false,
      "special": true
    },
    {
      "id": 3,
      "content": "[SEP]",
      "single_word": false,
      "lstrip": false,
      "rstrip": false,
      "normalized": false,
      "special": true
    },
    {
      "id": 4,
      "content": "[MASK]",
      "single_word": false,
      "lstrip": false,
      "rstrip": false,
      "normalized": false,
      "special": true
    }
  ],
  "normalizer": {
    "type": "BertNormalizer",
    "clean_text": true,
    "handle_chinese_chars": true,
    "strip_accents": null,
    "lowercase": true
  },
  "pre_tokenizer": {
    "type": "BertPreTokenizer"
  },
  "post_processor": {
    "type": "TemplateProcessing",
    "single": [
      {
        "SpecialToken": {
          "id": "[CLS]",
          "type_id": 0
        }
      },
      {
        "Sequence": {
          "id": "A",
          "type_id": 0
        }
      },
      {
        "SpecialToken": {
          "id": "[SEP]",
          "type_id": 0
        }
      }
    ],
    "pair": [
      {
        "SpecialToken": {
          "id": "[CLS]",
          "type_id": 0
        }
      },
      {
        "Sequence": {
          "id": "A",
          "type_id": 0
        }
      },
      {
        "SpecialToken": {
          "id": "[SEP]",
          "type_id": 0
        }
      },
      {
        "Sequence": {
          "id": "B",
          "type_id": 1
        }
      },
      {
        "SpecialToken": {
          "id": "[SEP]",
          "type_id": 1
        }
      }
    ],
    "special_tokens": {
      "[CLS]": {
        "id": "[CLS]",
        "ids": [
          2
        ],
        "tokens": [
          "[CLS]"
        ]
      },
      "[SEP]": {
        "id": "[SEP]",
        "ids": [
          3
        ],
        "tokens": [
          "[SEP]"
        ]
      }
    }
  },
  "decoder": {
    "type": "WordPiece",
    "prefix": "##",
    "cleanup": true
  },
  "model": {
    "type": "WordPiece",
    "unk_token": "[UNK]",
    "continuing_subword_prefix": "##",
    "max_input_chars_per_word": 100,
    "vocab": {
      "[PAD]": 0,
      "[UNK]": 1,
      "[CLS]": 2,
      "[SEP]": 3,
      "[MASK]": 4,
      "!": 5,
      "\"": 6,
      "#": 7,
      "$": 8,
      "%": 9,
      "&": 10,
      "'": 11,
      "(": 12,
      ")": 13,
      "*": 14,
      "+": 15,
      ",": 16,
      "-": 17,
      ".": 18,
      "/": 19,
      "0": 20,
      "1": 21,
      "2": 22,
      "3": 23,
      "4": 24,
      "5": 25,
      "6": 26,
      "7": 27,
      "8": 28,
      "9": 29,
      ":": 30,
      ";": 31,
      "<": 32,
      "=": 33,
      ">": 34,
      "?": 35,
      "@": 36,
      "[": 37,
      "\\": 38,
      "]": 39,
      "^": 40,
      "_": 41,
      "`": 42,
      "a": 43,
      "b": 44,
      "c": 45,
      "d": 46,
      "e": 47,
      "f": 48,
      "g": 49,
      "h": 50,
      "i": 51,
      "j": 52,
      "k": 53,
      "l": 54,
      "m": 55,
      "n": 56,
      "o": 57,
      "p": 58,
      "q": 59,
      "r": 60,
      "s": 61,
      "t": 62,
      "u": 63,
      "v": 64,
      "w": 65,
      "x": 66,
      "y": 67,
      "z": 68,
      "{": 69,
      "|": 70,
      "}": 71,
      "~": 72,
      "¡": 73,
      "£": 74,
      "¤": 75,
      "§": 76,
      "¨": 77,
      "©": 78,
      "ª": 79,
      "«": 80,
      "¬": 81,
      "®": 82,
      "°": 83,
      "±": 84,
      "²": 85,
      "³": 86,
      "´": 87,
      "¶": 88,
      "·": 89,
      "º": 90,
      "»": 91,
      "½": 92,
      "¿": 93,
      "×": 94,
      "ß": 95,
      "æ": 96,
      "ð": 97,
      "÷": 98,
      "ø": 99,
      "þ": 100,
      "đ": 101,
      "ħ": 102,
      "ı": 103,
      "ł": 104,
      "ŉ": 105,
      "ŋ": 106,
      "œ": 107,
      "ŧ": 108,
      "ſ": 109,
      "ƃ": 110,
      "ƌ": 111,
      "ƒ": 112,
      "ƙ": 113,
      "ƴ": 114,
      "ƹ": 115,
      "ǀ": 116,
      "ǁ": 117,
      "ǂ": 118,
      "ǃ": 119,
      "ǝ": 120,
      "ȿ": 121,
      "ɀ": 122,
      "ɉ": 123,
      "ɐ": 124,
      "ɑ": 125,
      "ɓ": 126,
      "ɔ": 127,
      "ɖ": 128,
      "ɗ": 129,
      "ə": 130,
      "ɛ": 131,
      "ɠ": 132,
      "ɡ": 133,
      "ɢ": 134,
      "ɣ": 135,
      "ɥ": 136,
      "ɦ": 137,
      "ɨ": 138,
      "ɩ": 139,
      "ɪ": 140,
      "ɲ": 141,
      "ɴ": 142,
      "ɵ": 143,
      "ʀ": 144,
      "ʉ": 145,
      "ʊ": 146,
      "ʋ": 147,
      "ʌ": 148,
      "ʏ": 149,
      "ʒ": 150,
      "ʔ": 151,
      "ʙ": 152,
      "ʜ": 153,
      "ʟ": 154,
      "ʷ": 155,
      "ʹ": 156,
      "ʻ": 157,
      "ʼ": 158,
      "ʿ": 159,
      "ˀ": 160,
      "ˆ": 161,
      "ˈ": 162,
      "ː": 163,
      "˖": 164,
      "˗": 165,
      "˚": 166,
      "α": 167,
      "β": 168,
      "γ": 169,
      "δ": 170,
      "ε": 171,
      "η": 172,
      "θ": 173,
      "ι": 174,
      "κ": 175,
      "λ": 176,
      "μ": 177,
      "ν": 178,
      "ο": 179,
      "π": 180,
      "ρ": 181,
      "ς": 182,
      "σ": 183,
      "τ": 184,
      "υ": 185,
      "φ": 186,
      "χ": 187,
      "ω": 188,
      "ϣ": 189,
      "ϥ": 190,
      "ϧ": 191,
      "ϩ": 192,
      "ϫ": 193,
      "ϯ": 194,
      "а": 195,
      "б": 196,
      "в": 197,
      "г": 198,
      "д": 199,
      "е": 200,
      "ж": 201,
      "з": 202,
      "и": 203,
      "к": 204,
      "л": 205,
      "м": 206,
      "н": 207,
      "о": 208,
      "п": 209,
      "р": 210,
      "с": 211,
      "т": 212,
      "у": 213,
      "ф": 214,
      "х": 215,
      "ц": 216,
      "ч": 217,
      "ш": 218,
      "щ": 219,
      "ъ": 220,
      "ы": 221,
      "ь": 222,
      "э": 223,
      "ю": 224,
      "я": 225,
      "ђ": 226,
      "є": 227,
      "ѕ": 228,
      "і": 229,
      "ғ": 230,
      "ա": 231,
      "ե": 232,
      "ն": 233,
      "א": 234,
      "ב": 235,
      "ה": 236,
      "ו": 237,
      "י": 238,
      "ל": 239,
      "מ": 240,
      "נ": 241,
      "ע": 242,
      "ר": 243,
      "ש": 244,
      "ת": 245,
      "،": 246,
      "؛": 247,
      "؞": 248,
      "؟": 249,
      "ء": 250,
      "ا": 251,
      "ب": 252,
      "ة": 253,
      "ت": 254,
      "ث": 255,
      "ج": 256,
      "ح": 257,
      "خ": 258,
      "د": 259,
      "ذ": 260,
      "ر": 261,
      "ز": 262,
      "س": 263,
      "ش": 264,
      "ص": 265,
      "ض": 266,
      "ط": 267,
      "ظ": 268,
      "ع": 269,
      "غ": 270,
      "ـ": 271,
      "ف": 272,
      "ق": 273,
      "ك": 274,
      "ل": 275,
      "م": 276,
      "ن": 277,
      "ه": 278,
      "و": 279,
      "ى": 280,
      "ي": 281,
      "٠": 282,
      "١": 283,
      "٢": 284,
      "٣": 285,
      "٤": 286,
      "٥": 287,
      "٪": 288,
      "ٱ": 289,
      "ٻ": 290,
      "پ": 291,
      "چ": 292,
      "ڒ": 293,
      "ڤ": 294,
      "ک": 295,
      "گ": 296,
      "ں": 297,
      "ھ": 298,
      "ہ": 299,
      "ی": 300,
      "ے": 301,
      "ݣ": 302,
      "क": 303,
      "ग": 304,
      "ज": 305,
      "त": 306,
      "द": 307,
      "न": 308,
      "प": 309,
      "ब": 310,
      "म": 311,
      "य": 312,
      "र": 313,
      "ल": 314,
      "व": 315,
      "स": 316,
      "ह": 317,
      "ा": 318,
      "ि": 319,
      "ी": 320,
      "ो": 321,
      "।": 322,
      "ং": 323,
      "ব": 324,
      "র": 325,
      "ল": 326,
      "া": 327,
      "ে": 328,
      "ଂ": 329,
      "ଃ": 330,
      "ଅ": 331,
      "ଆ": 332,
      "ଇ": 333,
      "ଈ": 334,
      "ଉ": 335,
      "ଊ": 336,
      "ଋ": 337,
      "ଏ": 338,
      "ଐ": 339,
      "ଓ": 340,
      "ଔ": 341,
      "କ": 342,
      "ଖ": 343,
      "ଗ": 344,
      "ଘ": 345,
      "ଙ": 346,
      "ଚ": 347,
      "ଛ": 348,
      "ଜ": 349,
      "ଝ": 350,
      "ଞ": 351,
      "ଟ": 352,
      "ଠ": 353,
      "ଡ": 354,
      "ଢ": 355,
      "ଣ": 356,
      "ତ": 357,
      "ଥ": 358,
      "ଦ": 359,
      "ଧ": 360,
      "ନ": 361,
      "ପ": 362,
      "ଫ": 363,
      "ବ": 364,
      "ଭ": 365,
      "ମ": 366,
      "ଯ": 367,
      "ର": 368,
      "ଲ": 369,
      "ଳ": 370,
      "ଵ": 371,
      "ଶ": 372,
      "ଷ": 373,
      "ସ": 374,
      "ହ": 375,
      "ା": 376,
      "ୀ": 377,
      "େ": 378,
      "ୗ": 379,
      "ୟ": 380,
      "୦": 381,
      "୧": 382,
      "୨": 383,
      "୩": 384,
      "୪": 385,
      "୫": 386,
      "୬": 387,
      "୭": 388,
      "୮": 389,
      "୯": 390,
      "ୱ": 391,
      "த": 392,
      "ம": 393,
      "ா": 394,
      "ி": 395,
      "ನ": 396,
      "ก": 397,
      "ข": 398,
      "ท": 399,
      "น": 400,
      "ม": 401,
      "ย": 402,
      "ร": 403,
      "อ": 404,
      "า": 405,
      "เ": 406,
      "โ": 407,
      "ไ": 408,
      "๐": 409,
      "မ": 410,
      "ာ": 411,
      "ა": 412,
      "ი": 413,
      "ᄀ": 414,
      "ᄉ": 415,
      "ᄋ": 416,
      "ᄒ": 417,
      "ᅡ": 418,
      "ᅥ": 419,
      "ᅩ": 420,
      "ᅮ": 421,
      "ᅳ": 422,
      "ᅵ": 423,
      "ᆨ": 424,
      "ᆫ": 425,
      "ᆯ": 426,
      "ᆼ": 427,
      "ሀ": 428,
      "ሁ": 429,
      "ሂ": 430,
      "ሃ": 431,
      "ሄ": 432,
      "ህ": 433,
      "ሆ": 434,
      "ሇ": 435,
      "ለ": 436,
      "ሉ": 437,
      "ሊ": 438,
      "ላ": 439,
      "ሌ": 440,
      "ል": 441,
      "ሎ": 442,
      "ሏ": 443,
      "ሐ": 444,
      "ሑ": 445,
      "ሒ": 446,
      "ሓ": 447,
      "ሔ": 448,
      "ሕ": 449,
      "ሖ": 450,
      "መ": 451,
      "ሙ": 452,
      "ሚ": 453,
      "ማ": 454,
      "ሜ": 455,
      "ም": 456,
      "ሞ": 457,
      "ሟ": 458,
      "ሠ": 459,
      "ሡ": 460,
      "ሢ": 461,
      "ሣ": 462,
      "ሤ": 463,
      "ሥ": 464,
      "ሦ": 465,
      "ረ": 466,
      "ሩ": 467,
      "ሪ": 468,
      "ራ": 469,
      "ሬ": 470,
      "ር": 471,
      "ሮ": 472,
      "ሯ": 473,
      "ሰ": 474,
      "ሱ": 475,
      "ሲ": 476,
      "ሳ": 477,
      "ሴ": 478,
      "ስ": 479,
      "ሶ": 480,
      "ሷ": 481,
      "ሸ": 482,
      "ሹ": 483,
      "ሺ": 484,
      "ሻ": 485,
      "ሼ": 486,
      "ሽ": 487,
      "ሾ": 488,
      "ሿ": 489,
      "ቀ": 490,
      "ቁ": 491,
      "ቂ": 492,
      "ቃ": 493,
      "ቄ": 494,
      "ቅ": 495,
      "ቆ": 496,
      "ቈ": 497,
      "ቊ": 498,
      "ቋ": 499,
      "ቍ": 500,
      "ቐ": 501,
      "ቑ": 502,
      "ቒ": 503,
      "ቓ": 504,
      "ቕ": 505,
      "ቖ": 506,
      "ቘ": 507,
      "ቛ": 508,
      "ቝ": 509,
      "በ": 510,
      "ቡ": 511,
      "ቢ": 512,
      "ባ": 513,
      "ቤ": 514,
      "ብ": 515,
      "ቦ": 516,
      "ቧ": 517,
      "ቨ": 518,
      "ቪ": 519,
      "ቫ": 520,
      "ቬ": 521,
      "ቭ": 522,
      "ቮ": 523,
      "ተ": 524,
      "ቱ": 525,
      "ቲ": 526,
      "ታ": 527,
      "ቴ": 528,
      "ት": 529,
      "ቶ": 530,
      "ቷ": 531,
      "ቸ": 532,
      "ቹ": 533,
      "ቺ": 534,
      "ቻ": 535,
      "ቼ": 536,
      "ች": 537,
      "ቾ": 538,
      "ቿ": 539,
      "ኀ": 540,
      "ኃ": 541,
      "ኄ": 542,
      "ኅ": 543,
      "ኋ": 544,
      "ነ": 545,
      "ኑ": 546,
      "ኒ": 547,
      "ና": 548,
      "ኔ": 549,
      "ን": 550,
      "ኖ": 551,
      "ኗ": 552,
      "ኘ": 553,
      "ኙ": 554,
      "ኚ": 555,
      "ኛ": 556,
      "ኜ": 557,
      "ኝ": 558,
      "ኞ": 559,
      "ኟ": 560,
      "አ": 561,
      "ኡ": 562,
      "ኢ": 563,
      "ኣ": 564,
      "ኤ": 565,
      "እ": 566,
      "ኦ": 567,
      "ኧ": 568,
      "ከ": 569,
      "ኩ": 570,
      "ኪ": 571,
      "ካ": 572,
      "ኬ": 573,
      "ክ": 574,
      "ኮ": 575,
      "ኰ": 576,
      "ኲ": 577,
      "ኳ": 578,
      "ኵ": 579,
      "ኸ": 580,
      "ኹ": 581,
      "ኺ": 582,
      "ኻ": 583,
      "ኼ": 584,
      "ኽ": 585,
      "ኾ": 586,
      "ዀ": 587,
      "ዃ": 588,
      "ዄ": 589,
      "ዅ": 590,
      "ወ": 591,
      "ዉ": 592,
      "ዊ": 593,
      "ዋ": 594,
      "ዌ": 595,
      "ው": 596,
      "ዎ": 597,
      "ዐ": 598,
      "ዑ": 599,
      "ዒ": 600,
      "ዓ": 601,
      "ዔ": 602,
      "ዕ": 603,
      "ዖ": 604,
      "ዘ": 605,
      "ዙ": 606,
      "ዚ": 607,
      "ዛ": 608,
      "ዜ": 609,
      "ዝ": 610,
      "ዞ": 611,
      "ዟ": 612,
      "ዠ": 613,
      "ዡ": 614,
      "ዢ": 615,
      "ዣ": 616,
      "ዤ": 617,
      "ዥ": 618,
      "ዦ": 619,
      "የ": 620,
      "ዩ": 621,
      "ዪ": 622,
      "ያ": 623,
      "ዬ": 624,
      "ይ": 625,
      "ዮ": 626,
      "ደ": 627,
      "ዱ": 628,
      "ዲ": 629,
      "ዳ": 630,
      "ዴ": 631,
      "ድ": 632,
      "ዶ": 633,
      "ዷ": 634,
      "ዺ": 635,
      "ዻ": 636,
      "ዼ": 637,
      "ዽ": 638,
      "ዾ": 639,
      "ጀ": 640,
      "ጁ": 641,
      "ጂ": 642,
      "ጃ": 643,
      "ጄ": 644,
      "ጅ": 645,
      "ጆ": 646,
      "ጇ": 647,
      "ገ": 648,
      "ጉ": 649,
      "ጊ": 650,
      "ጋ": 651,
      "ጌ": 652,
      "ግ": 653,
      "ጎ": 654,
      "ጐ": 655,
      "ጒ": 656,
      "ጓ": 657,
      "ጕ": 658,
      "ጘ": 659,
      "ጛ": 660,
      "ጝ": 661,
      "ጠ": 662,
      "ጡ": 663,
      "ጢ": 664,
      "ጣ": 665,
      "ጤ": 666,
      "ጥ": 667,
      "ጦ": 668,
      "ጧ": 669,
      "ጨ": 670,
      "ጩ": 671,
      "ጪ": 672,
      "ጫ": 673,
      "ጬ": 674,
      "ጭ": 675,
      "ጮ": 676,
      "ጰ": 677,
      "ጲ": 678,
      "ጳ": 679,
      "ጴ": 680,
      "ጵ": 681,
      "ጶ": 682,
      "ጸ": 683,
      "ጹ": 684,
      "ጺ": 685,
      "ጻ": 686,
      "ጼ": 687,
      "ጽ": 688,
      "ጾ": 689,
      "ጿ": 690,
      "ፀ": 691,
      "ፁ": 692,
      "ፂ": 693,
      "ፃ": 694,
      "ፄ": 695,
      "ፅ": 696,
      "ፆ": 697,
      "ፈ": 698,
      "ፉ": 699,
      "ፊ": 700,
      "ፋ": 701,
      "ፌ": 702,
      "ፍ": 703,
      "ፎ": 704,
      "ፏ": 705,
      "ፐ": 706,
      "ፑ": 707,
      "ፒ": 708,
      "ፓ": 709,
      "ፔ": 710,
      "ፕ": 711,
      "ፖ": 712,
      "፡": 713,
      "።": 714,
      "፣": 715,
      "፤": 716,
      "፥": 717,
      "፦": 718,
      "፧": 719,
      "፩": 720,
      "፪": 721,
      "፫": 722,
      "፬": 723,
      "፭": 724,
      "፮": 725,
      "፯": 726,
      "፰": 727,
      "፱": 728,
      "፲": 729,
      "፳": 730,
      "፴": 731,
      "፵": 732,
      "፶": 733,
      "፻": 734,
      "ᴀ": 735,
      "ᴄ": 736,
      "ᴅ": 737,
      "ᴇ": 738,
      "ᴋ": 739,
      "ᴍ": 740,
      "ᴏ": 741,
      "ᴘ": 742,
      "ᴛ": 743,
      "ᴜ": 744,
      "ᴠ": 745,
      "ᴡ": 746,
      "ᵻ": 747,
      "ᵽ": 748,
      "‐": 749,
      "‑": 750,
      "–": 751,
      "—": 752,
      "―": 753,
      "‘": 754,
      "’": 755,
      "‚": 756,
      "“": 757,
      "”": 758,
      "„": 759,
      "‟": 760,
      "†": 761,
      "•": 762,
      "․": 763,
      "…": 764,
      "′": 765,
      "″": 766,
      "‹": 767,
      "›": 768,
      "⁄": 769,
      "€": 770,
      "⃣": 771,
      "№": 772,
      "™": 773,
      "ↄ": 774,
      "←": 775,
      "↑": 776,
      "→": 777,
      "⇒": 778,
      "−": 779,
      "≡": 780,
      "─": 781,
      "│": 782,
      "├": 783,
      "■": 784,
      "□": 785,
      "▪": 786,
      "▷": 787,
      "▸": 788,
      "►": 789,
      "▼": 790,
      "◄": 791,
      "●": 792,
      "◼": 793,
      "★": 794,
      "☆": 795,
      "☺": 796,
      "♀": 797,
      "♂": 798,
      "♥": 799,
      "♦": 800,
      "♪": 801,
      "⚽": 802,
      "✅": 803,
      "✊": 804,
      "✌": 805,
      "✔": 806,
      "✨": 807,
      "❤": 808,
      "ⲁ": 809,
      "ⲃ": 810,
      "ⲅ": 811,
      "ⲇ": 812,
      "ⲉ": 813,
      "ⲏ": 814,
      "ⲑ": 815,
      "ⲓ": 816,
      "ⲕ": 817,
      "ⲗ": 818,
      "ⲙ": 819,
      "ⲛ": 820,
      "ⲟ": 821,
      "ⲡ": 822,
      "ⲣ": 823,
      "ⲥ": 824,
      "ⲧ": 825,
      "ⲩ": 826,
      "ⲫ": 827,
      "ⲭ": 828,
      "ⲱ": 829,
      "ⴰ": 830,
      "ⴶ": 831,
      "ⴹ": 832,
      "ⴼ": 833,
      "ⴾ": 834,
      "ⵀ": 835,
      "ⵂ": 836,
      "ⵆ": 837,
      "ⵍ": 838,
      "ⵎ": 839,
      "ⵏ": 840,
      "ⵓ": 841,
      "ⵔ": 842,
      "ⵗ": 843,
      "ⵙ": 844,
      "ⵛ": 845,
      "ⵜ": 846,
      "ⵢ": 847,
      "ⵤ": 848,
      "⵰": 849,
      "、": 850,
      "い": 851,
      "か": 852,
      "た": 853,
      "て": 854,
      "の": 855,
      "ま": 856,
      "ん": 857,
      "ー": 858,
      "中": 859,
      "文": 860,
      "日": 861,
      "本": 862,
      "語": 863,
      "ꔀ": 864,
      "ꔇ": 865,
      "ꔒ": 866,
      "ꔝ": 867,
      "ꔤ": 868,
      "ꔧ": 869,
      "ꔳ": 870,
      "ꔻ": 871,
      "ꕃ": 872,
      "ꕉ": 873,
      "ꕊ": 874,
      "ꕌ": 875,
      "ꕎ": 876,
      "ꕒ": 877,
      "ꕓ": 878,
      "ꕘ": 879,
      "ꕚ": 880,
      "ꕞ": 881,
      "ꕡ": 882,
      "ꕢ": 883,
      "ꕧ": 884,
      "ꕩ": 885,
      "ꕪ": 886,
      "ꕮ": 887,
      "ꕯ": 888,
      "ꕴ": 889,
      "ꖃ": 890,
      "ꖏ": 891,
      "ꖴ": 892,
      "ꖷ": 893,
      "ꖸ": 894,
      "ꖺ": 895,
      "ꗃ": 896,
      "ꗉ": 897,
      "ꗏ": 898,
      "ꗓ": 899,
      "ꗞ": 900,
      "ꗡ": 901,
      "ꗢ": 902,
      "ꗪ": 903,
      "ꗱ": 904,
      "ꗷ": 905,
      "ꘂ": 906,
      "ꘃ": 907,
      "ꘋ": 908,
      "ꜱ": 909,
      "꞊": 910,
      "ꞌ": 911,
      "ꭹ": 912,
      "ꮃ": 913,
      "ꮳ": 914,
      "﴾": 915,
      "﴿": 916,
      "ﷺ": 917,
      "！": 918,
      "：": 919,
      "🇦": 920,
      "🇪": 921,
      "🇬": 922,
      "🇮": 923,
      "🇳": 924,
      "🇷": 925,
      "🇸": 926,
      "🇹": 927,
      "🇿": 928,
      "🌙": 929,
      "🌚": 930,
      "🌹": 931,
      "🎉": 932,
      "🎶": 933,
      "🏃": 934,
      "🏻": 935,
      "🏼": 936,
      "🏽": 937,
      "🏾": 938,
      "🏿": 939,
      "👀": 940,
      "👇": 941,
      "👉": 942,
      "👊": 943,
      "👌": 944,
      "👍": 945,
      "👏": 946,
      "👑": 947,
      "💀": 948,
      "💃": 949,
      "💔": 950,
      "💕": 951,
      "💙": 952,
      "💚": 953,
      "💛": 954,
      "💜": 955,
      "💥": 956,
      "💪": 957,
      "💯": 958,
      "🔥": 959,
      "🔴": 960,
      "🖤": 961,
      "😀": 962,
      "😁": 963,
      "😂": 964,
      "😃": 965,
      "😄": 966,
      "😅": 967,
      "😆": 968,
      "😉": 969,
      "😊": 970,
      "😋": 971,
      "😌": 972,
      "😍": 973,
      "😎": 974,
      "😏": 975,
      "😒": 976,
      "😔": 977,
      "😘": 978,
      "😜": 979,
      "😢": 980,
      "😩": 981,
      "😫": 982,
      "😭": 983,
      "😳": 984,
      "😹": 985,
      "🙂": 986,
      "🙄": 987,
      "🙆": 988,
      "🙈": 989,
      "🙌": 990,
      "🙏": 991,
      "🚮": 992,
      "🚶": 993,
      "🤍": 994,
      "🤔": 995,
      "🤗": 996,
      "🤞": 997,
      "🤣": 998,
      "🤦": 999,
      "🤭": 1000,
      "🤲": 1001,
      "🤷": 1002,
      "🥰": 1003,
      "🥺": 1004,
      "##ଟ": 1005,
      "##ବ": 1006,
      "##େ": 1007,
      "##ନ": 1008,
      "##a": 1009,
      "##s": 1010,
      "##e": 1011,
      "##k": 1012,
      "##u": 1013,
      "##p": 1014,
      "##h": 1015,
      "##m": 1016,
      "##l": 1017,
      "##i": 1018,
      "##n": 1019,
      "##b": 1020,
      "##d": 1021,
      "##ር": 1022,
      "##ተ": 1023,
      "##ራ": 1024,
      "##ት": 1025,
      "##ን": 1026,
      "##t": 1027,
      "##w": 1028,
      "##ß": 1029,
      "##4": 1030,
      "##9": 1031,
      "##5": 1032,
      "##0": 1033,
      "##ያ": 1034,
      "##ዜ": 1035,
      "##ሙ": 1036,
      "##ል": 1037,
      "##ቹ": 1038,
      "##ኛ": 1039,
      "##z": 1040,
      "##c": 1041,
      "##o": 1042,
      "##j": 1043,
      "##ل": 1044,
      "##ج": 1045,
      "##ا": 1046,
      "##ي": 1047,
      "##ة": 1048,
      "##q": 1049,
      "##y": 1050,
      "##r": 1051,
      "##g": 1052,
      "##3": 1053,
      "##6": 1054,
      "##1": 1055,
      "##ɔ": 1056,
      "##v": 1057,
      "##е": 1058,
      "##в": 1059,
      "##л": 1060,
      "##и": 1061,
      "##о": 1062,
      "##x": 1063,
      "##7": 1064,
      "##f": 1065,
      "##የ": 1066,
      "##ቀ": 1067,
      "##ኻ": 1068,
      "##2": 1069,
      "##س": 1070,
      "##ه": 1071,
      "##ଫ": 1072,
      "##ଗ": 1073,
      "##ା": 1074,
      "##ୀ": 1075,
      "##ସ": 1076,
      "##ତ": 1077,
      "##ର": 1078,
      "##କ": 1079,
      "##ଲ": 1080,
      "##ମ": 1081,
      "##ɛ": 1082,
      "##8": 1083,
      "##ቅ": 1084,
      "##ሎ": 1085,
      "##ስ": 1086,
      "##ቲ": 1087,
      "##ጰ": 1088,
      "##ሱ": 1089,
      "##ድ": 1090,
      "##ና": 1091,
      "##መ": 1092,
      "##ካ": 1093,
      "##ቸ": 1094,
      "##ው": 1095,
      "##አ": 1096,
      "##ዳ": 1097,
      "##ደ": 1098,
      "##ሏ": 1099,
      "##ɩ": 1100,
      "##ቤ": 1101,
      "##ፌ": 1102,
      "##ግ": 1103,
      "##ˈ": 1104,
      "##ᄒ": 1105,
      "##ᅡ": 1106,
      "##ᆫ": 1107,
      "##ᄀ": 1108,
      "##ᅮ": 1109,
      "##ᆨ": 1110,
      "##ᄋ": 1111,
      "##ᅥ": 1112,
      "##မ": 1113,
      "##ာ": 1114,
      "##р": 1115,
      "##у": 1116,
      "##с": 1117,
      "##к": 1118,
      "##स": 1119,
      "##क": 1120,
      "##त": 1121,
      "##म": 1122,
      "##ኬ": 1123,
      "##ታ": 1124,
      "##ኔ": 1125,
      "##ŋ": 1126,
      "##ن": 1127,
      "##ع": 1128,
      "##ز": 1129,
      "##ቃ": 1130,
      "##ሾ": 1131,
      "##ጆ": 1132,
      "##ሰ": 1133,
      "##و": 1134,
      "##ت": 1135,
      "##ዋ": 1136,
      "##ለ": 1137,
      "##ሁ": 1138,
      "##ፈ": 1139,
      "##ፃ": 1140,
      "##ሚ": 1141,
      "##ر": 1142,
      "##ነ": 1143,
      "##ፀ": 1144,
      "##م": 1145,
      "##ق": 1146,
      "##т": 1147,
      "##а": 1148,
      "##ذ": 1149,
      "##ሂ": 1150,
      "##ወ": 1151,
      "##ቱ": 1152,
      "##୧": 1153,
      "##୫": 1154,
      "##୨": 1155,
      "##ጸ": 1156,
      "##ክ": 1157,
      "##ፉ": 1158,
      "##ላ": 1159,
      "##ጠ": 1160,
      "##ə": 1161,
      "##−": 1162,
      "##ይ": 1163,
      "##ቨ": 1164,
      "##ሩ": 1165,
      "##ም": 1166,
      "##ች": 1167,
      "##ኅ": 1168,
      "##በ": 1169,
      "##ረ": 1170,
      "##ከ": 1171,
      "##ኝ": 1172,
      "##ጡ": 1173,
      "##ብ": 1174,
      "##з": 1175,
      "##н": 1176,
      "##ф": 1177,
      "##м": 1178,
      "##ጋ": 1179,
      "##ሪ": 1180,
      "##ቕ": 1181,
      "##ቶ": 1182,
      "##ማ": 1183,
      "##ب": 1184,
      "##б": 1185,
      "##ь": 1186,
      "##г": 1187,
      "##ዛ": 1188,
      "##ቴ": 1189,
      "##п": 1190,
      "##ч": 1191,
      "##я": 1192,
      "##غ": 1193,
      "##ك": 1194,
      "##ሌ": 1195,
      "##ዎ": 1196,
      "##ቾ": 1197,
      "##ዝ": 1198,
      "##ɓ": 1199,
      "##ف": 1200,
      "##ح": 1201,
      "##ଖ": 1202,
      "##ହ": 1203,
      "##ኽ": 1204,
      "##ኩ": 1205,
      "##እ": 1206,
      "##ቆ": 1207,
      "##ص": 1208,
      "##د": 1209,
      "##ጣ": 1210,
      "##ኙ": 1211,
      "##خ": 1212,
      "##ፒ": 1213,
      "##ʼ": 1214,
      "##ƙ": 1215,
      "##ଙ": 1216,
      "##ኤ": 1217,
      "##ኣ": 1218,
      "##ش": 1219,
      "##ባ": 1220,
      "##ሐ": 1221,
      "##ଡ": 1222,
      "##ሯ": 1223,
      "##ሮ": 1224,
      "##ю": 1225,
      "##ዉ": 1226,
      "##ዕ": 1227,
      "##ጻ": 1228,
      "##ዚ": 1229,
      "##ህ": 1230,
      "##ኸ": 1231,
      "##ୟ": 1232,
      "##ଣ": 1233,
      "##ж": 1234,
      "##д": 1235,
      "##ɗ": 1236,
      "##ገ": 1237,
      "##ሽ": 1238,
      "##ኳ": 1239,
      "##ጀ": 1240,
      "##ቺ": 1241,
      "##ɑ": 1242,
      "##ፎ": 1243,
      "##ଦ": 1244,
      "##ቁ": 1245,
      "##ш": 1246,
      "##ዑ": 1247,
      "##ሉ": 1248,
      "##ዖ": 1249,
      "##ኒ": 1250,
      "##ፋ": 1251,
      "##ሳ": 1252,
      "##ط": 1253,
      "##ы": 1254,
      "##ፍ": 1255,
      "##ኮ": 1256,
      "##ዲ": 1257,
      "##ሥ": 1258,
      "##ض": 1259,
      "##π": 1260,
      "##ⲉ": 1261,
      "##ⲧ": 1262,
      "##ⲛ": 1263,
      "##ⲙ": 1264,
      "##ϣ": 1265,
      "##ⲁ": 1266,
      "##ⲑ": 1267,
      "##ϧ": 1268,
      "##ጲ": 1269,
      "##ዴ": 1270,
      "##ц": 1271,
      "##ʉ": 1272,
      "##ک": 1273,
      "##ጢ": 1274,
      "##ପ": 1275,
      "##ዶ": 1276,
      "##ዐ": 1277,
      "##ሃ": 1278,
      "##ጓ": 1279,
      "##ዙ": 1280,
      "##ଶ": 1281,
      "##ι": 1282,
      "##α": 1283,
      "##β": 1284,
      "##ν": 1285,
      "##ε": 1286,
      "##ሻ": 1287,
      "##ی": 1288,
      "##ሆ": 1289,
      "##ɨ": 1290,
      "##୭": 1291,
      "##ፖ": 1292,
      "##ዬ": 1293,
      "##ዘ": 1294,
      "##ኞ": 1295,
      "##ୗ": 1296,
      "##ሕ": 1297,
      "##ꞌ": 1298,
      "##ⴹ": 1299,
      "##ⴾ": 1300,
      "##ⵍ": 1301,
      "##ى": 1302,
      "##ƒ": 1303,
      "##ↄ": 1304,
      "##ጃ": 1305,
      "##ጅ": 1306,
      "##ث": 1307,
      "##ቂ": 1308,
      "##ዟ": 1309,
      "##ǝ": 1310,
      "##ሓ": 1311,
      "##ፊ": 1312,
      "##ሀ": 1313,
      "##х": 1314,
      "##ሞ": 1315,
      "##ጽ": 1316,
      "##ጥ": 1317,
      "##ሜ": 1318,
      "##ኖ": 1319,
      "##ኹ": 1320,
      "##ଇ": 1321,
      "##ଥ": 1322,
      "##ጺ": 1323,
      "##ጎ": 1324,
      "##ዊ": 1325,
      "##ፂ": 1326,
      "##த": 1327,
      "##ம": 1328,
      "##ி": 1329,
      "##ŧ": 1330,
      "##ዓ": 1331,
      "##ଧ": 1332,
      "##´": 1333,
      "##ጊ": 1334,
      "##ቻ": 1335,
      "##ጁ": 1336,
      "##ଠ": 1337,
      "##ቢ": 1338,
      "##ቡ": 1339,
      "##ʋ": 1340,
      "##ፐ": 1341,
      "##ⵜ": 1342,
      "##ⵓ": 1343,
      "##ⵎ": 1344,
      "##ⵤ": 1345,
      "##ظ": 1346,
      "##ו": 1347,
      "##ב": 1348,
      "##א": 1349,
      "##ଜ": 1350,
      "##ዼ": 1351,
      "##ሢ": 1352,
      "##ଏ": 1353,
      "##ଳ": 1354,
      "##ቫ": 1355,
      "##ዮ": 1356,
      "##ଞ": 1357,
      "##ଚ": 1358,
      "##ዃ": 1359,
      "##ኑ": 1360,
      "##ኢ": 1361,
      "##ዩ": 1362,
      "##ጄ": 1363,
      "##ኪ": 1364,
      "##ቐ": 1365,
      "##э": 1366,
      "##ሊ": 1367,
      "##ኼ": 1368,
      "##ሲ": 1369,
      "##ኦ": 1370,
      "##ଷ": 1371,
      "##ፔ": 1372,
      "##ጤ": 1373,
      "##ʀ": 1374,
      "##ː": 1375,
      "##ʔ": 1376,
      "##ሠ": 1377,
      "##ጦ": 1378,
      "##ଭ": 1379,
      "##ଓ": 1380,
      "##ୱ": 1381,
      "##°": 1382,
      "##ρ": 1383,
      "##φ": 1384,
      "##ο": 1385,
      "##ω": 1386,
      "##ሴ": 1387,
      "##ଉ": 1388,
      "##ଛ": 1389,
      "##ǃ": 1390,
      "##ƴ": 1391,
      "##щ": 1392,
      "##ጂ": 1393,
      "##ጫ": 1394,
      "##ዷ": 1395,
      "##ቦ": 1396,
      "##ጉ": 1397,
      "##୯": 1398,
      "##୮": 1399,
      "##ዔ": 1400,
      "##ı": 1401,
      "##ଯ": 1402,
      "##ሸ": 1403,
      "##ⴼ": 1404,
      "##×": 1405,
      "##ɖ": 1406,
      "##ء": 1407,
      "##ጒ": 1408,
      "##ђ": 1409,
      "##ቬ": 1410,
      "##º": 1411,
      "##ኡ": 1412,
      "##ϫ": 1413,
      "##ⲱ": 1414,
      "##ፅ": 1415,
      "##ሶ": 1416,
      "##ዱ": 1417,
      "##ጨ": 1418,
      "##ʷ": 1419,
      "##ጮ": 1420,
      "##ʟ": 1421,
      "##ጐ": 1422,
      "##ሬ": 1423,
      "##ጩ": 1424,
      "##न": 1425,
      "##ी": 1426,
      "##ɣ": 1427,
      "##ɉ": 1428,
      "##ኃ": 1429,
      "##گ": 1430,
      "##ቧ": 1431,
      "##ⲓ": 1432,
      "##ⲕ": 1433,
      "##ⲅ": 1434,
      "##อ": 1435,
      "##ก": 1436,
      "##เ": 1437,
      "##ร": 1438,
      "##ዠ": 1439,
      "##ቄ": 1440,
      "##ፓ": 1441,
      "##୬": 1442,
      "##୦": 1443,
      "##ଅ": 1444,
      "##ሹ": 1445,
      "##ଘ": 1446,
      "##ቋ": 1447,
      "##ኺ": 1448,
      "##چ": 1449,
      "##ዌ": 1450,
      "##፱": 1451,
      "##፻": 1452,
      "##፰": 1453,
      "##፬": 1454,
      "##ጭ": 1455,
      "##ø": 1456,
      "##ᅩ": 1457,
      "##ᄉ": 1458,
      "##ኟ": 1459,
      "##ቷ": 1460,
      "##¬": 1461,
      "##ɲ": 1462,
      "##ዥ": 1463,
      "##ଂ": 1464,
      "##ዒ": 1465,
      "##ጌ": 1466,
      "##ፁ": 1467,
      "##ъ": 1468,
      "##ቪ": 1469,
      "##ዡ": 1470,
      "##ǀ": 1471,
      "##ሑ": 1472,
      "##୪": 1473,
      "##ሺ": 1474,
      "##ᅵ": 1475,
      "##ଈ": 1476,
      "##า": 1477,
      "##น": 1478,
      "##ท": 1479,
      "##ไ": 1480,
      "##ม": 1481,
      "##ย": 1482,
      "##ቼ": 1483,
      "##ጴ": 1484,
      "##ो": 1485,
      "##ि": 1486,
      "##ዪ": 1487,
      "##ⲟ": 1488,
      "##ⲩ": 1489,
      "##ⲥ": 1490,
      "##ⲣ": 1491,
      "##ጪ": 1492,
      "##ⵂ": 1493,
      "##ⵗ": 1494,
      "##ⵏ": 1495,
      "##ኚ": 1496,
      "##ǂ": 1497,
      "##ሼ": 1498,
      "##η": 1499,
      "##λ": 1500,
      "##ሣ": 1501,
      "##ଆ": 1502,
      "##ፕ": 1503,
      "##ኘ": 1504,
      "##て": 1505,
      "##ᆯ": 1506,
      "##σ": 1507,
      "##τ": 1508,
      "##ς": 1509,
      "##ሟ": 1510,
      "##ـ": 1511,
      "##پ": 1512,
      "##ኗ": 1513,
      "##γ": 1514,
      "##ቓ": 1515,
      "##ⵔ": 1516,
      "##ⴰ": 1517,
      "##ꕌ": 1518,
      "##ꕩ": 1519,
      "##ⲇ": 1520,
      "##ł": 1521,
      "##є": 1522,
      "##ሄ": 1523,
      "##ሷ": 1524,
      "##ा": 1525,
      "##य": 1526,
      "##ዞ": 1527,
      "##ቭ": 1528,
      "##ሒ": 1529,
      "##ᴜ": 1530,
      "##ʙ": 1531,
      "##ɪ": 1532,
      "##ᴄ": 1533,
      "##ጹ": 1534,
      "##ፆ": 1535,
      "##ٻ": 1536,
      "##٤": 1537,
      "##٠": 1538,
      "##র": 1539,
      "##া": 1540,
      "##र": 1541,
      "##ቈ": 1542,
      "##ଵ": 1543,
      "##ፑ": 1544,
      "##ʒ": 1545,
      "##ቊ": 1546,
      "##δ": 1547,
      "##ⴶ": 1548,
      "##ኋ": 1549,
      "##ˀ": 1550,
      "##€": 1551,
      "##ꘋ": 1552,
      "##ー": 1553,
      "##ん": 1554,
      "##ኾ": 1555,
      "##κ": 1556,
      "##υ": 1557,
      "##ቝ": 1558,
      "##ա": 1559,
      "##ե": 1560,
      "##ն": 1561,
      "##ע": 1562,
      "##ר": 1563,
      "##י": 1564,
      "##ת": 1565,
      "##ह": 1566,
      "##द": 1567,
      "##ʊ": 1568,
      "##ל": 1569,
      "##ᴏ": 1570,
      "##ᴡ": 1571,
      "##ቿ": 1572,
      "##ዣ": 1573,
      "##ሇ": 1574,
      "##୩": 1575,
      "##ꮳ": 1576,
      "##ꮃ": 1577,
      "##ꭹ": 1578,
      "##ሔ": 1579,
      "##ǁ": 1580,
      "##ª": 1581,
      "##の": 1582,
      "##ଢ": 1583,
      "##ᴇ": 1584,
      "##ꗞ": 1585,
      "##ⵀ": 1586,
      "##ɀ": 1587,
      "##ɡ": 1588,
      "##ኵ": 1589,
      "##œ": 1590,
      "##፪": 1591,
      "##፳": 1592,
      "##ہ": 1593,
      "##ں": 1594,
      "##ڤ": 1595,
      "##і": 1596,
      "##ɴ": 1597,
      "##ᴛ": 1598,
      "##ᴍ": 1599,
      "##ᴘ": 1600,
      "##ᴀ": 1601,
      "##ሖ": 1602,
      "##→": 1603,
      "##ɵ": 1604,
      "##ⲭ": 1605,
      "##ⲏ": 1606,
      "##ፏ": 1607,
      "##θ": 1608,
      "##か": 1609,
      "##🏿": 1610,
      "##☆": 1611,
      "##ⲡ": 1612,
      "##ⵛ": 1613,
      "##ƌ": 1614,
      "##ጵ": 1615,
      "##ʜ": 1616,
      "##ጶ": 1617,
      "##˖": 1618,
      "##ल": 1619,
      "##ब": 1620,
      "##★": 1621,
      "##ጝ": 1622,
      "##ð": 1623,
      "##ᅳ": 1624,
      "##ሦ": 1625,
      "##ꕡ": 1626,
      "##ⵙ": 1627,
      "##đ": 1628,
      "##ⵢ": 1629,
      "##ƃ": 1630,
      "##ጬ": 1631,
      "##ڒ": 1632,
      "##ᴠ": 1633,
      "##ɢ": 1634,
      "##፲": 1635,
      "##፴": 1636,
      "##ɠ": 1637,
      "##æ": 1638,
      "##ⵆ": 1639,
      "##ϩ": 1640,
      "##÷": 1641,
      "##®": 1642,
      "##ሡ": 1643,
      "##ኧ": 1644,
      "##⃣": 1645,
      "##🇸": 1646,
      "##─": 1647,
      "##ዀ": 1648,
      "##ኰ": 1649,
      "##ቮ": 1650,
      "##½": 1651,
      "##ⲗ": 1652,
      "##ዅ": 1653,
      "##£": 1654,
      "##ጾ": 1655,
      "##ꔝ": 1656,
      "##፮": 1657,
      "##ھ": 1658,
      "##ዦ": 1659,
      "##ग": 1660,
      "##ғ": 1661,
      "##ʏ": 1662,
      "##い": 1663,
      "##נ": 1664,
      "##ቖ": 1665,
      "##ቍ": 1666,
      "##ଝ": 1667,
      "##ᆼ": 1668,
      "##፭": 1669,
      "##ጧ": 1670,
      "##χ": 1671,
      "##ꕮ": 1672,
      "##ꕴ": 1673,
      "##ꔀ": 1674,
      "##व": 1675,
      "##た": 1676,
      "##ሤ": 1677,
      "##ꗡ": 1678,
      "##ϥ": 1679,
      "##ዺ": 1680,
      "##þ": 1681,
      "##ኲ": 1682,
      "##ᴋ": 1683,
      "##˚": 1684,
      "##ዢ": 1685,
      "##⁄": 1686,
      "##ጕ": 1687,
      "##ა": 1688,
      "##ი": 1689,
      "##ʻ": 1690,
      "##¤": 1691,
      "##ے": 1692,
      "##፫": 1693,
      "##፶": 1694,
      "##ጘ": 1695,
      "##ቑ": 1696,
      "##μ": 1697,
      "##ⲫ": 1698,
      "##ϯ": 1699,
      "##ዄ": 1700,
      "##ꖏ": 1701,
      "##ꖷ": 1702,
      "##ᵻ": 1703,
      "##ଃ": 1704,
      "##ኀ": 1705,
      "##ᴅ": 1706,
      "##ٱ": 1707,
      "##٣": 1708,
      "##ѕ": 1709,
      "##ข": 1710,
      "##ኜ": 1711,
      "##ħ": 1712,
      "##ש": 1713,
      "##ה": 1714,
      "##፯": 1715,
      "##ዻ": 1716,
      "##ꕊ": 1717,
      "##ꘃ": 1718,
      "##ꔒ": 1719,
      "##โ": 1720,
      "##ɥ": 1721,
      "##ꖺ": 1722,
      "##ꕒ": 1723,
      "##ज": 1724,
      "##ⲃ": 1725,
      "##ȿ": 1726,
      "##ব": 1727,
      "##ং": 1728,
      "##ল": 1729,
      "##ா": 1730,
      "##ƹ": 1731,
      "##ſ": 1732,
      "##ɐ": 1733,
      "##˗": 1734,
      "##ˆ": 1735,
      "##ʹ": 1736,
      "##ﷺ": 1737,
      "##ʿ": 1738,
      "##ዾ": 1739,
      "##ጳ": 1740,
      "##±": 1741,
      "##ꗓ": 1742,
      "##ᵽ": 1743,
      "##፩": 1744,
      "##ɦ": 1745,
      "##ে": 1746,
      "##ፄ": 1747,
      "##ꗏ": 1748,
      "##፵": 1749,
      "##ቒ": 1750,
      "##ꜱ": 1751,
      "##٥": 1752,
      "##١": 1753,
      "##٢": 1754,
      "##ଊ": 1755,
      "##ቘ": 1756,
      "##ጿ": 1757,
      "##²": 1758,
      "##מ": 1759,
      "##►": 1760,
      "##ま": 1761,
      "##ʌ": 1762,
      "##ꔧ": 1763,
      "##ጼ": 1764,
      "##ꗢ": 1765,
      "##■": 1766,
      "##ጛ": 1767,
      "##प": 1768,
      "##😭": 1769,
      "##🙏": 1770,
      "##ቛ": 1771,
      "##ଔ": 1772,
      "##ዤ": 1773,
      "##♪": 1774,
      "##ଋ": 1775,
      "##™": 1776,
      "##🏼": 1777,
      "##♀": 1778,
      "##🤦": 1779,
      "##😂": 1780,
      "##🏻": 1781,
      "##ሿ": 1782,
      "##ꕉ": 1783,
      "##꞊": 1784,
      "##ꖸ": 1785,
      "##ꔤ": 1786,
      "##├": 1787,
      "##ನ": 1788,
      "##ꕢ": 1789,
      "##│": 1790,
      "##ꕪ": 1791,
      "##ꘂ": 1792,
      "##🔥": 1793,
      "##👌": 1794,
      "##🏾": 1795,
      "##¨": 1796,
      "##๐": 1797,
      "##ꕞ": 1798,
      "##ዽ": 1799,
      "##ጇ": 1800,
      "##ŉ": 1801,
      "##≡": 1802,
      "##ݣ": 1803,
      "##ꕓ": 1804,
      "##😳": 1805,
      "##³": 1806,
      "##ꕎ": 1807,
      "##🇷": 1808,
      "##🇦": 1809,
      "##👇": 1810,
      "##♦": 1811,
      "##ꔻ": 1812,
      "##ꕃ": 1813,
      "##ꕚ": 1814,
      "##ꕯ": 1815,
      "##🏽": 1816,
      "##←": 1817,
      "##👍": 1818,
      "##👏": 1819,
      "##ꔳ": 1820,
      "##ኄ": 1821,
      "##🇹": 1822,
      "##♂": 1823,
      "##□": 1824,
      "##▸": 1825,
      "##🇪": 1826,
      "##▼": 1827,
      "##◄": 1828,
      "##ꕘ": 1829,
      "##№": 1830,
      "##↑": 1831,
      "##ꗪ": 1832,
      "##⇒": 1833,
      "##ꗷ": 1834,
      "##●": 1835,
      "##😁": 1836,
      "##♥": 1837,
      "##ꖃ": 1838,
      "##😀": 1839,
      "##🇿": 1840,
      "##ꕧ": 1841,
      "##ଐ": 1842,
      "##❤": 1843,
      "##🇳": 1844,
      "##🇬": 1845,
      "##✔": 1846,
      "##🤲": 1847,
      "##ꗃ": 1848,
      "##©": 1849,
      "##ꖴ": 1850,
      "##😅": 1851,
      "##🇮": 1852,
      "##ꗱ": 1853,
      "##ꗉ": 1854,
      "##👑": 1855,
      "##⚽": 1856,
      "##💔": 1857,
      "##😋": 1858,
      "##✌": 1859,
      "##😏": 1860,
      "##🤔": 1861,
      "##▷": 1862,
      "##😜": 1863,
      "##💕": 1864,
      "##🤣": 1865,
      "##💪": 1866,
      "##🥰": 1867,
      "##🙌": 1868,
      "##☺": 1869,
      "##😍": 1870,
      "##💃": 1871,
      "##😎": 1872,
      "##😊": 1873,
      "##▪": 1874,
      "##🏃": 1875,
      "##🎉": 1876,
      "##ꔇ": 1877,
      "##😆": 1878,
      "##😒": 1879,
      "##👊": 1880,
      "##🌹": 1881,
      "##🙈": 1882,
      "##😹": 1883,
      "##😔": 1884,
      "##😄": 1885,
      "##💙": 1886,
      "##✊": 1887,
      "##🖤": 1888,
      "##💛": 1889,
      "##💚": 1890,
      "##✨": 1891,
      "##😢": 1892,
      "##🤍": 1893,
      "##👉": 1894,
      "##😉": 1895,
      "##🥺": 1896,
      "##👀": 1897,
      "##an": 1898,
      "##in": 1899,
      "##en": 1900,
      "##ar": 1901,
      "##wa": 1902,
      "##li": 1903,
      "##er": 1904,
      "##at": 1905,
      "##on": 1906,
      "##am": 1907,
      "ku": 1908,
      "wa": 1909,
      "##ka": 1910,
      "##is": 1911,
      "na": 1912,
      "##es": 1913,
      "##la": 1914,
      "ya": 1915,
      "##ha": 1916,
      "ma": 1917,
      "##le": 1918,
      "##it": 1919,
      "##ba": 1920,
      "##un": 1921,
      "##da": 1922,
      "##or": 1923,
      "##ia": 1924,
      "##ya": 1925,
      "##ku": 1926,
      "##hi": 1927,
      "##ma": 1928,
      "##ga": 1929,
      "##di": 1930,
      "##as": 1931,
      "##he": 1932,
      "##ir": 1933,
      "##om": 1934,
      "##ana": 1935,
      "##ta": 1936,
      "##os": 1937,
      "##ie": 1938,
      "##te": 1939,
      "de": 1940,
      "##ur": 1941,
      "##zi": 1942,
      "in": 1943,
      "##ki": 1944,
      "ka": 1945,
      "la": 1946,
      "##we": 1947,
      "##yo": 1948,
      "##lo": 1949,
      "ba": 1950,
      "##et": 1951,
      "##um": 1952,
      "##de": 1953,
      "ha": 1954,
      "##ke": 1955,
      "##za": 1956,
      "##ho": 1957,
      "##us": 1958,
      "##ye": 1959,
      "##ati": 1960,
      "##ti": 1961,
      "an": 1962,
      "da": 1963,
      "##ko": 1964,
      "##im": 1965,
      "##ing": 1966,
      "##to": 1967,
      "kwa": 1968,
      "##ic": 1969,
      "##ra": 1970,
      "ni": 1971,
      "##go": 1972,
      "##ani": 1973,
      "en": 1974,
      "mu": 1975,
      "##do": 1976,
      "##al": 1977,
      "##ara": 1978,
      "##si": 1979,
      "##ge": 1980,
      "##gu": 1981,
      "##be": 1982,
      "am": 1983,
      "##sa": 1984,
      "##ji": 1985,
      "##bu": 1986,
      "le": 1987,
      "se": 1988,
      "##bo": 1989,
      "##hu": 1990,
      "##ari": 1991,
      "ki": 1992,
      "ta": 1993,
      "##re": 1994,
      "ال": 1995,
      "##ama": 1996,
      "die": 1997,
      "sa": 1998,
      "##ri": 1999,
      "za": 2000,
      "##oo": 2001,
      "##bi": 2002,
      "20": 2003,
      "##el": 2004,
      "to": 2005,
      "ny": 2006,
      "##se": 2007,
      "hi": 2008,
      "##ini": 2009,
      "##ja": 2010,
      "##ata": 2011,
      "##ro": 2012,
      "##zo": 2013,
      "##po": 2014,
      "re": 2015,
      "##ul": 2016,
      "ne": 2017,
      "##ina": 2018,
      "##ch": 2019,
      "si": 2020,
      "##fa": 2021,
      "no": 2022,
      "##na": 2023,
      "mo": 2024,
      "##tu": 2025,
      "##em": 2026,
      "##ed": 2027,
      "di": 2028,
      "is": 2029,
      "##il": 2030,
      "##pa": 2031,
      "##ent": 2032,
      "##yi": 2033,
      "on": 2034,
      "##du": 2035,
      "##va": 2036,
      "mi": 2037,
      "al": 2038,
      "kati": 2039,
      "##wan": 2040,
      "so": 2041,
      "##fu": 2042,
      "201": 2043,
      "the": 2044,
      "be": 2045,
      "##gi": 2046,
      "do": 2047,
      "##wen": 2048,
      "##ita": 2049,
      "com": 2050,
      "##ter": 2051,
      "##sh": 2052,
      "su": 2053,
      "##mu": 2054,
      "ko": 2055,
      "##ca": 2056,
      "un": 2057,
      "hu": 2058,
      "##ano": 2059,
      "es": 2060,
      "te": 2061,
      "vi": 2062,
      "ga": 2063,
      "wat": 2064,
      "##are": 2065,
      "ali": 2066,
      "##lu": 2067,
      "go": 2068,
      "##id": 2069,
      "ye": 2070,
      "##and": 2071,
      "ra": 2072,
      "##ona": 2073,
      "##pe": 2074,
      "##ue": 2075,
      "##wo": 2076,
      "##ere": 2077,
      "li": 2078,
      "katika": 2079,
      "##ira": 2080,
      "##isa": 2081,
      "##ang": 2082,
      "##iri": 2083,
      "as": 2084,
      "me": 2085,
      "##anga": 2086,
      "pa": 2087,
      "##ci": 2088,
      "##wi": 2089,
      "bi": 2090,
      "##ut": 2091,
      "po": 2092,
      "of": 2093,
      "ke": 2094,
      "ge": 2095,
      "##ce": 2096,
      "con": 2097,
      "##so": 2098,
      "##me": 2099,
      "cha": 2100,
      "ho": 2101,
      "##amu": 2102,
      "we": 2103,
      "bo": 2104,
      "tu": 2105,
      "19": 2106,
      "##mo": 2107,
      "ch": 2108,
      "kuwa": 2109,
      "##ad": 2110,
      "ti": 2111,
      "##ze": 2112,
      "lo": 2113,
      "fa": 2114,
      "##ine": 2115,
      "em": 2116,
      "af": 2117,
      "##ru": 2118,
      "oo": 2119,
      "##pi": 2120,
      "##oni": 2121,
      "##chi": 2122,
      "##ve": 2123,
      "##isha": 2124,
      "van": 2125,
      "##ua": 2126,
      "##ene": 2127,
      "##ami": 2128,
      "ar": 2129,
      "kan": 2130,
      "##fan": 2131,
      "##ts": 2132,
      "##ers": 2133,
      "##era": 2134,
      "##eri": 2135,
      "um": 2136,
      "##isi": 2137,
      "##vi": 2138,
      "##fi": 2139,
      "wan": 2140,
      "ak": 2141,
      "us": 2142,
      "yo": 2143,
      "th": 2144,
      "mat": 2145,
      "##mi": 2146,
      "at": 2147,
      "##ol": 2148,
      "ab": 2149,
      "bu": 2150,
      "10": 2151,
      "##iti": 2152,
      "and": 2153,
      "sh": 2154,
      "##je": 2155,
      "om": 2156,
      "##asa": 2157,
      "pro": 2158,
      "##eng": 2159,
      "mar": 2160,
      "##kuwa": 2161,
      "##asi": 2162,
      "wo": 2163,
      "##anz": 2164,
      "wana": 2165,
      "ng": 2166,
      "##uu": 2167,
      "##ende": 2168,
      "##ung": 2169,
      "##eni": 2170,
      "amba": 2171,
      "##co": 2172,
      "ay": 2173,
      "##xa": 2174,
      "##ne": 2175,
      "##ena": 2176,
      "mwa": 2177,
      "##wenye": 2178,
      "##una": 2179,
      "ndi": 2180,
      "ili": 2181,
      "እን": 2182,
      "##kwa": 2183,
      "yi": 2184,
      "jo": 2185,
      "man": 2186,
      "ca": 2187,
      "##uri": 2188,
      "##th": 2189,
      "##ame": 2190,
      "##one": 2191,
      "pos": 2192,
      "##ber": 2193,
      "que": 2194,
      "ja": 2195,
      "##ane": 2196,
      "ad": 2197,
      "im": 2198,
      "pe": 2199,
      "##anda": 2200,
      "va": 2201,
      "he": 2202,
      "##ore": 2203,
      "##ongo": 2204,
      "##vu": 2205,
      "##ong": 2206,
      "##uni": 2207,
      "au": 2208,
      "wi": 2209,
      "het": 2210,
      "nga": 2211,
      "##che": 2212,
      "ap": 2213,
      "##ania": 2214,
      "##ungu": 2215,
      "je": 2216,
      "##ال": 2217,
      "ji": 2218,
      "##cha": 2219,
      "ver": 2220,
      "ci": 2221,
      "pr": 2222,
      "##ate": 2223,
      "##ist": 2224,
      "nie": 2225,
      "##lia": 2226,
      "gu": 2227,
      "kuto": 2228,
      "ts": 2229,
      "op": 2230,
      "mas": 2231,
      "uku": 2232,
      "ah": 2233,
      "for": 2234,
      "##ato": 2235,
      "##der": 2236,
      "by": 2237,
      "wali": 2238,
      "##ni": 2239,
      "##ada": 2240,
      "##bari": 2241,
      "mku": 2242,
      "##ant": 2243,
      "##lis": 2244,
      "ana": 2245,
      "##ome": 2246,
      "lu": 2247,
      "##mba": 2248,
      "##log": 2249,
      "##vo": 2250,
      "##ente": 2251,
      "##ст": 2252,
      "el": 2253,
      "des": 2254,
      "ek": 2255,
      "du": 2256,
      "##ରେ": 2257,
      "shi": 2258,
      "st": 2259,
      "##ura": 2260,
      "##wu": 2261,
      "##yaa": 2262,
      "ee": 2263,
      "12": 2264,
      "mic": 2265,
      "##ment": 2266,
      "11": 2267,
      "ina": 2268,
      "##ish": 2269,
      "kama": 2270,
      "##amo": 2271,
      "##ito": 2272,
      "wak": 2273,
      "##anzania": 2274,
      "##ese": 2275,
      "##uru": 2276,
      "was": 2277,
      "##ran": 2278,
      "fi": 2279,
      "##oro": 2280,
      "##han": 2281,
      "mp": 2282,
      "nd": 2283,
      "par": 2284,
      "fe": 2285,
      "##ен": 2286,
      "##itu": 2287,
      "18": 2288,
      "##yu": 2289,
      "nu": 2290,
      "kam": 2291,
      "zi": 2292,
      "##ora": 2293,
      "una": 2294,
      "iyo": 2295,
      "##ية": 2296,
      "aki": 2297,
      "##vyo": 2298,
      "aan": 2299,
      "##kan": 2300,
      "15": 2301,
      "##yan": 2302,
      "##ek": 2303,
      "##ingi": 2304,
      "##fun": 2305,
      "co": 2306,
      "##bwa": 2307,
      "ri": 2308,
      "mba": 2309,
      "##ان": 2310,
      "##ation": 2311,
      "##ele": 2312,
      "##ɛn": 2313,
      "habari": 2314,
      "##ver": 2315,
      "##ቸው": 2316,
      "et": 2317,
      "kwenye": 2318,
      "sha": 2319,
      "waxa": 2320,
      "##atu": 2321,
      "##end": 2322,
      "##wana": 2323,
      "##ly": 2324,
      "##ord": 2325,
      "##pu": 2326,
      "##ାର": 2327,
      "##hova": 2328,
      "aba": 2329,
      "##fanya": 2330,
      "##ind": 2331,
      "##ban": 2332,
      "dit": 2333,
      "የሚ": 2334,
      "##ono": 2335,
      "##esu": 2336,
      "13": 2337,
      "##kana": 2338,
      "##amba": 2339,
      "##ting": 2340,
      "##но": 2341,
      "kup": 2342,
      "##ite": 2343,
      "14": 2344,
      "soo": 2345,
      "##est": 2346,
      "##ifa": 2347,
      "kun": 2348,
      "##qu": 2349,
      "kum": 2350,
      "vo": 2351,
      "sy": 2352,
      "met": 2353,
      "tanzania": 2354,
      "##umi": 2355,
      "في": 2356,
      "mus": 2357,
      "##ond": 2358,
      "##ens": 2359,
      "ro": 2360,
      "##ino": 2361,
      "ur": 2362,
      "##idi": 2363,
      "vir": 2364,
      "##ɔn": 2365,
      "del": 2366,
      "##ambo": 2367,
      "ex": 2368,
      "##st": 2369,
      "##ishi": 2370,
      "##gh": 2371,
      "ama": 2372,
      "16": 2373,
      "hiyo": 2374,
      "il": 2375,
      "kut": 2376,
      "##no": 2377,
      "##ham": 2378,
      "qu": 2379,
      "sit": 2380,
      "17": 2381,
      "##ire": 2382,
      "mun": 2383,
      "##kali": 2384,
      "##cia": 2385,
      "oku": 2386,
      "##hus": 2387,
      "##enda": 2388,
      "por": 2389,
      "it": 2390,
      "vya": 2391,
      "##ak": 2392,
      "ju": 2393,
      "200": 2394,
      "kus": 2395,
      "##bar": 2396,
      "or": 2397,
      "الم": 2398,
      "##ala": 2399,
      "##esi": 2400,
      "##esa": 2401,
      "aka": 2402,
      "##ୋ": 2403,
      "##ose": 2404,
      "##ali": 2405,
      "##etu": 2406,
      "##ime": 2407,
      "##imu": 2408,
      "jy": 2409,
      "##ica": 2410,
      "##ро": 2411,
      "dan": 2412,
      "##cho": 2413,
      "fo": 2414,
      "miche": 2415,
      "##ume": 2416,
      "mb": 2417,
      "##esha": 2418,
      "mwan": 2419,
      "mak": 2420,
      "##cao": 2421,
      "kazi": 2422,
      "##rika": 2423,
      "ag": 2424,
      "##inga": 2425,
      "dha": 2426,
      "##lan": 2427,
      "ons": 2428,
      "ru": 2429,
      "gi": 2430,
      "##res": 2431,
      "pi": 2432,
      "##dda": 2433,
      "michezo": 2434,
      "##ɛɛ": 2435,
      "##ра": 2436,
      "##jo": 2437,
      "##sema": 2438,
      "##ات": 2439,
      "##ry": 2440,
      "##ise": 2441,
      "ነው": 2442,
      "##amb": 2443,
      "wen": 2444,
      "yake": 2445,
      "qa": 2446,
      "os": 2447,
      "she": 2448,
      "yan": 2449,
      "##kiwa": 2450,
      "##fe": 2451,
      "##any": 2452,
      "##eti": 2453,
      "##umu": 2454,
      "##ct": 2455,
      "من": 2456,
      "##ori": 2457,
      "##day": 2458,
      "##ris": 2459,
      "uu": 2460,
      "dar": 2461,
      "##zu": 2462,
      "##ary": 2463,
      "##lik": 2464,
      "min": 2465,
      "baada": 2466,
      "ber": 2467,
      "kas": 2468,
      "##aro": 2469,
      "##man": 2470,
      "##osi": 2471,
      "##ዎች": 2472,
      "ame": 2473,
      "##dhi": 2474,
      "##endele": 2475,
      "ban": 2476,
      "##ነት": 2477,
      "##wer": 2478,
      "##ين": 2479,
      "er": 2480,
      "##enzi": 2481,
      "##ok": 2482,
      "##ju": 2483,
      "sitting": 2484,
      "##kin": 2485,
      "watu": 2486,
      "##sha": 2487,
      "chi": 2488,
      "ayaa": 2489,
      "sal": 2490,
      "per": 2491,
      "seri": 2492,
      "##ار": 2493,
      "##por": 2494,
      "##00": 2495,
      "##iro": 2496,
      "##tem": 2497,
      "para": 2498,
      "##bili": 2499,
      "##fo": 2500,
      "##su": 2501,
      "##usa": 2502,
      "##kh": 2503,
      "##ام": 2504,
      "##ко": 2505,
      "##indi": 2506,
      "##kwe": 2507,
      "mkuu": 2508,
      "wakati": 2509,
      "##ck": 2510,
      "##amii": 2511,
      "kab": 2512,
      "amin": 2513,
      "##ɔɔ": 2514,
      "rais": 2515,
      "##ys": 2516,
      "les": 2517,
      "ac": 2518,
      "##dan": 2519,
      "bar": 2520,
      "zaidi": 2521,
      "##ll": 2522,
      "ngo": 2523,
      "ut": 2524,
      "hii": 2525,
      "ol": 2526,
      "##ер": 2527,
      "men": 2528,
      "##tion": 2529,
      "uma": 2530,
      "21": 2531,
      "25": 2532,
      "##ph": 2533,
      "##les": 2534,
      "blog": 2535,
      "wake": 2536,
      "የተ": 2537,
      "##onge": 2538,
      "che": 2539,
      "ms": 2540,
      "sana": 2541,
      "##ont": 2542,
      "dia": 2543,
      "##liwa": 2544,
      "serikali": 2545,
      "##kini": 2546,
      "kutoka": 2547,
      "##laa": 2548,
      "по": 2549,
      "har": 2550,
      "ce": 2551,
      "##pan": 2552,
      "##osa": 2553,
      "24": 2554,
      "mwaka": 2555,
      "##omo": 2556,
      "##ulu": 2557,
      "##zwa": 2558,
      "wu": 2559,
      "kw": 2560,
      "##hili": 2561,
      "leo": 2562,
      "comment": 2563,
      "yesu": 2564,
      "##icha": 2565,
      "tam": 2566,
      "shu": 2567,
      "user": 2568,
      "##ан": 2569,
      "##ero": 2570,
      "##то": 2571,
      "ve": 2572,
      "mt": 2573,
      "##ли": 2574,
      "##ାନ": 2575,
      "##san": 2576,
      "kom": 2577,
      "22": 2578,
      "kɛ": 2579,
      "##kun": 2580,
      "##lin": 2581,
      "##ure": 2582,
      "mw": 2583,
      "ter": 2584,
      "maga": 2585,
      "sta": 2586,
      "siku": 2587,
      "##eshi": 2588,
      "##hay": 2589,
      "##ambu": 2590,
      "##anu": 2591,
      "##bele": 2592,
      "this": 2593,
      "nɛ": 2594,
      "##ବା": 2595,
      "##ich": 2596,
      "##weza": 2597,
      "##isho": 2598,
      "30": 2599,
      "እና": 2600,
      "##ase": 2601,
      "##cion": 2602,
      "hul": 2603,
      "##ль": 2604,
      "##jini": 2605,
      "waa": 2606,
      "new": 2607,
      "##eno": 2608,
      "jamii": 2609,
      "##endo": 2610,
      "##iso": 2611,
      "##arifa": 2612,
      "uli": 2613,
      "##per": 2614,
      "ema": 2615,
      "kim": 2616,
      "mara": 2617,
      "##umba": 2618,
      "23": 2619,
      "##unge": 2620,
      "እንደ": 2621,
      "##ble": 2622,
      "##umbe": 2623,
      "00": 2624,
      "##ଙକ": 2625,
      "nch": 2626,
      "kar": 2627,
      "kuti": 2628,
      "##ны": 2629,
      "##ust": 2630,
      "##lay": 2631,
      "zo": 2632,
      "##го": 2633,
      "waz": 2634,
      "الا": 2635,
      "##ith": 2636,
      "2018": 2637,
      "mko": 2638,
      "lɛ": 2639,
      "uta": 2640,
      "afrika": 2641,
      "##ess": 2642,
      "##gan": 2643,
      "##yin": 2644,
      "##chu": 2645,
      "##eria": 2646,
      "##tan": 2647,
      "##har": 2648,
      "##usi": 2649,
      "##ии": 2650,
      "ou": 2651,
      "my": 2652,
      "kwamba": 2653,
      "##omba": 2654,
      "pu": 2655,
      "##haa": 2656,
      "iz": 2657,
      "bara": 2658,
      "home": 2659,
      "eli": 2660,
      "ላይ": 2661,
      "##yn": 2662,
      "##ها": 2663,
      "sim": 2664,
      "##ff": 2665,
      "poli": 2666,
      "eng": 2667,
      "nchini": 2668,
      "##iny": 2669,
      "sasa": 2670,
      "pre": 2671,
      "##lka": 2672,
      "##ony": 2673,
      "lakini": 2674,
      "nya": 2675,
      "##sili": 2676,
      "ir": 2677,
      "##unga": 2678,
      "##kia": 2679,
      "##ento": 2680,
      "ime": 2681,
      "ok": 2682,
      "ser": 2683,
      "sep": 2684,
      "##ard": 2685,
      "##wit": 2686,
      "mada": 2687,
      "##kum": 2688,
      "ob": 2689,
      "nchi": 2690,
      "ପର": 2691,
      "mon": 2692,
      "uj": 2693,
      "на": 2694,
      "tsa": 2695,
      "post": 2696,
      "mis": 2697,
      "alisema": 2698,
      "##las": 2699,
      "est": 2700,
      "face": 2701,
      "dhi": 2702,
      "feb": 2703,
      "san": 2704,
      "kuma": 2705,
      "##ାଇ": 2706,
      "tra": 2707,
      "word": 2708,
      "hy": 2709,
      "##qa": 2710,
      "##int": 2711,
      "ita": 2712,
      "mwenye": 2713,
      "##shi": 2714,
      "mag": 2715,
      "##book": 2716,
      "##kala": 2717,
      "pamo": 2718,
      "ara": 2719,
      "dis": 2720,
      "##que": 2721,
      "inter": 2722,
      "##ted": 2723,
      "##cu": 2724,
      "sala": 2725,
      "dat": 2726,
      "maa": 2727,
      "##land": 2728,
      "##dos": 2729,
      "##xi": 2730,
      "##lela": 2731,
      "##ет": 2732,
      "kwe": 2733,
      "zan": 2734,
      "##kio": 2735,
      "aw": 2736,
      "nan": 2737,
      "##ik": 2738,
      "map": 2739,
      "ele": 2740,
      "como": 2741,
      "##bia": 2742,
      "##ير": 2743,
      "hapa": 2744,
      "kwan": 2745,
      "mbali": 2746,
      "loo": 2747,
      "mia": 2748,
      "facebook": 2749,
      "##ውን": 2750,
      "##ondo": 2751,
      "pia": 2752,
      "କର": 2753,
      "##kea": 2754,
      "##ችን": 2755,
      "nt": 2756,
      "28": 2757,
      "##imi": 2758,
      "huo": 2759,
      "hai": 2760,
      "##aru": 2761,
      "ao": 2762,
      "email": 2763,
      "waziri": 2764,
      "saba": 2765,
      "ata": 2766,
      "kila": 2767,
      "##husu": 2768,
      "up": 2769,
      "nj": 2770,
      "uk": 2771,
      "moja": 2772,
      "##ras": 2773,
      "##dio": 2774,
      "##dh": 2775,
      "##wahili": 2776,
      "kuli": 2777,
      "esta": 2778,
      "##ри": 2779,
      "pamoja": 2780,
      "##zaji": 2781,
      "##enga": 2782,
      "war": 2783,
      "isa": 2784,
      "##und": 2785,
      "aa": 2786,
      "26": 2787,
      "url": 2788,
      "tan": 2789,
      "##ре": 2790,
      "han": 2791,
      "hat": 2792,
      "der": 2793,
      "eb": 2794,
      "##yar": 2795,
      "hivyo": 2796,
      "vol": 2797,
      "comments": 2798,
      "27": 2799,
      "##kut": 2800,
      "##imo": 2801,
      "gr": 2802,
      "yu": 2803,
      "##die": 2804,
      "##lish": 2805,
      "dec": 2806,
      "##inda": 2807,
      "hata": 2808,
      "##ici": 2809,
      "nov": 2810,
      "nam": 2811,
      "##ول": 2812,
      "##jili": 2813,
      "bat": 2814,
      "##од": 2815,
      "##eto": 2816,
      "##tel": 2817,
      "2017": 2818,
      "##ов": 2819,
      "los": 2820,
      "are": 2821,
      "ken": 2822,
      "wil": 2823,
      "##ico": 2824,
      "wata": 2825,
      "##ନତ": 2826,
      "fr": 2827,
      "##ember": 2828,
      "##ongozi": 2829,
      "oor": 2830,
      "##umia": 2831,
      "##andi": 2832,
      "cont": 2833,
      "jul": 2834,
      "uit": 2835,
      "tem": 2836,
      "kuu": 2837,
      "##ks": 2838,
      "cu": 2839,
      "##taa": 2840,
      "bes": 2841,
      "##dade": 2842,
      "##ombe": 2843,
      "አን": 2844,
      "##lɛ": 2845,
      "res": 2846,
      "baa": 2847,
      "##ple": 2848,
      "xa": 2849,
      "##kii": 2850,
      "##ambi": 2851,
      "ub": 2852,
      "tse": 2853,
      "ngu": 2854,
      "##oria": 2855,
      "jou": 2856,
      "omu": 2857,
      "ib": 2858,
      "kon": 2859,
      "hilo": 2860,
      "share": 2861,
      "##ingine": 2862,
      "daar": 2863,
      "hulle": 2864,
      "##ትዮ": 2865,
      "vide": 2866,
      "وال": 2867,
      "may": 2868,
      "maha": 2869,
      "##witter": 2870,
      "wɔ": 2871,
      "##ges": 2872,
      "##anchi": 2873,
      "##engo": 2874,
      "ai": 2875,
      "naa": 2876,
      "##hat": 2877,
      "mit": 2878,
      "picha": 2879,
      "##laya": 2880,
      "##kha": 2881,
      "##ла": 2882,
      "29": 2883,
      "cc": 2884,
      "##pp": 2885,
      "twitter": 2886,
      "hier": 2887,
      "##liza": 2888,
      "fed": 2889,
      "በመ": 2890,
      "##enge": 2891,
      "##hiri": 2892,
      "mai": 2893,
      "##moja": 2894,
      "##በት": 2895,
      "##ون": 2896,
      "##share": 2897,
      "##nan": 2898,
      "ent": 2899,
      "##lwa": 2900,
      "##ለው": 2901,
      "##pita": 2902,
      "yɛ": 2903,
      "##ري": 2904,
      "fu": 2905,
      "huu": 2906,
      "ان": 2907,
      "##indu": 2908,
      "mk": 2909,
      "##anza": 2910,
      "##tic": 2911,
      "##ishwa": 2912,
      "##ty": 2913,
      "hali": 2914,
      "##ጵያ": 2915,
      "##ገር": 2916,
      "zu": 2917,
      "sp": 2918,
      "##kulu": 2919,
      "##rit": 2920,
      "##ትዮጵያ": 2921,
      "bia": 2922,
      "taifa": 2923,
      "##را": 2924,
      "##ten": 2925,
      "salaam": 2926,
      "##yay": 2927,
      "عل": 2928,
      "mad": 2929,
      "##на": 2930,
      "yehova": 2931,
      "##dii": 2932,
      "wer": 2933,
      "bas": 2934,
      "waki": 2935,
      "ala": 2936,
      "juu": 2937,
      "##kho": 2938,
      "##shara": 2939,
      "##yika": 2940,
      "ndo": 2941,
      "reg": 2942,
      "##das": 2943,
      "##ando": 2944,
      "kuna": 2945,
      "##war": 2946,
      "son": 2947,
      "##enye": 2948,
      "jun": 2949,
      "car": 2950,
      "ago": 2951,
      "##kt": 2952,
      "##zung": 2953,
      "##enta": 2954,
      "ed": 2955,
      "iliyo": 2956,
      "##oso": 2957,
      "sooma": 2958,
      "##ig": 2959,
      "##ие": 2960,
      "kuhusu": 2961,
      "kuj": 2962,
      "jam": 2963,
      "##kuu": 2964,
      "##inta": 2965,
      "##eg": 2966,
      "jehova": 2967,
      "nde": 2968,
      "##endelea": 2969,
      "nk": 2970,
      "walio": 2971,
      "##yɛ": 2972,
      "nin": 2973,
      "kita": 2974,
      "##ab": 2975,
      "wame": 2976,
      "##ስት": 2977,
      "##kati": 2978,
      "nda": 2979,
      "##pata": 2980,
      "##kam": 2981,
      "yako": 2982,
      "mungu": 2983,
      "mash": 2984,
      "maj": 2985,
      "الت": 2986,
      "sun": 2987,
      "##lem": 2988,
      "##anka": 2989,
      "##dha": 2990,
      "mtu": 2991,
      "##kazi": 2992,
      "las": 2993,
      "mwana": 2994,
      "መን": 2995,
      "##ск": 2996,
      "tr": 2997,
      "##uro": 2998,
      "soomaali": 2999,
      "##khu": 3000,
      "av": 3001,
      "##urs": 3002,
      "##በር": 3003,
      "##usu": 3004,
      "##maa": 3005,
      "kili": 3006,
      "##kis": 3007,
      "##اد": 3008,
      "pas": 3009,
      "ges": 3010,
      "ps": 3011,
      "kis": 3012,
      "##zungum": 3013,
      "bɛ": 3014,
      "##ombo": 3015,
      "##umb": 3016,
      "oc": 3017,
      "##dili": 3018,
      "awa": 3019,
      "##kani": 3020,
      "##kua": 3021,
      "الع": 3022,
      "##ле": 3023,
      "mɛ": 3024,
      "gen": 3025,
      "##ия": 3026,
      "##imbo": 3027,
      "የመ": 3028,
      "##lla": 3029,
      "##pos": 3030,
      "##adhi": 3031,
      "31": 3032,
      "2016": 3033,
      "እንዲ": 3034,
      "አስ": 3035,
      "abo": 3036,
      "##dad": 3037,
      "vy": 3038,
      "##umo": 3039,
      "yana": 3040,
      "##uti": 3041,
      "የአ": 3042,
      "##kar": 3043,
      "##zibar": 3044,
      "##use": 3045,
      "had": 3046,
      "tun": 3047,
      "ambayo": 3048,
      "sam": 3049,
      "tuna": 3050,
      "##onga": 3051,
      "##iasa": 3052,
      "nje": 3053,
      "mare": 3054,
      "ben": 3055,
      "##ataifa": 3056,
      "##ken": 3057,
      "sub": 3058,
      "wananchi": 3059,
      "nge": 3060,
      "##ud": 3061,
      "mambo": 3062,
      "fran": 3063,
      "ndani": 3064,
      "##ዚህ": 3065,
      "zanzibar": 3066,
      "zili": 3067,
      "##mente": 3068,
      "##ces": 3069,
      "##ва": 3070,
      "az": 3071,
      "zina": 3072,
      "##ло": 3073,
      "dos": 3074,
      "das": 3075,
      "has": 3076,
      "aug": 3077,
      "that": 3078,
      "##bati": 3079,
      "video": 3080,
      "##ls": 3081,
      "##for": 3082,
      "##oto": 3083,
      "mil": 3084,
      "with": 3085,
      "##ит": 3086,
      "iya": 3087,
      "soma": 3088,
      "isi": 3089,
      "##ld": 3090,
      "##lisha": 3091,
      "fun": 3092,
      "bin": 3093,
      "mos": 3094,
      "##ዋል": 3095,
      "febru": 3096,
      "cor": 3097,
      "##zuri": 3098,
      "##ما": 3099,
      "fil": 3100,
      "chama": 3101,
      "##bre": 3102,
      "ati": 3103,
      "##eme": 3104,
      "##gwa": 3105,
      "##mas": 3106,
      "##gen": 3107,
      "mbe": 3108,
      "##ega": 3109,
      "hawa": 3110,
      "##20": 3111,
      "ccm": 3112,
      "##gun": 3113,
      "id": 3114,
      "##gr": 3115,
      "##bli": 3116,
      "miaka": 3117,
      "matu": 3118,
      "pl": 3119,
      "kuji": 3120,
      "mid": 3121,
      "lin": 3122,
      "##ሆን": 3123,
      "##engine": 3124,
      "mili": 3125,
      "kit": 3126,
      "mf": 3127,
      "##taka": 3128,
      "yali": 3129,
      "kufanya": 3130,
      "በአ": 3131,
      "##rou": 3132,
      "##ቶች": 3133,
      "##ons": 3134,
      "kɔ": 3135,
      "##kuba": 3136,
      "ik": 3137,
      "waxaa": 3138,
      "news": 3139,
      "##omi": 3140,
      "##fic": 3141,
      "199": 3142,
      "hayo": 3143,
      "##usha": 3144,
      "dr": 3145,
      "pres": 3146,
      "kale": 3147,
      "2015": 3148,
      "##sy": 3149,
      "far": 3150,
      "maar": 3151,
      "##ker": 3152,
      "era": 3153,
      "won": 3154,
      "##ling": 3155,
      "##اي": 3156,
      "mwe": 3157,
      "##kat": 3158,
      "##kama": 3159,
      "##wala": 3160,
      "dh": 3161,
      "umu": 3162,
      "ile": 3163,
      "##anii": 3164,
      "pin": 3165,
      "##yansi": 3166,
      "##faa": 3167,
      "##ets": 3168,
      "##ست": 3169,
      "##wili": 3170,
      "##ଲା": 3171,
      "ze": 3172,
      "iza": 3173,
      "##onda": 3174,
      "ire": 3175,
      "##asha": 3176,
      "##ores": 3177,
      "##hn": 3178,
      "##futa": 3179,
      "mkoa": 3180,
      "##ins": 3181,
      "##bas": 3182,
      "mut": 3183,
      "posts": 3184,
      "foi": 3185,
      "##doo": 3186,
      "ко": 3187,
      "##zima": 3188,
      "saa": 3189,
      "xi": 3190,
      "nɔ": 3191,
      "2013": 3192,
      "yao": 3193,
      "english": 3194,
      "mal": 3195,
      "don": 3196,
      "kwanza": 3197,
      "##van": 3198,
      "##ور": 3199,
      "2019": 3200,
      "ug": 3201,
      "##guzi": 3202,
      "በተ": 3203,
      "ambao": 3204,
      "##kele": 3205,
      "##ity": 3206,
      "ene": 3207,
      "lagu": 3208,
      "##ни": 3209,
      "br": 3210,
      "net": 3211,
      "daga": 3212,
      "##ef": 3213,
      "##amente": 3214,
      "kana": 3215,
      "##tra": 3216,
      "huyo": 3217,
      "nel": 3218,
      "##mbali": 3219,
      "uwe": 3220,
      "ig": 3221,
      "khu": 3222,
      "##во": 3223,
      "kwen": 3224,
      "2012": 3225,
      "deur": 3226,
      "haki": 3227,
      "wao": 3228,
      "eg": 3229,
      "##ለም": 3230,
      "aban": 3231,
      "ind": 3232,
      "##wam": 3233,
      "und": 3234,
      "##eld": 3235,
      "##ben": 3236,
      "dow": 3237,
      "ndu": 3238,
      "sayansi": 3239,
      "##ars": 3240,
      "kitu": 3241,
      "mbalimbali": 3242,
      "##ood": 3243,
      "kp": 3244,
      "maji": 3245,
      "##let": 3246,
      "ugu": 3247,
      "##ango": 3248,
      "##fer": 3249,
      "##ско": 3250,
      "den": 3251,
      "##aria": 3252,
      "##اب": 3253,
      "nao": 3254,
      "biashara": 3255,
      "##ela": 3256,
      "##esema": 3257,
      "##kom": 3258,
      "##amp": 3259,
      "##ся": 3260,
      "##ми": 3261,
      "على": 3262,
      "##hen": 3263,
      "mpya": 3264,
      "yaa": 3265,
      "##hana": 3266,
      "janu": 3267,
      "kala": 3268,
      "mh": 3269,
      "naf": 3270,
      "mg": 3271,
      "kuba": 3272,
      "sho": 3273,
      "##kul": 3274,
      "##wani": 3275,
      "##gin": 3276,
      "ot": 3277,
      "mor": 3278,
      "##ስጥ": 3279,
      "##ida": 3280,
      "##baa": 3281,
      "##itia": 3282,
      "ten": 3283,
      "አይ": 3284,
      "muda": 3285,
      "wax": 3286,
      "2014": 3287,
      "stadi": 3288,
      "##gra": 3289,
      "##hemu": 3290,
      "##ለት": 3291,
      "kub": 3292,
      "##loo": 3293,
      "##ria": 3294,
      "mais": 3295,
      "ግን": 3296,
      "ወደ": 3297,
      "uni": 3298,
      "kaa": 3299,
      "##ps": 3300,
      "taarifa": 3301,
      "maal": 3302,
      "mɔ": 3303,
      "##hwa": 3304,
      "kari": 3305,
      "##lele": 3306,
      "##hla": 3307,
      "ajili": 3308,
      "ras": 3309,
      "nn": 3310,
      "hisa": 3311,
      "##edia": 3312,
      "##angu": 3313,
      "mawa": 3314,
      "jijini": 3315,
      "sɛ": 3316,
      "mul": 3317,
      "##cin": 3318,
      "##ric": 3319,
      "maarifa": 3320,
      "##ven": 3321,
      "bon": 3322,
      "##jana": 3323,
      "isra": 3324,
      "##fin": 3325,
      "##ትን": 3326,
      "inc": 3327,
      "##sen": 3328,
      "maisha": 3329,
      "madax": 3330,
      "baba": 3331,
      "##phe": 3332,
      "##ка": 3333,
      "hal": 3334,
      "##ante": 3335,
      "##zeti": 3336,
      "kubwa": 3337,
      "ani": 3338,
      "ii": 3339,
      "##lee": 3340,
      "aliye": 3341,
      "##tay": 3342,
      "voor": 3343,
      "gaan": 3344,
      "##husi": 3345,
      "##itra": 3346,
      "hierdie": 3347,
      "##heid": 3348,
      "tar": 3349,
      "you": 3350,
      "##ଲେ": 3351,
      "##hari": 3352,
      "ለመ": 3353,
      "##unt": 3354,
      "apri": 3355,
      "sababu": 3356,
      "##يا": 3357,
      "bila": 3358,
      "gb": 3359,
      "##fani": 3360,
      "##yna": 3361,
      "god": 3362,
      "##kaa": 3363,
      "ale": 3364,
      "kui": 3365,
      "hao": 3366,
      "kamp": 3367,
      "##hiriki": 3368,
      "##imba": 3369,
      "tsy": 3370,
      "##encia": 3371,
      "ume": 3372,
      "akiwa": 3373,
      "##like": 3374,
      "watoto": 3375,
      "##ings": 3376,
      "##та": 3377,
      "##fanyika": 3378,
      "koo": 3379,
      "ook": 3380,
      "wote": 3381,
      "mmoja": 3382,
      "wasi": 3383,
      "ucha": 3384,
      "##inu": 3385,
      "##tes": 3386,
      "##thi": 3387,
      "##her": 3388,
      "##ger": 3389,
      "waar": 3390,
      "haiba": 3391,
      "ila": 3392,
      "##ደር": 3393,
      "##lɔ": 3394,
      "##kiti": 3395,
      "wenye": 3396,
      "mbo": 3397,
      "hom": 3398,
      "sen": 3399,
      "gore": 3400,
      "##duma": 3401,
      "##ction": 3402,
      "nou": 3403,
      "kia": 3404,
      "pinter": 3405,
      "wam": 3406,
      "##lewa": 3407,
      "pinterest": 3408,
      "##nu": 3409,
      "yetu": 3410,
      "iki": 3411,
      "hisabati": 3412,
      "##hin": 3413,
      "fin": 3414,
      "##ats": 3415,
      "fre": 3416,
      "usa": 3417,
      "##lam": 3418,
      "fedha": 3419,
      "asi": 3420,
      "din": 3421,
      "##its": 3422,
      "##zing": 3423,
      "uch": 3424,
      "kin": 3425,
      "wada": 3426,
      "aku": 3427,
      "ውስጥ": 3428,
      "ireo": 3429,
      "col": 3430,
      "ins": 3431,
      "huku": 3432,
      "out": 3433,
      "ari": 3434,
      "##wanda": 3435,
      "##lim": 3436,
      "##ves": 3437,
      "##vel": 3438,
      "hivi": 3439,
      "can": 3440,
      "##لا": 3441,
      "##wanja": 3442,
      "##tho": 3443,
      "##ros": 3444,
      "all": 3445,
      "##dani": 3446,
      "vers": 3447,
      "##kon": 3448,
      "sua": 3449,
      "##atti": 3450,
      "matukio": 3451,
      "mam": 3452,
      "elimu": 3453,
      "aha": 3454,
      "##ሆኑ": 3455,
      "##ደረ": 3456,
      "bɔ": 3457,
      "kip": 3458,
      "bwa": 3459,
      "##thu": 3460,
      "ይህ": 3461,
      "hadi": 3462,
      "##laka": 3463,
      "sin": 3464,
      "##kuru": 3465,
      "##ያን": 3466,
      "ambaye": 3467,
      "duni": 3468,
      "afya": 3469,
      "mama": 3470,
      "chu": 3471,
      "##too": 3472,
      "comp": 3473,
      "cas": 3474,
      "##sion": 3475,
      "ኣብ": 3476,
      "jum": 3477,
      "##да": 3478,
      "hor": 3479,
      "ea": 3480,
      "##pha": 3481,
      "##uli": 3482,
      "tena": 3483,
      "##ንድ": 3484,
      "polisi": 3485,
      "##jwa": 3486,
      "sek": 3487,
      "##val": 3488,
      "##kari": 3489,
      "buru": 3490,
      "daa": 3491,
      "wilaya": 3492,
      "##icho": 3493,
      "mche": 3494,
      "muhi": 3495,
      "##yd": 3496,
      "##cri": 3497,
      "bw": 3498,
      "40": 3499,
      "##the": 3500,
      "##omb": 3501,
      "##omu": 3502,
      "cho": 3503,
      "ለማ": 3504,
      "##kisha": 3505,
      "##bara": 3506,
      "maka": 3507,
      "dad": 3508,
      "##gar": 3509,
      "kat": 3510,
      "##blog": 3511,
      "her": 3512,
      "##ти": 3513,
      "##con": 3514,
      "abu": 3515,
      "huduma": 3516,
      "##dig": 3517,
      "deg": 3518,
      "fan": 3519,
      "##ля": 3520,
      "##hl": 3521,
      "his": 3522,
      "##waa": 3523,
      "ስለ": 3524,
      "entre": 3525,
      "32": 3526,
      "##ሆነ": 3527,
      "kul": 3528,
      "taa": 3529,
      "maba": 3530,
      "kimataifa": 3531,
      "nyi": 3532,
      "##min": 3533,
      "jir": 3534,
      "dur": 3535,
      "##يد": 3536,
      "##kiswahili": 3537,
      "wiki": 3538,
      "posted": 3539,
      "waka": 3540,
      "##ibu": 3541,
      "الح": 3542,
      "##uma": 3543,
      "##ght": 3544,
      "07": 3545,
      "hist": 3546,
      "kwi": 3547,
      "##anta": 3548,
      "##kel": 3549,
      "##atra": 3550,
      "kusa": 3551,
      "##يل": 3552,
      "from": 3553,
      "qo": 3554,
      "nz": 3555,
      "50": 3556,
      "mm": 3557,
      "не": 3558,
      "##yen": 3559,
      "##ቸውን": 3560,
      "##50": 3561,
      "##ራት": 3562,
      "fur": 3563,
      "##نا": 3564,
      "haya": 3565,
      "jumbe": 3566,
      "viongozi": 3567,
      "timu": 3568,
      "maana": 3569,
      "nafasi": 3570,
      "mwen": 3571,
      "bet": 3572,
      "ham": 3573,
      "ра": 3574,
      "##وا": 3575,
      "##eso": 3576,
      "##den": 3577,
      "gar": 3578,
      "amesema": 3579,
      "##endeleo": 3580,
      "kh": 3581,
      "እየ": 3582,
      "ste": 3583,
      "##mb": 3584,
      "baadhi": 3585,
      "toe": 3586,
      "##ista": 3587,
      "##kula": 3588,
      "kya": 3589,
      "une": 3590,
      "##gua": 3591,
      "hizo": 3592,
      "rep": 3593,
      "##ashi": 3594,
      "gra": 3595,
      "sheria": 3596,
      "more": 3597,
      "hak": 3598,
      "usi": 3599,
      "kor": 3600,
      "##ሪያ": 3601,
      "##ongeza": 3602,
      "mata": 3603,
      "nas": 3604,
      "##gwe": 3605,
      "tran": 3606,
      "kupata": 3607,
      "##oog": 3608,
      "##30": 3609,
      "wor": 3610,
      "mali": 3611,
      "cent": 3612,
      "##paka": 3613,
      "##piga": 3614,
      "##tal": 3615,
      "##dia": 3616,
      "##tember": 3617,
      "##kw": 3618,
      "comm": 3619,
      "john": 3620,
      "##port": 3621,
      "ima": 3622,
      "tare": 3623,
      "soomaaliya": 3624,
      "##bat": 3625,
      "##idia": 3626,
      "##this": 3627,
      "##hita": 3628,
      "wengi": 3629,
      "##በረ": 3630,
      "og": 3631,
      "february": 3632,
      "со": 3633,
      "##zia": 3634,
      "##bc": 3635,
      "##yey": 3636,
      "##vol": 3637,
      "nti": 3638,
      "dun": 3639,
      "##10": 3640,
      "sur": 3641,
      "ambapo": 3642,
      "kutokana": 3643,
      "##emba": 3644,
      "kal": 3645,
      "الس": 3646,
      "ori": 3647,
      "ada": 3648,
      "simba": 3649,
      "الى": 3650,
      "nini": 3651,
      "لل": 3652,
      "##ther": 3653,
      "kutoa": 3654,
      "magu": 3655,
      "jana": 3656,
      "##gha": 3657,
      "##anya": 3658,
      "bay": 3659,
      "tsh": 3660,
      "##weka": 3661,
      "##bal": 3662,
      "jan": 3663,
      "##zungumza": 3664,
      "exp": 3665,
      "##ንም": 3666,
      "##ton": 3667,
      "wanao": 3668,
      "33": 3669,
      "vit": 3670,
      "mala": 3671,
      "##ስተ": 3672,
      "wannan": 3673,
      "wetu": 3674,
      "##unda": 3675,
      "##vers": 3676,
      "##enti": 3677,
      "##ariki": 3678,
      "nor": 3679,
      "gal": 3680,
      "basi": 3681,
      "##ታት": 3682,
      "pet": 3683,
      "tal": 3684,
      "sheega": 3685,
      "##ୟା": 3686,
      "##line": 3687,
      "##ors": 3688,
      "الق": 3689,
      "##zara": 3690,
      "##rug": 3691,
      "##ତର": 3692,
      "##ем": 3693,
      "kris": 3694,
      "##yaan": 3695,
      "##kie": 3696,
      "2011": 3697,
      "##lie": 3698,
      "##umbu": 3699,
      "##howa": 3700,
      "##haki": 3701,
      "34": 3702,
      "twittershare": 3703,
      "thisblog": 3704,
      "thisblogthis": 3705,
      "kuk": 3706,
      "indi": 3707,
      "alla": 3708,
      "aj": 3709,
      "kpa": 3710,
      "01": 3711,
      "##koo": 3712,
      "waku": 3713,
      "mwenyekiti": 3714,
      "max": 3715,
      "sat": 3716,
      "በማ": 3717,
      "aad": 3718,
      "##ee": 3719,
      "sao": 3720,
      "produ": 3721,
      "app": 3722,
      "maendeleo": 3723,
      "hapo": 3724,
      "##weni": 3725,
      "##bel": 3726,
      "##iria": 3727,
      "ndio": 3728,
      "про": 3729,
      "lili": 3730,
      "##ርት": 3731,
      "moet": 3732,
      "##br": 3733,
      "##oot": 3734,
      "ulio": 3735,
      "ky": 3736,
      "chini": 3737,
      "ସେ": 3738,
      "##fika": 3739,
      "2010": 3740,
      "yin": 3741,
      "##bon": 3742,
      "dal": 3743,
      "198": 3744,
      "الب": 3745,
      "##fuli": 3746,
      "##enu": 3747,
      "##hara": 3748,
      "dom": 3749,
      "##vid": 3750,
      "tl": 3751,
      "yanga": 3752,
      "##ру": 3753,
      "за": 3754,
      "##kɛ": 3755,
      "mimi": 3756,
      "##ላይ": 3757,
      "mes": 3758,
      "##ny": 3759,
      "ano": 3760,
      "02": 3761,
      "kupitia": 3762,
      "uh": 3763,
      "baie": 3764,
      "##indo": 3765,
      "shule": 3766,
      "via": 3767,
      "##لك": 3768,
      "zao": 3769,
      "dalka": 3770,
      "##zione": 3771,
      "bei": 3772,
      "##tano": 3773,
      "kua": 3774,
      "##ario": 3775,
      "##saa": 3776,
      "siasa": 3777,
      "03": 3778,
      "nom": 3779,
      "##عد": 3780,
      "##ኢትዮጵያ": 3781,
      "##insi": 3782,
      "##bit": 3783,
      "##funzi": 3784,
      "tla": 3785,
      "##inge": 3786,
      "##lar": 3787,
      "##ili": 3788,
      "hili": 3789,
      "##phi": 3790,
      "ing": 3791,
      "obu": 3792,
      "##cial": 3793,
      "tɔ": 3794,
      "የሚያ": 3795,
      "##dogo": 3796,
      "uchaguzi": 3797,
      "cam": 3798,
      "maak": 3799,
      "august": 3800,
      "uf": 3801,
      "##undi": 3802,
      "hoe": 3803,
      "##ult": 3804,
      "mme": 3805,
      "##amani": 3806,
      "wengine": 3807,
      "tanga": 3808,
      "zilizo": 3809,
      "prin": 3810,
      "##60": 3811,
      "kara": 3812,
      "##dala": 3813,
      "bal": 3814,
      "kha": 3815,
      "##pas": 3816,
      "##وم": 3817,
      "##ux": 3818,
      "##dy": 3819,
      "lat": 3820,
      "mjini": 3821,
      "##lima": 3822,
      "hatua": 3823,
      "bak": 3824,
      "naye": 3825,
      "waj": 3826,
      "kuku": 3827,
      "##ବେ": 3828,
      "##ement": 3829,
      "##wee": 3830,
      "awon": 3831,
      "##atia": 3832,
      "##че": 3833,
      "kina": 3834,
      "prof": 3835,
      "aga": 3836,
      "mto": 3837,
      "bur": 3838,
      "nye": 3839,
      "mana": 3840,
      "##ረት": 3841,
      "##tober": 3842,
      "hore": 3843,
      "september": 3844,
      "##coes": 3845,
      "ጋር": 3846,
      "dhe": 3847,
      "##pele": 3848,
      "35": 3849,
      "not": 3850,
      "sɔ": 3851,
      "tur": 3852,
      "##wali": 3853,
      "magufuli": 3854,
      "##mbi": 3855,
      "ary": 3856,
      "mkutano": 3857,
      "nili": 3858,
      "##anyi": 3859,
      "abantu": 3860,
      "##amini": 3861,
      "##raa": 3862,
      "wala": 3863,
      "##low": 3864,
      "##رب": 3865,
      "##unu": 3866,
      "suka": 3867,
      "##ans": 3868,
      "zote": 3869,
      "val": 3870,
      "lwa": 3871,
      "ase": 3872,
      "vu": 3873,
      "bus": 3874,
      "fami": 3875,
      "cal": 3876,
      "##wn": 3877,
      "hos": 3878,
      "06": 3879,
      "yer": 3880,
      "kuta": 3881,
      "wag": 3882,
      "shir": 3883,
      "##alada": 3884,
      "stu": 3885,
      "ass": 3886,
      "ont": 3887,
      "nat": 3888,
      "ein": 3889,
      "##jia": 3890,
      "##pul": 3891,
      "aut": 3892,
      "የማ": 3893,
      "##yada": 3894,
      "##biri": 3895,
      "vie": 3896,
      "kur": 3897,
      "if": 3898,
      "##ାମ": 3899,
      "##zin": 3900,
      "መንግ": 3901,
      "##esho": 3902,
      "##dat": 3903,
      "##wɔ": 3904,
      "ger": 3905,
      "год": 3906,
      "##ice": 3907,
      "january": 3908,
      "##dem": 3909,
      "trans": 3910,
      "##umbani": 3911,
      "kweli": 3912,
      "##alka": 3913,
      "vijana": 3914,
      "##ory": 3915,
      "##keo": 3916,
      "pm": 3917,
      "april": 3918,
      "##cc": 3919,
      "197": 3920,
      "при": 3921,
      "spe": 3922,
      "asa": 3923,
      "xu": 3924,
      "july": 3925,
      "##tig": 3926,
      "mch": 3927,
      "##dde": 3928,
      "aye": 3929,
      "ସମ": 3930,
      "hin": 3931,
      "##los": 3932,
      "kumu": 3933,
      "taas": 3934,
      "dowla": 3935,
      "##هم": 3936,
      "maoni": 3937,
      "об": 3938,
      "kabla": 3939,
      "##40": 3940,
      "##يم": 3941,
      "##undu": 3942,
      "wizara": 3943,
      "##kee": 3944,
      "##ተኛ": 3945,
      "simu": 3946,
      "##cas": 3947,
      "sehemu": 3948,
      "december": 3949,
      "one": 3950,
      "##kile": 3951,
      "boo": 3952,
      "от": 3953,
      "ከተ": 3954,
      "tim": 3955,
      "##kɔ": 3956,
      "alikuwa": 3957,
      "burudani": 3958,
      "pili": 3959,
      "##soek": 3960,
      "wako": 3961,
      "во": 3962,
      "##pit": 3963,
      "ጊዜ": 3964,
      "##induzi": 3965,
      "bongo": 3966,
      "بال": 3967,
      "kad": 3968,
      "##huri": 3969,
      "lit": 3970,
      "##koa": 3971,
      "dans": 3972,
      "ebi": 3973,
      "november": 3974,
      "volg": 3975,
      "ate": 3976,
      "mato": 3977,
      "kula": 3978,
      "const": 3979,
      "march": 3980,
      "##ств": 3981,
      "##mer": 3982,
      "##pr": 3983,
      "##ws": 3984,
      "الج": 3985,
      "##eli": 3986,
      "##dwa": 3987,
      "##ited": 3988,
      "አለ": 3989,
      "##ርስ": 3990,
      "##ence": 3991,
      "##ug": 3992,
      "bora": 3993,
      "tume": 3994,
      "##ପର": 3995,
      "##ାହ": 3996,
      "##ell": 3997,
      "ኢትዮጵያ": 3998,
      "rec": 3999,
      "##еи": 4000,
      "yangu": 4001,
      "tot": 4002,
      "magazeti": 4003,
      "##jua": 4004,
      "lina": 4005,
      "##atizo": 4006,
      "из": 4007,
      "laa": 4008,
      "##ак": 4009,
      "kenya": 4010,
      "##hle": 4011,
      "##aman": 4012,
      "##uka": 4013,
      "kitaifa": 4014,
      "uz": 4015,
      "##କଷ": 4016,
      "mkoani": 4017,
      "hicho": 4018,
      "facebookshare": 4019,
      "non": 4020,
      "##mal": 4021,
      "embas": 4022,
      "bya": 4023,
      "live": 4024,
      "##won": 4025,
      "##ft": 4026,
      "##ereza": 4027,
      "mbi": 4028,
      "june": 4029,
      "embassy": 4030,
      "##ky": 4031,
      "wasa": 4032,
      "##iste": 4033,
      "##esus": 4034,
      "nyingine": 4035,
      "##ምን": 4036,
      "##zee": 4037,
      "laga": 4038,
      "sida": 4039,
      "any": 4040,
      "ଦେ": 4041,
      "web": 4042,
      "pour": 4043,
      "08": 4044,
      "pla": 4045,
      "njia": 4046,
      "jira": 4047,
      "gud": 4048,
      "ihe": 4049,
      "ofisi": 4050,
      "100": 4051,
      "##ungano": 4052,
      "msa": 4053,
      "mense": 4054,
      "##miwa": 4055,
      "##pon": 4056,
      "##lon": 4057,
      "##hala": 4058,
      "##dai": 4059,
      "ଏହ": 4060,
      "##iel": 4061,
      "##hitaji": 4062,
      "lim": 4063,
      "##angi": 4064,
      "##ande": 4065,
      "nne": 4066,
      "dɔ": 4067,
      "09": 4068,
      "eneo": 4069,
      "dunia": 4070,
      "tor": 4071,
      "uki": 4072,
      "madaxwe": 4073,
      "##ghu": 4074,
      "mbu": 4075,
      "##ин": 4076,
      "##vie": 4077,
      "october": 4078,
      "nyumba": 4079,
      "inay": 4080,
      "dem": 4081,
      "sheegay": 4082,
      "##hama": 4083,
      "##khe": 4084,
      "esi": 4085,
      "yoo": 4086,
      "##лен": 4087,
      "##по": 4088,
      "dir": 4089,
      "bina": 4090,
      "della": 4091,
      "kə": 4092,
      "አንድ": 4093,
      "##ambe": 4094,
      "##ድር": 4095,
      "##asema": 4096,
      "05": 4097,
      "##ated": 4098,
      "##ingia": 4099,
      "zake": 4100,
      "##kao": 4101,
      "##ange": 4102,
      "##amaa": 4103,
      "tɛ": 4104,
      "ወይ": 4105,
      "ang": 4106,
      "wani": 4107,
      "cikin": 4108,
      "jambo": 4109,
      "##yote": 4110,
      "##araka": 4111,
      "soos": 4112,
      "ful": 4113,
      "##rica": 4114,
      "nke": 4115,
      "##uso": 4116,
      "እስ": 4117,
      "##xo": 4118,
      "##eny": 4119,
      "مع": 4120,
      "##del": 4121,
      "##kry": 4122,
      "##aran": 4123,
      "##ziki": 4124,
      "36": 4125,
      "wangu": 4126,
      "wees": 4127,
      "badan": 4128,
      "but": 4129,
      "radio": 4130,
      "##lika": 4131,
      "##pt": 4132,
      "##ii": 4133,
      "num": 4134,
      "kata": 4135,
      "##hoto": 4136,
      "ton": 4137,
      "ul": 4138,
      "pers": 4139,
      "ነበር": 4140,
      "##yaka": 4141,
      "fir": 4142,
      "ciid": 4143,
      "bel": 4144,
      "##by": 4145,
      "noo": 4146,
      "ubu": 4147,
      "oyo": 4148,
      "##art": 4149,
      "##vin": 4150,
      "37": 4151,
      "##kela": 4152,
      "##ŋa": 4153,
      "cab": 4154,
      "##din": 4155,
      "##antes": 4156,
      "##ial": 4157,
      "twa": 4158,
      "##kap": 4159,
      "set": 4160,
      "##hr": 4161,
      "##une": 4162,
      "##qo": 4163,
      "##ste": 4164,
      "##jibu": 4165,
      "mur": 4166,
      "##ulo": 4167,
      "akka": 4168,
      "##cio": 4169,
      "##11": 4170,
      "kampuni": 4171,
      "ezi": 4172,
      "##hoo": 4173,
      "mta": 4174,
      "gran": 4175,
      "dhidi": 4176,
      "onder": 4177,
      "04": 4178,
      "##entes": 4179,
      "kufu": 4180,
      "shuga": 4181,
      "asili": 4182,
      "##hy": 4183,
      "cre": 4184,
      "sem": 4185,
      "##lea": 4186,
      "##win": 4187,
      "maja": 4188,
      "##wɛ": 4189,
      "dist": 4190,
      "##rɛ": 4191,
      "##କା": 4192,
      "inayo": 4193,
      "glo": 4194,
      "##kor": 4195,
      "##doma": 4196,
      "sc": 4197,
      "##athi": 4198,
      "fut": 4199,
      "muungano": 4200,
      "##wake": 4201,
      "##bab": 4202,
      "ikiwa": 4203,
      "katibu": 4204,
      "jesu": 4205,
      "bul": 4206,
      "kwani": 4207,
      "##vy": 4208,
      "sec": 4209,
      "##pre": 4210,
      "mbili": 4211,
      "media": 4212,
      "nyumbani": 4213,
      "##ንግ": 4214,
      "kuf": 4215,
      "##son": 4216,
      "##gn": 4217,
      "##ନଦ": 4218,
      "gobo": 4219,
      "##iele": 4220,
      "бы": 4221,
      "##bwe": 4222,
      "bunge": 4223,
      "mchezo": 4224,
      "maku": 4225,
      "rus": 4226,
      "##عة": 4227,
      "##их": 4228,
      "##if": 4229,
      "about": 4230,
      "##ድረ": 4231,
      "anga": 4232,
      "wewe": 4233,
      "bana": 4234,
      "##ዲስ": 4235,
      "الف": 4236,
      "##dzi": 4237,
      "##ନା": 4238,
      "##ራዊ": 4239,
      "michu": 4240,
      "##ود": 4241,
      "##ገባ": 4242,
      "atu": 4243,
      "##iru": 4244,
      "online": 4245,
      "##ላል": 4246,
      "##କର": 4247,
      "##eshimiwa": 4248,
      "##رة": 4249,
      "kush": 4250,
      "##esh": 4251,
      "ete": 4252,
      "ରା": 4253,
      "##cal": 4254,
      "fer": 4255,
      "marekani": 4256,
      "ef": 4257,
      "nyo": 4258,
      "nna": 4259,
      "ujumbe": 4260,
      "##rugenzi": 4261,
      "ጉዳ": 4262,
      "wal": 4263,
      "hakuna": 4264,
      "አል": 4265,
      "##ель": 4266,
      "kasar": 4267,
      "##bem": 4268,
      "##ዝብ": 4269,
      "uka": 4270,
      "##fs": 4271,
      "##kata": 4272,
      "##untu": 4273,
      "عن": 4274,
      "magaalada": 4275,
      "princi": 4276,
      "##ୋଇ": 4277,
      "الش": 4278,
      "gre": 4279,
      "een": 4280,
      "##shauri": 4281,
      "dai": 4282,
      "som": 4283,
      "##led": 4284,
      "##ey": 4285,
      "kule": 4286,
      "seu": 4287,
      "##ungo": 4288,
      "ହେ": 4289,
      "45": 4290,
      "##eru": 4291,
      "aya": 4292,
      "##cribe": 4293,
      "##ath": 4294,
      "##toa": 4295,
      "mtoto": 4296,
      "##buni": 4297,
      "2009": 4298,
      "olu": 4299,
      "conta": 4300,
      "kwenda": 4301,
      "##lizi": 4302,
      "##enya": 4303,
      "ପାଇ": 4304,
      "tatu": 4305,
      "##gal": 4306,
      "##onjwa": 4307,
      "bado": 4308,
      "yote": 4309,
      "##tii": 4310,
      "lis": 4311,
      "##pia": 4312,
      "እንዳ": 4313,
      "jose": 4314,
      "soc": 4315,
      "yeye": 4316,
      "##kwete": 4317,
      "qab": 4318,
      "ngi": 4319,
      "mkurugenzi": 4320,
      "##etse": 4321,
      "##yari": 4322,
      "##cer": 4323,
      "rom": 4324,
      "cer": 4325,
      "mtanda": 4326,
      "ባለ": 4327,
      "alipo": 4328,
      "##им": 4329,
      "bir": 4330,
      "tso": 4331,
      "hay": 4332,
      "mpaka": 4333,
      "kura": 4334,
      "qui": 4335,
      "dodoma": 4336,
      "weer": 4337,
      "##ika": 4338,
      "##med": 4339,
      "##ations": 4340,
      "whi": 4341,
      "##lala": 4342,
      "tin": 4343,
      "mbunge": 4344,
      "በሚ": 4345,
      "##lii": 4346,
      "subs": 4347,
      "waxay": 4348,
      "atom": 4349,
      "38": 4350,
      "##ational": 4351,
      "##arka": 4352,
      "##ɛm": 4353,
      "pri": 4354,
      "##ат": 4355,
      "وا": 4356,
      "##pande": 4357,
      "fara": 4358,
      "intern": 4359,
      "##eneo": 4360,
      "izay": 4361,
      "##وس": 4362,
      "##dee": 4363,
      "##aka": 4364,
      "ያለ": 4365,
      "von": 4366,
      "vitu": 4367,
      "##dema": 4368,
      "part": 4369,
      "##limu": 4370,
      "##penda": 4371,
      "39": 4372,
      "geb": 4373,
      "dkt": 4374,
      "tv": 4375,
      "##goro": 4376,
      "ahu": 4377,
      "moo": 4378,
      "##حد": 4379,
      "##mada": 4380,
      "##ann": 4381,
      "##bɛ": 4382,
      "##andishi": 4383,
      "bai": 4384,
      "wale": 4385,
      "ቤት": 4386,
      "fol": 4387,
      "meer": 4388,
      "41": 4389,
      "makala": 4390,
      "ነገር": 4391,
      "bee": 4392,
      "gə": 4393,
      "##ных": 4394,
      "до": 4395,
      "mwisho": 4396,
      "sii": 4397,
      "cewa": 4398,
      "الن": 4399,
      "##nes": 4400,
      "aansoek": 4401,
      "ɖe": 4402,
      "##kolo": 4403,
      "##нои": 4404,
      "##daa": 4405,
      "sul": 4406,
      "jina": 4407,
      "tə": 4408,
      "maeneo": 4409,
      "እንደሚ": 4410,
      "##laha": 4411,
      "list": 4412,
      "##ሪካ": 4413,
      "ukuba": 4414,
      "##yeen": 4415,
      "##ሰብ": 4416,
      "muhimu": 4417,
      "bre": 4418,
      "lee": 4419,
      "let": 4420,
      "##irka": 4421,
      "aja": 4422,
      "##hamu": 4423,
      "wanafunzi": 4424,
      "historia": 4425,
      "##kal": 4426,
      "wanawake": 4427,
      "uga": 4428,
      "##ance": 4429,
      "ly": 4430,
      "##zazi": 4431,
      "الد": 4432,
      "kutumia": 4433,
      "yaliyo": 4434,
      "jesus": 4435,
      "omo": 4436,
      "ହୋଇ": 4437,
      "##pal": 4438,
      "##jin": 4439,
      "##dag": 4440,
      "bali": 4441,
      "vita": 4442,
      "oh": 4443,
      "uwa": 4444,
      "int": 4445,
      "##ଛନତ": 4446,
      "##ataka": 4447,
      "##ingwa": 4448,
      "matokeo": 4449,
      "read": 4450,
      "doen": 4451,
      "##ias": 4452,
      "mab": 4453,
      "tele": 4454,
      "jer": 4455,
      "##ሁን": 4456,
      "##cy": 4457,
      "196": 4458,
      "what": 4459,
      "bona": 4460,
      "##jiri": 4461,
      "uwanja": 4462,
      "##gaa": 4463,
      "lie": 4464,
      "tus": 4465,
      "chadema": 4466,
      "##ray": 4467,
      "tshi": 4468,
      "mer": 4469,
      "hel": 4470,
      "dire": 4471,
      "yam": 4472,
      "##lom": 4473,
      "older": 4474,
      "kamati": 4475,
      "##tar": 4476,
      "publi": 4477,
      "##tre": 4478,
      "##isu": 4479,
      "ander": 4480,
      "##ረጃ": 4481,
      "##chen": 4482,
      "fɔ": 4483,
      "##fiki": 4484,
      "masu": 4485,
      "mn": 4486,
      "##ova": 4487,
      "kikwete": 4488,
      "mheshimiwa": 4489,
      "chat": 4490,
      "##angaza": 4491,
      "mbele": 4492,
      "##сти": 4493,
      "##yya": 4494,
      "kug": 4495,
      "##قد": 4496,
      "milioni": 4497,
      "##yana": 4498,
      "somali": 4499,
      "##ms": 4500,
      "bib": 4501,
      "laba": 4502,
      "የም": 4503,
      "sel": 4504,
      "الك": 4505,
      "mpe": 4506,
      "subscribe": 4507,
      "jinsi": 4508,
      "##ቱን": 4509,
      "##kumbu": 4510,
      "##des": 4511,
      "mafun": 4512,
      "##gem": 4513,
      "##damu": 4514,
      "hum": 4515,
      "##kubali": 4516,
      "##zani": 4517,
      "##uk": 4518,
      "##car": 4519,
      "##gs": 4520,
      "vile": 4521,
      "##ሮች": 4522,
      "##rɔ": 4523,
      "tamin": 4524,
      "nyingi": 4525,
      "##weze": 4526,
      "##keza": 4527,
      "jamhuri": 4528,
      "##اء": 4529,
      "wafanya": 4530,
      "mhe": 4531,
      "mwanzo": 4532,
      "nos": 4533,
      "##baka": 4534,
      "##aa": 4535,
      "tom": 4536,
      "ake": 4537,
      "rasmi": 4538,
      "##hir": 4539,
      "blo": 4540,
      "kutu": 4541,
      "gha": 4542,
      "euro": 4543,
      "tarehe": 4544,
      "##yoo": 4545,
      "cons": 4546,
      "dk": 4547,
      "##siliano": 4548,
      "tir": 4549,
      "##zini": 4550,
      "##ron": 4551,
      "yehowa": 4552,
      "##ateg": 4553,
      "saf": 4554,
      "##ሎች": 4555,
      "zinazo": 4556,
      "tas": 4557,
      "##mia": 4558,
      "muri": 4559,
      "ns": 4560,
      "lya": 4561,
      "ምክ": 4562,
      "##بر": 4563,
      "kabisa": 4564,
      "##bha": 4565,
      "##де": 4566,
      "ave": 4567,
      "##fauti": 4568,
      "መል": 4569,
      "ligi": 4570,
      "##yaha": 4571,
      "popul": 4572,
      "mani": 4573,
      "##king": 4574,
      "##сс": 4575,
      "kla": 4576,
      "##lio": 4577,
      "oro": 4578,
      "haar": 4579,
      "newer": 4580,
      "##gɔ": 4581,
      "land": 4582,
      "gani": 4583,
      "eni": 4584,
      "##naa": 4585,
      "##vent": 4586,
      "42": 4587,
      "##alama": 4588,
      "bil": 4589,
      "##ናል": 4590,
      "aina": 4591,
      "fit": 4592,
      "##لي": 4593,
      "##መን": 4594,
      "##ግባ": 4595,
      "##ାରେ": 4596,
      "##onyesha": 4597,
      "akizungumza": 4598,
      "##iya": 4599,
      "door": 4600,
      "##ви": 4601,
      "ሁሉ": 4602,
      "##chukua": 4603,
      "##pati": 4604,
      "bwana": 4605,
      "##اف": 4606,
      "ses": 4607,
      "##maan": 4608,
      "eka": 4609,
      "mkubwa": 4610,
      "wɛ": 4611,
      "yenye": 4612,
      "xil": 4613,
      "eri": 4614,
      "umoja": 4615,
      "united": 4616,
      "##taan": 4617,
      "izany": 4618,
      "sara": 4619,
      "##kola": 4620,
      "vha": 4621,
      "nw": 4622,
      "##gba": 4623,
      "imi": 4624,
      "kik": 4625,
      "end": 4626,
      "kij": 4627,
      "##indwa": 4628,
      "##ər": 4629,
      "##amin": 4630,
      "bot": 4631,
      "##kuti": 4632,
      "##hlo": 4633,
      "##ithi": 4634,
      "gas": 4635,
      "mwezi": 4636,
      "duniani": 4637,
      "tre": 4638,
      "##hani": 4639,
      "##ysa": 4640,
      "lan": 4641,
      "ukuthi": 4642,
      "kir": 4643,
      "bab": 4644,
      "##ብር": 4645,
      "##atibu": 4646,
      "gba": 4647,
      "##gram": 4648,
      "##iche": 4649,
      "##ትና": 4650,
      "##maha": 4651,
      "ዓመ": 4652,
      "saam": 4653,
      "##رك": 4654,
      "##gga": 4655,
      "##ombea": 4656,
      "##gue": 4657,
      "here": 4658,
      "siya": 4659,
      "nguvu": 4660,
      "prime": 4661,
      "##cel": 4662,
      "كان": 4663,
      "##udi": 4664,
      "jaar": 4665,
      "mari": 4666,
      "##ста": 4667,
      "ez": 4668,
      "##bɔ": 4669,
      "moto": 4670,
      "##kara": 4671,
      "##ገል": 4672,
      "emi": 4673,
      "##par": 4674,
      "##itwa": 4675,
      "gwa": 4676,
      "arusha": 4677,
      "were": 4678,
      "##fadhi": 4679,
      "##erio": 4680,
      "munici": 4681,
      "##tos": 4682,
      "##ywa": 4683,
      "##ungua": 4684,
      "naibu": 4685,
      "##hela": 4686,
      "swi": 4687,
      "##este": 4688,
      "##bora": 4689,
      "kuka": 4690,
      "##сто": 4691,
      "wux": 4692,
      "##dor": 4693,
      "##shindi": 4694,
      "oko": 4695,
      "africa": 4696,
      "ujenzi": 4697,
      "ura": 4698,
      "kai": 4699,
      "##ንያ": 4700,
      "##ingo": 4701,
      "oma": 4702,
      "wur": 4703,
      "nime": 4704,
      "##embe": 4705,
      "pelo": 4706,
      "kawa": 4707,
      "kadi": 4708,
      "wereld": 4709,
      "##wezi": 4710,
      "##ied": 4711,
      "parte": 4712,
      "##endaji": 4713,
      "kipindi": 4714,
      "##cional": 4715,
      "##ques": 4716,
      "gwam": 4717,
      "##bay": 4718,
      "44": 4719,
      "ant": 4720,
      "pat": 4721,
      "##اس": 4722,
      "##hidi": 4723,
      "gaa": 4724,
      "cy": 4725,
      "otu": 4726,
      "wap": 4727,
      "##zwe": 4728,
      "##goo": 4729,
      "gbe": 4730,
      "##kus": 4731,
      "pra": 4732,
      "nə": 4733,
      "gro": 4734,
      "##cis": 4735,
      "swa": 4736,
      "kute": 4737,
      "jeshi": 4738,
      "have": 4739,
      "music": 4740,
      "##ча": 4741,
      "##khulu": 4742,
      "ከም": 4743,
      "##vun": 4744,
      "##21": 4745,
      "##can": 4746,
      "##70": 4747,
      "##ep": 4748,
      "bam": 4749,
      "mawasiliano": 4750,
      "##pio": 4751,
      "##hii": 4752,
      "sisi": 4753,
      "##eral": 4754,
      "##mɔ": 4755,
      "##els": 4756,
      "##ରୀ": 4757,
      "##jie": 4758,
      "##arch": 4759,
      "tambem": 4760,
      "sio": 4761,
      "##zama": 4762,
      "##ost": 4763,
      "##lig": 4764,
      "##amento": 4765,
      "ndugu": 4766,
      "pan": 4767,
      "##lha": 4768,
      "##hia": 4769,
      "##ମାନ": 4770,
      "##yne": 4771,
      "##kwen": 4772,
      "nasi": 4773,
      "##him": 4774,
      "mot": 4775,
      "nee": 4776,
      "##gana": 4777,
      "##ры": 4778,
      "super": 4779,
      "##бо": 4780,
      "tayari": 4781,
      "gee": 4782,
      "wab": 4783,
      "sai": 4784,
      "marka": 4785,
      "vin": 4786,
      "##መለ": 4787,
      "##disho": 4788,
      "##ве": 4789,
      "same": 4790,
      "ris": 4791,
      "##amada": 4792,
      "##liki": 4793,
      "##bur": 4794,
      "gover": 4795,
      "##angwa": 4796,
      "parti": 4797,
      "##сь": 4798,
      "ምን": 4799,
      "##bin": 4800,
      "like": 4801,
      "huko": 4802,
      "##fikia": 4803,
      "umma": 4804,
      "##ного": 4805,
      "##lek": 4806,
      "##ition": 4807,
      "come": 4808,
      "194": 4809,
      "##ɓe": 4810,
      "watanzania": 4811,
      "tek": 4812,
      "##pika": 4813,
      "وت": 4814,
      "##wara": 4815,
      "##мен": 4816,
      "##onde": 4817,
      "ɖo": 4818,
      "plus": 4819,
      "##pote": 4820,
      "##يس": 4821,
      "##lamu": 4822,
      "##xt": 4823,
      "##radi": 4824,
      "muu": 4825,
      "anyi": 4826,
      "##zana": 4827,
      "##daha": 4828,
      "volgende": 4829,
      "የእ": 4830,
      "##vuti": 4831,
      "##umbi": 4832,
      "##kiri": 4833,
      "bwe": 4834,
      "##fia": 4835,
      "##ላት": 4836,
      "eo": 4837,
      "mwanam": 4838,
      "tyd": 4839,
      "wakiwa": 4840,
      "juma": 4841,
      "##lozi": 4842,
      "msingi": 4843,
      "tro": 4844,
      "get": 4845,
      "##mar": 4846,
      "ker": 4847,
      "moro": 4848,
      "##funga": 4849,
      "taasisi": 4850,
      "መስ": 4851,
      "use": 4852,
      "pela": 4853,
      "##anao": 4854,
      "ደግ": 4855,
      "dhu": 4856,
      "jehovah": 4857,
      "ua": 4858,
      "kpo": 4859,
      "እያ": 4860,
      "##ters": 4861,
      "hoo": 4862,
      "##kas": 4863,
      "nina": 4864,
      "##lelo": 4865,
      "##lwe": 4866,
      "##kur": 4867,
      "karibu": 4868,
      "##ungi": 4869,
      "##ки": 4870,
      "##19": 4871,
      "mahakama": 4872,
      "amu": 4873,
      "modi": 4874,
      "##ən": 4875,
      "عام": 4876,
      "dira": 4877,
      "hizi": 4878,
      "anti": 4879,
      "##ress": 4880,
      "##lai": 4881,
      "bbc": 4882,
      "##get": 4883,
      "##dades": 4884,
      "በእ": 4885,
      "fam": 4886,
      "bantu": 4887,
      "pen": 4888,
      "الل": 4889,
      "inf": 4890,
      "gan": 4891,
      "ayo": 4892,
      "##bka": 4893,
      "43": 4894,
      "masha": 4895,
      "##emb": 4896,
      "rea": 4897,
      "пер": 4898,
      "##onekana": 4899,
      "vifaa": 4900,
      "##lisa": 4901,
      "##ଥବା": 4902,
      "yen": 4903,
      "israel": 4904,
      "goo": 4905,
      "60": 4906,
      "nog": 4907,
      "##ast": 4908,
      "##pl": 4909,
      "anos": 4910,
      "##kira": 4911,
      "##teri": 4912,
      "##ates": 4913,
      "##ତା": 4914,
      "##ambia": 4915,
      "##ዳን": 4916,
      "##xe": 4917,
      "##بي": 4918,
      "kandi": 4919,
      "то": 4920,
      "abe": 4921,
      "##ар": 4922,
      "baraza": 4923,
      "ade": 4924,
      "uko": 4925,
      "##wanga": 4926,
      "tho": 4927,
      "tofauti": 4928,
      "##jiji": 4929,
      "##ash": 4930,
      "##arin": 4931,
      "##cos": 4932,
      "nyɛ": 4933,
      "gh": 4934,
      "କେ": 4935,
      "##قة": 4936,
      "ini": 4937,
      "##uno": 4938,
      "bala": 4939,
      "##iao": 4940,
      "##hiin": 4941,
      "##osha": 4942,
      "edi": 4943,
      "hasa": 4944,
      "kuanz": 4945,
      "2008": 4946,
      "bor": 4947,
      "apr": 4948,
      "##dza": 4949,
      "##tha": 4950,
      "uchumi": 4951,
      "pages": 4952,
      "vyombo": 4953,
      "##eriya": 4954,
      "mei": 4955,
      "sie": 4956,
      "rel": 4957,
      "werk": 4958,
      "halma": 4959,
      "##pewa": 4960,
      "пре": 4961,
      "##ለን": 4962,
      "##عل": 4963,
      "tuli": 4964,
      "መብ": 4965,
      "uti": 4966,
      "nii": 4967,
      "wad": 4968,
      "game": 4969,
      "ahaa": 4970,
      "mbeya": 4971,
      "አባ": 4972,
      "alle": 4973,
      "mati": 4974,
      "##amad": 4975,
      "##aso": 4976,
      "##mad": 4977,
      "ps0": 4978,
      "##ille": 4979,
      "familia": 4980,
      "naj": 4981,
      "##ላቸው": 4982,
      "mita": 4983,
      "##ced": 4984,
      "##ghi": 4985,
      "ambazo": 4986,
      "okwa": 4987,
      "dham": 4988,
      "aza": 4989,
      "##belea": 4990,
      "hospita": 4991,
      "ደግሞ": 4992,
      "cin": 4993,
      "halmashauri": 4994,
      "##ribu": 4995,
      "kali": 4996,
      "mie": 4997,
      "##tica": 4998,
      "##elle": 4999,
      "imp": 5000,
      "comple": 5001,
      "chang": 5002,
      "eki": 5003,
      "او": 5004,
      "አካ": 5005,
      "chuo": 5006,
      "هذ": 5007,
      "izy": 5008,
      "የነ": 5009,
      "##yon": 5010,
      "ndipo": 5011,
      "##elu": 5012,
      "##wango": 5013,
      "wazi": 5014,
      "esc": 5015,
      "##kp": 5016,
      "##rist": 5017,
      "##gg": 5018,
      "##pho": 5019,
      "##umishi": 5020,
      "##ବର": 5021,
      "##iet": 5022,
      "##atan": 5023,
      "huyu": 5024,
      "ida": 5025,
      "ድር": 5026,
      "##tim": 5027,
      "ре": 5028,
      "##uta": 5029,
      "band": 5030,
      "##ongwe": 5031,
      "tum": 5032,
      "##ler": 5033,
      "вы": 5034,
      "##bet": 5035,
      "мо": 5036,
      "other": 5037,
      "sig": 5038,
      "vizuri": 5039,
      "ሰው": 5040,
      "amer": 5041,
      "bang": 5042,
      "##24": 5043,
      "pale": 5044,
      "kry": 5045,
      "vis": 5046,
      "kud": 5047,
      "##ungwa": 5048,
      "ako": 5049,
      "mma": 5050,
      "its": 5051,
      "who": 5052,
      "kituo": 5053,
      "tɩ": 5054,
      "ayi": 5055,
      "##يت": 5056,
      "bro": 5057,
      "jed": 5058,
      "##wal": 5059,
      "sus": 5060,
      "ŋa": 5061,
      "km": 5062,
      "nuwe": 5063,
      "##was": 5064,
      "ሳይ": 5065,
      "##kutana": 5066,
      "##ፈል": 5067,
      "##ort": 5068,
      "domin": 5069,
      "adi": 5070,
      "tahay": 5071,
      "ndiyo": 5072,
      "which": 5073,
      "አስተ": 5074,
      "##مل": 5075,
      "kuja": 5076,
      "demo": 5077,
      "baka": 5078,
      "##କାର": 5079,
      "mpi": 5080,
      "michuzi": 5081,
      "kristo": 5082,
      "sama": 5083,
      "gbo": 5084,
      "##ታል": 5085,
      "##rik": 5086,
      "uwezo": 5087,
      "inst": 5088,
      "medi": 5089,
      "##amua": 5090,
      "kid": 5091,
      "dadka": 5092,
      "##cheza": 5093,
      "##ଧୟ": 5094,
      "nit": 5095,
      "shugaban": 5096,
      "upande": 5097,
      "##ቅር": 5098,
      "го": 5099,
      "##ଙଗ": 5100,
      "waxaana": 5101,
      "nim": 5102,
      "dib": 5103,
      "musa": 5104,
      "mechi": 5105,
      "ran": 5106,
      "##gera": 5107,
      "##ገድ": 5108,
      "guu": 5109,
      "##ner": 5110,
      "##ous": 5111,
      "kasi": 5112,
      "kuch": 5113,
      "sir": 5114,
      "mke": 5115,
      "##ные": 5116,
      "የኢትዮጵያ": 5117,
      "kaka": 5118,
      "said": 5119,
      "tok": 5120,
      "win": 5121,
      "##ାସ": 5122,
      "dɛ": 5123,
      "##via": 5124,
      "##esia": 5125,
      "##ረው": 5126,
      "##itaka": 5127,
      "kuru": 5128,
      "ski": 5129,
      "##imento": 5130,
      "##nin": 5131,
      "dim": 5132,
      "aho": 5133,
      "gari": 5134,
      "bye": 5135,
      "##hisi": 5136,
      "zin": 5137,
      "48": 5138,
      "cli": 5139,
      "##zingira": 5140,
      "bid": 5141,
      "##gee": 5142,
      "##kuta": 5143,
      "espe": 5144,
      "##wele": 5145,
      "##qui": 5146,
      "##ports": 5147,
      "وم": 5148,
      "##ag": 5149,
      "##amuzi": 5150,
      "ብዙ": 5151,
      "nun": 5152,
      "mashariki": 5153,
      "lazima": 5154,
      "##tsa": 5155,
      "##soma": 5156,
      "muq": 5157,
      "katiba": 5158,
      "ibi": 5159,
      "amma": 5160,
      "rehe": 5161,
      "mradi": 5162,
      "too": 5163,
      "mpango": 5164,
      "ute": 5165,
      "uhuru": 5166,
      "##ጀመ": 5167,
      "paulo": 5168,
      "ndege": 5169,
      "dag": 5170,
      "forma": 5171,
      "kind": 5172,
      "faa": 5173,
      "##lema": 5174,
      "195": 5175,
      "iy": 5176,
      "##lama": 5177,
      "kodi": 5178,
      "##ከል": 5179,
      "usalama": 5180,
      "##hanga": 5181,
      "##ግር": 5182,
      "bua": 5183,
      "55": 5184,
      "namna": 5185,
      "##ምህ": 5186,
      "aus": 5187,
      "lake": 5188,
      "amani": 5189,
      "mwi": 5190,
      "eme": 5191,
      "yahay": 5192,
      "##vana": 5193,
      "##sem": 5194,
      "allah": 5195,
      "dee": 5196,
      "##poti": 5197,
      "##ения": 5198,
      "somaliland": 5199,
      "46": 5200,
      "##endi": 5201,
      "zim": 5202,
      "jeho": 5203,
      "consi": 5204,
      "kusini": 5205,
      "maele": 5206,
      "##ую": 5207,
      "##lad": 5208,
      "sar": 5209,
      "ብቻ": 5210,
      "soka": 5211,
      "##fica": 5212,
      "char": 5213,
      "##tain": 5214,
      "##uzi": 5215,
      "batho": 5216,
      "kos": 5217,
      "muna": 5218,
      "bari": 5219,
      "ወይም": 5220,
      "kushoto": 5221,
      "fal": 5222,
      "suid": 5223,
      "##bii": 5224,
      "##ruik": 5225,
      "kiasi": 5226,
      "##umizi": 5227,
      "shirika": 5228,
      "##zz": 5229,
      "##uth": 5230,
      "mafunzo": 5231,
      "##ାଲ": 5232,
      "dzi": 5233,
      "paul": 5234,
      "lɔ": 5235,
      "mens": 5236,
      "mazingira": 5237,
      "bayan": 5238,
      "##hakikisha": 5239,
      "##kit": 5240,
      "##12": 5241,
      "##kke": 5242,
      "doona": 5243,
      "አመ": 5244,
      "kesi": 5245,
      "##ናት": 5246,
      "kundi": 5247,
      "##ንን": 5248,
      "##zea": 5249,
      "##fwa": 5250,
      "tes": 5251,
      "80": 5252,
      "##paa": 5253,
      "presid": 5254,
      "mapinduzi": 5255,
      "mwanza": 5256,
      "time": 5257,
      "inclu": 5258,
      "##lana": 5259,
      "##atin": 5260,
      "##ishe": 5261,
      "##angan": 5262,
      "##gani": 5263,
      "لا": 5264,
      "##ନେ": 5265,
      "##не": 5266,
      "##90": 5267,
      "haa": 5268,
      "mum": 5269,
      "kilimo": 5270,
      "yɔ": 5271,
      "ska": 5272,
      "##ባት": 5273,
      "ic": 5274,
      "tao": 5275,
      "##رو": 5276,
      "grande": 5277,
      "##في": 5278,
      "##gia": 5279,
      "dei": 5280,
      "##wemo": 5281,
      "##ezi": 5282,
      "nia": 5283,
      "##lop": 5284,
      "muqdisho": 5285,
      "##ልጣ": 5286,
      "##ret": 5287,
      "ସଂ": 5288,
      "ɣer": 5289,
      "mud": 5290,
      "አበ": 5291,
      "uba": 5292,
      "##ily": 5293,
      "##сть": 5294,
      "mwand": 5295,
      "onye": 5296,
      "##amul": 5297,
      "masa": 5298,
      "nama": 5299,
      "##pokea": 5300,
      "##pili": 5301,
      "nɩ": 5302,
      "##amoto": 5303,
      "sita": 5304,
      "ସହ": 5305,
      "##tin": 5306,
      "##ме": 5307,
      "ph": 5308,
      "groot": 5309,
      "##سم": 5310,
      "##kila": 5311,
      "##husiano": 5312,
      "##hali": 5313,
      "##bidhi": 5314,
      "ono": 5315,
      "##len": 5316,
      "qof": 5317,
      "wadau": 5318,
      "##ታዊ": 5319,
      "clas": 5320,
      "##uld": 5321,
      "##bani": 5322,
      "##pel": 5323,
      "##atis": 5324,
      "##anaa": 5325,
      "econ": 5326,
      "moham": 5327,
      "##38": 5328,
      "##vua": 5329,
      "##ette": 5330,
      "##elf": 5331,
      "city": 5332,
      "abi": 5333,
      "##ኛው": 5334,
      "tatizo": 5335,
      "nka": 5336,
      "dara": 5337,
      "التي": 5338,
      "kulia": 5339,
      "##ula": 5340,
      "##ila": 5341,
      "dowladda": 5342,
      "##tt": 5343,
      "##мо": 5344,
      "mfumo": 5345,
      "wie": 5346,
      "gele": 5347,
      "##uf": 5348,
      "##eleza": 5349,
      "ep": 5350,
      "wasu": 5351,
      "eers": 5352,
      "##enza": 5353,
      "mtaa": 5354,
      "gaba": 5355,
      "##ded": 5356,
      "##kumu": 5357,
      "ክፍ": 5358,
      "##ester": 5359,
      "##rid": 5360,
      "##በሩ": 5361,
      "##ynaha": 5362,
      "kwake": 5363,
      "##gala": 5364,
      "##andika": 5365,
      "ሰዎች": 5366,
      "kg": 5367,
      "##ଣଡ": 5368,
      "kasa": 5369,
      "air": 5370,
      "##14": 5371,
      "##biti": 5372,
      "mene": 5373,
      "##ents": 5374,
      "tut": 5375,
      "wuxuu": 5376,
      "kuzi": 5377,
      "ela": 5378,
      "kuri": 5379,
      "durante": 5380,
      "dawa": 5381,
      "way": 5382,
      "##amed": 5383,
      "eye": 5384,
      "##hio": 5385,
      "sou": 5386,
      "hospitali": 5387,
      "regi": 5388,
      "##erra": 5389,
      "ebe": 5390,
      "##ци": 5391,
      "pes": 5392,
      "usiku": 5393,
      "asilimia": 5394,
      "##ାଯ": 5395,
      "##ис": 5396,
      "##kuja": 5397,
      "day": 5398,
      "##ግራ": 5399,
      "##ୋଗ": 5400,
      "tat": 5401,
      "waandishi": 5402,
      "##aram": 5403,
      "ika": 5404,
      "##ችሁ": 5405,
      "karibuni": 5406,
      "plan": 5407,
      "kle": 5408,
      "##wane": 5409,
      "huru": 5410,
      "##dir": 5411,
      "markii": 5412,
      "##କତ": 5413,
      "የሰ": 5414,
      "samu": 5415,
      "##ାଗ": 5416,
      "##lile": 5417,
      "##bona": 5418,
      "wh": 5419,
      "الخ": 5420,
      "zai": 5421,
      "ବର": 5422,
      "##ɖe": 5423,
      "##lag": 5424,
      "pou": 5425,
      "##سل": 5426,
      "##ongoza": 5427,
      "swahili": 5428,
      "##bor": 5429,
      "mataifa": 5430,
      "izi": 5431,
      "china": 5432,
      "tha": 5433,
      "chan": 5434,
      "##indano": 5435,
      "##kulun": 5436,
      "##же": 5437,
      "mji": 5438,
      "47": 5439,
      "mwanamke": 5440,
      "sera": 5441,
      "acc": 5442,
      "##pula": 5443,
      "suala": 5444,
      "##ree": 5445,
      "ନେ": 5446,
      "##bali": 5447,
      "tangu": 5448,
      "wanda": 5449,
      "serv": 5450,
      "##bile": 5451,
      "sawa": 5452,
      "kuz": 5453,
      "##leni": 5454,
      "lam": 5455,
      "yar": 5456,
      "##tis": 5457,
      "##kweli": 5458,
      "##linzi": 5459,
      "matumizi": 5460,
      "follow": 5461,
      "##engene": 5462,
      "tit": 5463,
      "##ማሪ": 5464,
      "##ghuli": 5465,
      "kɨ": 5466,
      "tri": 5467,
      "ange": 5468,
      "бо": 5469,
      "ከመ": 5470,
      "alo": 5471,
      "mira": 5472,
      "yanayo": 5473,
      "they": 5474,
      "bao": 5475,
      "alb": 5476,
      "hana": 5477,
      "##dul": 5478,
      "##ታወ": 5479,
      "##ଷଟ": 5480,
      "##15": 5481,
      "kusema": 5482,
      "este": 5483,
      "الذ": 5484,
      "##leka": 5485,
      "ity": 5486,
      "##ብረ": 5487,
      "klabu": 5488,
      "mengi": 5489,
      "##angazo": 5490,
      "##ister": 5491,
      "od": 5492,
      "eta": 5493,
      "##cay": 5494,
      "waxaan": 5495,
      "##tee": 5496,
      "##ሉት": 5497,
      "##ingu": 5498,
      "kuwe": 5499,
      "sobre": 5500,
      "##ма": 5501,
      "mapenzi": 5502,
      "##iska": 5503,
      "moyo": 5504,
      "ps1": 5505,
      "dini": 5506,
      "##geme": 5507,
      "hada": 5508,
      "##ныи": 5509,
      "##се": 5510,
      "bit": 5511,
      "##kulunkulu": 5512,
      "ɓe": 5513,
      "ngoku": 5514,
      "tsi": 5515,
      "mir": 5516,
      "hati": 5517,
      "##ୋଟ": 5518,
      "wel": 5519,
      "##atwa": 5520,
      "mfu": 5521,
      "lek": 5522,
      "search": 5523,
      "contact": 5524,
      "ɓa": 5525,
      "jimbo": 5526,
      "ɛn": 5527,
      "##fsi": 5528,
      "##ଥଲେ": 5529,
      "ip": 5530,
      "your": 5531,
      "eti": 5532,
      "##tas": 5533,
      "fri": 5534,
      "hen": 5535,
      "maalum": 5536,
      "##itoa": 5537,
      "see": 5538,
      "##ለቲ": 5539,
      "##13": 5540,
      "##بل": 5541,
      "##emi": 5542,
      "ilikuwa": 5543,
      "iwe": 5544,
      "##golo": 5545,
      "##kika": 5546,
      "##ବାର": 5547,
      "fana": 5548,
      "vre": 5549,
      "##ነው": 5550,
      "kusi": 5551,
      "##كن": 5552,
      "arg": 5553,
      "view": 5554,
      "anu": 5555,
      "sup": 5556,
      "iko": 5557,
      "##nolo": 5558,
      "real": 5559,
      "also": 5560,
      "want": 5561,
      "##سب": 5562,
      "mah": 5563,
      "unaweza": 5564,
      "usha": 5565,
      "premi": 5566,
      "yon": 5567,
      "maf": 5568,
      "##fund": 5569,
      "##ተር": 5570,
      "mre": 5571,
      "hala": 5572,
      "##ib": 5573,
      "kushiriki": 5574,
      "##ተው": 5575,
      "akwa": 5576,
      "nyuma": 5577,
      "##diliko": 5578,
      "econom": 5579,
      "cidade": 5580,
      "##zan": 5581,
      "##80": 5582,
      "##jaa": 5583,
      "wee": 5584,
      "##до": 5585,
      "segun": 5586,
      "##icos": 5587,
      "##amia": 5588,
      "eza": 5589,
      "##lic": 5590,
      "matangazo": 5591,
      "በዚህ": 5592,
      "mj": 5593,
      "##25": 5594,
      "ud": 5595,
      "kuanza": 5596,
      "muk": 5597,
      "zuwa": 5598,
      "##ть": 5599,
      "gebruik": 5600,
      "raha": 5601,
      "##ди": 5602,
      "mtandao": 5603,
      "##ren": 5604,
      "wed": 5605,
      "prim": 5606,
      "ava": 5607,
      "##lada": 5608,
      "duk": 5609,
      "እነ": 5610,
      "##ɑɑ": 5611,
      "laat": 5612,
      "##gay": 5613,
      "##gas": 5614,
      "fm": 5615,
      "bos": 5616,
      "mate": 5617,
      "ey": 5618,
      "zetu": 5619,
      "twe": 5620,
      "እየተ": 5621,
      "الص": 5622,
      "ከአ": 5623,
      "##olo": 5624,
      "mkono": 5625,
      "##umiwa": 5626,
      "kanisa": 5627,
      "##iswa": 5628,
      "##kiliza": 5629,
      "iyi": 5630,
      "##andu": 5631,
      "##buka": 5632,
      "twee": 5633,
      "juni": 5634,
      "enter": 5635,
      "##esta": 5636,
      "uongozi": 5637,
      "##ение": 5638,
      "mwili": 5639,
      "##лу": 5640,
      "mka": 5641,
      "ret": 5642,
      "februari": 5643,
      "##mula": 5644,
      "##ров": 5645,
      "##16": 5646,
      "wabunge": 5647,
      "anaye": 5648,
      "bad": 5649,
      "maxamed": 5650,
      "ସର": 5651,
      "luka": 5652,
      "##maak": 5653,
      "mə": 5654,
      "enc": 5655,
      "##atoa": 5656,
      "lea": 5657,
      "##pwa": 5658,
      "##تم": 5659,
      "waan": 5660,
      "their": 5661,
      "##tima": 5662,
      "benki": 5663,
      "##has": 5664,
      "muntu": 5665,
      "inda": 5666,
      "##mbo": 5667,
      "pam": 5668,
      "##essa": 5669,
      "##kili": 5670,
      "inga": 5671,
      "##wile": 5672,
      "bili": 5673,
      "##hit": 5674,
      "##rin": 5675,
      "popular": 5676,
      "የወ": 5677,
      "##red": 5678,
      "mzee": 5679,
      "bible": 5680,
      "deel": 5681,
      "shughuli": 5682,
      "##ለያ": 5683,
      "nani": 5684,
      "azi": 5685,
      "##ራል": 5686,
      "kiongozi": 5687,
      "##ser": 5688,
      "ajira": 5689,
      "ምር": 5690,
      "mwandishi": 5691,
      "ብር": 5692,
      "umeme": 5693,
      "show": 5694,
      "##urka": 5695,
      "ziara": 5696,
      "foto": 5697,
      "##geen": 5698,
      "maamul": 5699,
      "kuhakikisha": 5700,
      "doo": 5701,
      "##wene": 5702,
      "##ute": 5703,
      "wɔn": 5704,
      "##mbe": 5705,
      "##biki": 5706,
      "teen": 5707,
      "##ongea": 5708,
      "julle": 5709,
      "gobolka": 5710,
      "ia": 5711,
      "maanta": 5712,
      "ndoa": 5713,
      "nyimbo": 5714,
      "maneno": 5715,
      "pal": 5716,
      "##plo": 5717,
      "biblia": 5718,
      "##vas": 5719,
      "70": 5720,
      "አብ": 5721,
      "sports": 5722,
      "changamoto": 5723,
      "ما": 5724,
      "##hany": 5725,
      "sien": 5726,
      "##ump": 5727,
      "##ታቸው": 5728,
      "heshi": 5729,
      "ናቸው": 5730,
      "wache": 5731,
      "dɛn": 5732,
      "agos": 5733,
      "olo": 5734,
      "univers": 5735,
      "##cti": 5736,
      "world": 5737,
      "##18": 5738,
      "##pend": 5739,
      "##dele": 5740,
      "##bula": 5741,
      "##wahi": 5742,
      "iye": 5743,
      "##wat": 5744,
      "ist": 5745,
      "##ባቢ": 5746,
      "##men": 5747,
      "gara": 5748,
      "ምስ": 5749,
      "years": 5750,
      "##tea": 5751,
      "cr": 5752,
      "##17": 5753,
      "uno": 5754,
      "bra": 5755,
      "loka": 5756,
      "##ኞች": 5757,
      "##وب": 5758,
      "add": 5759,
      "iri": 5760,
      "ଅନ": 5761,
      "##скои": 5762,
      "##yinka": 5763,
      "ରାଜ": 5764,
      "ena": 5765,
      "##hor": 5766,
      "nni": 5767,
      "sko": 5768,
      "how": 5769,
      "##ለሁ": 5770,
      "##مة": 5771,
      "##eds": 5772,
      "kuona": 5773,
      "pɛ": 5774,
      "dz": 5775,
      "isku": 5776,
      "lime": 5777,
      "tuta": 5778,
      "##yama": 5779,
      "##werf": 5780,
      "kumi": 5781,
      "##ନଦର": 5782,
      "##gara": 5783,
      "##onal": 5784,
      "##atay": 5785,
      "voa": 5786,
      "muziki": 5787,
      "##rag": 5788,
      "##ንስ": 5789,
      "##mɛ": 5790,
      "utu": 5791,
      "yat": 5792,
      "gwamn": 5793,
      "##ሚያ": 5794,
      "msaada": 5795,
      "rio": 5796,
      "mpo": 5797,
      "ክል": 5798,
      "اي": 5799,
      "punt": 5800,
      "mamlaka": 5801,
      "maso": 5802,
      "##ዎችን": 5803,
      "ei": 5804,
      "##كل": 5805,
      "##gbo": 5806,
      "##uala": 5807,
      "lib": 5808,
      "بن": 5809,
      "koma": 5810,
      "mwingine": 5811,
      "መሆኑ": 5812,
      "##كان": 5813,
      "mutu": 5814,
      "##ତତ": 5815,
      "##angalia": 5816,
      "##ረስ": 5817,
      "mika": 5818,
      "been": 5819,
      "##idos": 5820,
      "##fya": 5821,
      "asu": 5822,
      "##sika": 5823,
      "najeriya": 5824,
      "##حت": 5825,
      "##kka": 5826,
      "##jiwa": 5827,
      "##ach": 5828,
      "jihar": 5829,
      "diam": 5830,
      "awe": 5831,
      "ሚኒ": 5832,
      "kuv": 5833,
      "hand": 5834,
      "##ical": 5835,
      "##onte": 5836,
      "ov": 5837,
      "2007": 5838,
      "##ще": 5839,
      "main": 5840,
      "##39": 5841,
      "makamu": 5842,
      "goog": 5843,
      "##ures": 5844,
      "##idha": 5845,
      "tussen": 5846,
      "ка": 5847,
      "አም": 5848,
      "kawaida": 5849,
      "deve": 5850,
      "noku": 5851,
      "##amizi": 5852,
      "lewe": 5853,
      "fursa": 5854,
      "##cr": 5855,
      "##py": 5856,
      "##itos": 5857,
      "ମଧୟ": 5858,
      "rwanda": 5859,
      "ambalo": 5860,
      "afa": 5861,
      "##zeka": 5862,
      "top": 5863,
      "##ርያ": 5864,
      "mengine": 5865,
      "##ima": 5866,
      "##vir": 5867,
      "##hudi": 5868,
      "##risto": 5869,
      "sekta": 5870,
      "وه": 5871,
      "##yeli": 5872,
      "yes": 5873,
      "##ng": 5874,
      "##form": 5875,
      "ax": 5876,
      "##ከት": 5877,
      "skip": 5878,
      "bann": 5879,
      "pesa": 5880,
      "mel": 5881,
      "##bana": 5882,
      "pais": 5883,
      "admin": 5884,
      "wachezaji": 5885,
      "##нов": 5886,
      "##ለቲካ": 5887,
      "##tɔ": 5888,
      "##ware": 5889,
      "dc": 5890,
      "dam": 5891,
      "google": 5892,
      "##bs": 5893,
      "namba": 5894,
      "toka": 5895,
      "perio": 5896,
      "futhi": 5897,
      "##ool": 5898,
      "##из": 5899,
      "##chama": 5900,
      "wasaara": 5901,
      "mɔɔ": 5902,
      "##wel": 5903,
      "isla": 5904,
      "##ale": 5905,
      "qar": 5906,
      "##ork": 5907,
      "##ባቸው": 5908,
      "##ድረግ": 5909,
      "inuu": 5910,
      "##tembelea": 5911,
      "estado": 5912,
      "##ርቲ": 5913,
      "##ombi": 5914,
      "##uts": 5915,
      "mr": 5916,
      "nzambi": 5917,
      "yet": 5918,
      "esp": 5919,
      "bis": 5920,
      "##ଣା": 5921,
      "##hal": 5922,
      "lengo": 5923,
      "jwa": 5924,
      "kiwango": 5925,
      "##hele": 5926,
      "года": 5927,
      "раз": 5928,
      "igi": 5929,
      "##icao": 5930,
      "nta": 5931,
      "##ide": 5932,
      "vil": 5933,
      "str": 5934,
      "chakula": 5935,
      "##hon": 5936,
      "##arufu": 5937,
      "##kisa": 5938,
      "oct": 5939,
      "vic": 5940,
      "ከፍ": 5941,
      "##boo": 5942,
      "አቶ": 5943,
      "haka": 5944,
      "##ision": 5945,
      "##ket": 5946,
      "##zar": 5947,
      "##zer": 5948,
      "##ander": 5949,
      "##holo": 5950,
      "francis": 5951,
      "begin": 5952,
      "nzuri": 5953,
      "reali": 5954,
      "##bada": 5955,
      "##bela": 5956,
      "ike": 5957,
      "pad": 5958,
      "zime": 5959,
      "##dhani": 5960,
      "tukio": 5961,
      "##ely": 5962,
      "bah": 5963,
      "caa": 5964,
      "##amili": 5965,
      "##umika": 5966,
      "##ኔታ": 5967,
      "90": 5968,
      "##fiti": 5969,
      "raa": 5970,
      "uru": 5971,
      "##ран": 5972,
      "wet": 5973,
      "##ved": 5974,
      "ከተማ": 5975,
      "uganda": 5976,
      "maelezo": 5977,
      "##yeed": 5978,
      "##toba": 5979,
      "##ghe": 5980,
      "uza": 5981,
      "tano": 5982,
      "ቀን": 5983,
      "##kir": 5984,
      "lugha": 5985,
      "spika": 5986,
      "kuya": 5987,
      "inte": 5988,
      "##sao": 5989,
      "##emo": 5990,
      "##37": 5991,
      "idadi": 5992,
      "##au": 5993,
      "madaxweynaha": 5994,
      "madini": 5995,
      "toeg": 5996,
      "apo": 5997,
      "masi": 5998,
      "repu": 5999,
      "##andaa": 6000,
      "ry": 6001,
      "first": 6002,
      "##lingi": 6003,
      "month": 6004,
      "ikulu": 6005,
      "kuo": 6006,
      "##huma": 6007,
      "fc": 6008,
      "##ɛnɛ": 6009,
      "ino": 6010,
      "##lat": 6011,
      "##ድን": 6012,
      "##ctions": 6013,
      "div": 6014,
      "barua": 6015,
      "##лов": 6016,
      "##bert": 6017,
      "##ଥା": 6018,
      "bung": 6019,
      "##almente": 6020,
      "conf": 6021,
      "click": 6022,
      "##ции": 6023,
      "##jalo": 6024,
      "oba": 6025,
      "cali": 6026,
      "##unguza": 6027,
      "down": 6028,
      "kig": 6029,
      "modimo": 6030,
      "##ambana": 6031,
      "##ከተ": 6032,
      "siri": 6033,
      "xo": 6034,
      "##fuata": 6035,
      "vina": 6036,
      "formula": 6037,
      "kilicho": 6038,
      "##ется": 6039,
      "ме": 6040,
      "##zza": 6041,
      "##tse": 6042,
      "ise": 6043,
      "wafanyakazi": 6044,
      "edu": 6045,
      "##tern": 6046,
      "maro": 6047,
      "iv": 6048,
      "kuendelea": 6049,
      "##nolojia": 6050,
      "##babisha": 6051,
      "mna": 6052,
      "##ют": 6053,
      "##ዓት": 6054,
      "49": 6055,
      "sch": 6056,
      "እር": 6057,
      "##wis": 6058,
      "hours": 6059,
      "##قل": 6060,
      "##firi": 6061,
      "barabara": 6062,
      "balozi": 6063,
      "kiu": 6064,
      "alim": 6065,
      "##ciones": 6066,
      "##pya": 6067,
      "##ኋላ": 6068,
      "cabdi": 6069,
      "area": 6070,
      "##tico": 6071,
      "cur": 6072,
      "avy": 6073,
      "ese": 6074,
      "አበባ": 6075,
      "ତା": 6076,
      "menu": 6077,
      "##وج": 6078,
      "##دا": 6079,
      "ty": 6080,
      "peo": 6081,
      "nig": 6082,
      "##uaji": 6083,
      "##aray": 6084,
      "##asu": 6085,
      "##waku": 6086,
      "clu": 6087,
      "##ческ": 6088,
      "ጉዳይ": 6089,
      "##habari": 6090,
      "sare": 6091,
      "zamani": 6092,
      "##arios": 6093,
      "##inzani": 6094,
      "##ingereza": 6095,
      "ukweli": 6096,
      "##lishi": 6097,
      "##34": 6098,
      "inta": 6099,
      "##pet": 6100,
      "qua": 6101,
      "mfano": 6102,
      "##kaya": 6103,
      "##ley": 6104,
      "##ማት": 6105,
      "##chuku": 6106,
      "##ding": 6107,
      "የት": 6108,
      "##hou": 6109,
      "maria": 6110,
      "noq": 6111,
      "##وق": 6112,
      "##bad": 6113,
      "##kop": 6114,
      "##wadi": 6115,
      "##ርስቲ": 6116,
      "safari": 6117,
      "ira": 6118,
      "ole": 6119,
      "mom": 6120,
      "haku": 6121,
      "##22": 6122,
      "##36": 6123,
      "##ella": 6124,
      "##ɔŋ": 6125,
      "tala": 6126,
      "##ାୟ": 6127,
      "##ishia": 6128,
      "bii": 6129,
      "##pital": 6130,
      "##baan": 6131,
      "##ismo": 6132,
      "##خر": 6133,
      "dau": 6134,
      "##ataa": 6135,
      "make": 6136,
      "kuele": 6137,
      "##يث": 6138,
      "phe": 6139,
      "ŋu": 6140,
      "masuala": 6141,
      "ቤተ": 6142,
      "##sie": 6143,
      "lar": 6144,
      "proble": 6145,
      "##የት": 6146,
      "webwerf": 6147,
      "##رت": 6148,
      "bio": 6149,
      "yee": 6150,
      "##gaan": 6151,
      "##ይወ": 6152,
      "def": 6153,
      "bha": 6154,
      "##pro": 6155,
      "##wing": 6156,
      "##anse": 6157,
      "ww": 6158,
      "##ልም": 6159,
      "joseph": 6160,
      "##اني": 6161,
      "eku": 6162,
      "dell": 6163,
      "##ign": 6164,
      "ст": 6165,
      "ተመ": 6166,
      "##gbe": 6167,
      "##ggi": 6168,
      "##bra": 6169,
      "##ግዚ": 6170,
      "cult": 6171,
      "insta": 6172,
      "አይደ": 6173,
      "##عت": 6174,
      "binafsi": 6175,
      "51": 6176,
      "##eshe": 6177,
      "##sies": 6178,
      "##ቀር": 6179,
      "auf": 6180,
      "##var": 6181,
      "##fahamu": 6182,
      "##unguzi": 6183,
      "##ጥር": 6184,
      "toegang": 6185,
      "gaar": 6186,
      "bibi": 6187,
      "daw": 6188,
      "##ገራ": 6189,
      "##ского": 6190,
      "##fat": 6191,
      "##ile": 6192,
      "ሁኔታ": 6193,
      "bere": 6194,
      "onge": 6195,
      "nen": 6196,
      "cara": 6197,
      "##far": 6198,
      "##ማራ": 6199,
      "##ief": 6200,
      "januari": 6201,
      "##zya": 6202,
      "##bus": 6203,
      "municipio": 6204,
      "gese": 6205,
      "machi": 6206,
      "ere": 6207,
      "##tɛ": 6208,
      "ide": 6209,
      "mingi": 6210,
      "will": 6211,
      "ine": 6212,
      "ምክንያ": 6213,
      "الام": 6214,
      "##35": 6215,
      "##па": 6216,
      "yihiin": 6217,
      "nawa": 6218,
      "##angia": 6219,
      "##نة": 6220,
      "ij": 6221,
      "##ይል": 6222,
      "leh": 6223,
      "anasema": 6224,
      "kile": 6225,
      "shar": 6226,
      "wapi": 6227,
      "##vos": 6228,
      "##ei": 6229,
      "morogoro": 6230,
      "##ውያን": 6231,
      "walikuwa": 6232,
      "##etsa": 6233,
      "dik": 6234,
      "##wy": 6235,
      "##lit": 6236,
      "wate": 6237,
      "##vha": 6238,
      "star": 6239,
      "cir": 6240,
      "##ense": 6241,
      "##سي": 6242,
      "king": 6243,
      "##sim": 6244,
      "кото": 6245,
      "tehama": 6246,
      "dhan": 6247,
      "ବେ": 6248,
      "owo": 6249,
      "ardhi": 6250,
      "##ning": 6251,
      "##engwa": 6252,
      "##fundi": 6253,
      "አዲስ": 6254,
      "pele": 6255,
      "##ደረገ": 6256,
      "oktoba": 6257,
      "##islamu": 6258,
      "most": 6259,
      "##ቦች": 6260,
      "miti": 6261,
      "الان": 6262,
      "kocha": 6263,
      "mutane": 6264,
      "rat": 6265,
      "gru": 6266,
      "gazeti": 6267,
      "##ular": 6268,
      "mikoa": 6269,
      "ethio": 6270,
      "##umwa": 6271,
      "ulaya": 6272,
      "kuza": 6273,
      "##ек": 6274,
      "##patikana": 6275,
      "baar": 6276,
      "huwa": 6277,
      "joo": 6278,
      "idi": 6279,
      "ih": 6280,
      "##anto": 6281,
      "##orde": 6282,
      "##bala": 6283,
      "fue": 6284,
      "when": 6285,
      "##entos": 6286,
      "kuondo": 6287,
      "##lang": 6288,
      "##my": 6289,
      "bag": 6290,
      "makubwa": 6291,
      "так": 6292,
      "baya": 6293,
      "##وي": 6294,
      "##ግለ": 6295,
      "tovuti": 6296,
      "##ative": 6297,
      "reli": 6298,
      "መንግሥ": 6299,
      "sidoo": 6300,
      "lik": 6301,
      "kisha": 6302,
      "ane": 6303,
      "ام": 6304,
      "jon": 6305,
      "wasanii": 6306,
      "ware": 6307,
      "nai": 6308,
      "2006": 6309,
      "yena": 6310,
      "global": 6311,
      "muka": 6312,
      "##kuma": 6313,
      "ven": 6314,
      "eko": 6315,
      "##tokea": 6316,
      "##pango": 6317,
      "##biya": 6318,
      "fat": 6319,
      "inde": 6320,
      "ufu": 6321,
      "nome": 6322,
      "diamond": 6323,
      "##siliana": 6324,
      "##ቅም": 6325,
      "kuongeza": 6326,
      "##ୟରେ": 6327,
      "jen": 6328,
      "week": 6329,
      "ናይ": 6330,
      "##му": 6331,
      "arri": 6332,
      "ስር": 6333,
      "##biashara": 6334,
      "##habu": 6335,
      "zit": 6336,
      "##ሔር": 6337,
      "##orio": 6338,
      "##ጠቀ": 6339,
      "##ffer": 6340,
      "##goma": 6341,
      "perm": 6342,
      "sm": 6343,
      "ያለው": 6344,
      "abin": 6345,
      "miko": 6346,
      "sauti": 6347,
      "baj": 6348,
      "##فا": 6349,
      "##ков": 6350,
      "aman": 6351,
      "yadda": 6352,
      "kira": 6353,
      "በኋላ": 6354,
      "leg": 6355,
      "##ቢያ": 6356,
      "##ገኘ": 6357,
      "بعد": 6358,
      "base": 6359,
      "geor": 6360,
      "zon": 6361,
      "kib": 6362,
      "الر": 6363,
      "##ɗi": 6364,
      "##lila": 6365,
      "nayo": 6366,
      "unao": 6367,
      "halka": 6368,
      "wanne": 6369,
      "##ାଣ": 6370,
      "lililo": 6371,
      "##bila": 6372,
      "vyama": 6373,
      "christ": 6374,
      "что": 6375,
      "##ني": 6376,
      "##rasa": 6377,
      "##haka": 6378,
      "mpenzi": 6379,
      "iran": 6380,
      "##со": 6381,
      "kno": 6382,
      "##iek": 6383,
      "##zesha": 6384,
      "ato": 6385,
      "pɔ": 6386,
      "##lə": 6387,
      "##jehova": 6388,
      "mano": 6389,
      "mand": 6390,
      "hab": 6391,
      "##nis": 6392,
      "##ርድ": 6393,
      "enye": 6394,
      "54": 6395,
      "kuliko": 6396,
      "##bels": 6397,
      "##ichi": 6398,
      "quando": 6399,
      "miradi": 6400,
      "muli": 6401,
      "elke": 6402,
      "hau": 6403,
      "hou": 6404,
      "vez": 6405,
      "##vaar": 6406,
      "500": 6407,
      "##had": 6408,
      "sont": 6409,
      "amp": 6410,
      "##28": 6411,
      "ማለት": 6412,
      "##ink": 6413,
      "##alu": 6414,
      "##erere": 6415,
      "الط": 6416,
      "constru": 6417,
      "azo": 6418,
      "##risti": 6419,
      "##bere": 6420,
      "yoyote": 6421,
      "እስከ": 6422,
      "many": 6423,
      "##tani": 6424,
      "him": 6425,
      "##com": 6426,
      "##anada": 6427,
      "##kryf": 6428,
      "##57": 6429,
      "eny": 6430,
      "##icas": 6431,
      "segu": 6432,
      "kuanzia": 6433,
      "##zon": 6434,
      "wash": 6435,
      "mabadiliko": 6436,
      "misa": 6437,
      "io": 6438,
      "bungeni": 6439,
      "##zos": 6440,
      "##hukuru": 6441,
      "help": 6442,
      "##ବାକ": 6443,
      "##ୋଲ": 6444,
      "##gos": 6445,
      "maz": 6446,
      "cos": 6447,
      "mac": 6448,
      "##دم": 6449,
      "langu": 6450,
      "woo": 6451,
      "contro": 6452,
      "apos": 6453,
      "izao": 6454,
      "ajali": 6455,
      "kiny": 6456,
      "neno": 6457,
      "next": 6458,
      "##panga": 6459,
      "##lho": 6460,
      "eyi": 6461,
      "କହ": 6462,
      "ଗର": 6463,
      "dho": 6464,
      "لم": 6465,
      "##lhe": 6466,
      "hatu": 6467,
      "repres": 6468,
      "الث": 6469,
      "##ାକ": 6470,
      "##ря": 6471,
      "##lement": 6472,
      "##pot": 6473,
      "kiba": 6474,
      "##ሪክ": 6475,
      "mik": 6476,
      "##inali": 6477,
      "##vil": 6478,
      "##enskap": 6479,
      "##io": 6480,
      "bla": 6481,
      "##за": 6482,
      "kucha": 6483,
      "##ଦଧ": 6484,
      "kupi": 6485,
      "##cess": 6486,
      "##ଥଲା": 6487,
      "##27": 6488,
      "shilingi": 6489,
      "vas": 6490,
      "##temba": 6491,
      "free": 6492,
      "##riki": 6493,
      "በላይ": 6494,
      "ተጠ": 6495,
      "##gela": 6496,
      "mafuta": 6497,
      "awo": 6498,
      "##ataba": 6499,
      "##qq": 6500,
      "##ural": 6501,
      "##luit": 6502,
      "kol": 6503,
      "federa": 6504,
      "ያስ": 6505,
      "fl": 6506,
      "mwalimu": 6507,
      "some": 6508,
      "awali": 6509,
      "vat": 6510,
      "بين": 6511,
      "##ick": 6512,
      "duniya": 6513,
      "gir": 6514,
      "yame": 6515,
      "##onni": 6516,
      "##rio": 6517,
      "portu": 6518,
      "general": 6519,
      "##صل": 6520,
      "መሰ": 6521,
      "##yee": 6522,
      "##file": 6523,
      "bly": 6524,
      "##adka": 6525,
      "##bbi": 6526,
      "people": 6527,
      "artic": 6528,
      "bed": 6529,
      "iringa": 6530,
      "afric": 6531,
      "##قي": 6532,
      "wun": 6533,
      "2020": 6534,
      "eke": 6535,
      "kujenga": 6536,
      "##ኖር": 6537,
      "##daan": 6538,
      "loca": 6539,
      "##vam": 6540,
      "##شر": 6541,
      "kungi": 6542,
      "yim": 6543,
      "foram": 6544,
      "##cle": 6545,
      "tak": 6546,
      "##gte": 6547,
      "nto": 6548,
      "##hun": 6549,
      "##mes": 6550,
      "marehemu": 6551,
      "bidhaa": 6552,
      "##onya": 6553,
      "##mbu": 6554,
      "##ppe": 6555,
      "##ምር": 6556,
      "##ongwa": 6557,
      "jioni": 6558,
      "umri": 6559,
      "basa": 6560,
      "##ds": 6561,
      "##ushi": 6562,
      "weet": 6563,
      "##ምሮ": 6564,
      "grand": 6565,
      "##funa": 6566,
      "akim": 6567,
      "avec": 6568,
      "##با": 6569,
      "mujibu": 6570,
      "##ፊት": 6571,
      "##الي": 6572,
      "##ambua": 6573,
      "##ته": 6574,
      "kidogo": 6575,
      "naku": 6576,
      "tz": 6577,
      "##га": 6578,
      "oa": 6579,
      "##tro": 6580,
      "msanii": 6581,
      "babu": 6582,
      "##unguka": 6583,
      "utalii": 6584,
      "##ታው": 6585,
      "mako": 6586,
      "kuki": 6587,
      "yuda": 6588,
      "ማስ": 6589,
      "ରହ": 6590,
      "muta": 6591,
      "##umani": 6592,
      "puntland": 6593,
      "##paswa": 6594,
      "##load": 6595,
      "##جم": 6596,
      "tres": 6597,
      "off": 6598,
      "than": 6599,
      "pepe": 6600,
      "david": 6601,
      "##ገን": 6602,
      "bodi": 6603,
      "chake": 6604,
      "##kte": 6605,
      "lə": 6606,
      "dada": 6607,
      "##benzi": 6608,
      "##yuma": 6609,
      "iliyopita": 6610,
      "kii": 6611,
      "##ክት": 6612,
      "##bata": 6613,
      "madi": 6614,
      "##ев": 6615,
      "dhex": 6616,
      "##ያስ": 6617,
      "##tsha": 6618,
      "kombe": 6619,
      "julai": 6620,
      "##ду": 6621,
      "ami": 6622,
      "stand": 6623,
      "sina": 6624,
      "000": 6625,
      "##lich": 6626,
      "##enena": 6627,
      "##wona": 6628,
      "##kano": 6629,
      "mafani": 6630,
      "##دة": 6631,
      "##ɗa": 6632,
      "septemba": 6633,
      "##ରମ": 6634,
      "mol": 6635,
      "mang": 6636,
      "filamu": 6637,
      "##bio": 6638,
      "##bes": 6639,
      "apa": 6640,
      "popula": 6641,
      "##liya": 6642,
      "##wed": 6643,
      "ପରେ": 6644,
      "##29": 6645,
      "##26": 6646,
      "kikao": 6647,
      "##onto": 6648,
      "ମହ": 6649,
      "##idhi": 6650,
      "buhari": 6651,
      "mashindano": 6652,
      "akan": 6653,
      "ulinzi": 6654,
      "##ግል": 6655,
      "##መር": 6656,
      "suna": 6657,
      "mbaya": 6658,
      "cat": 6659,
      "timo": 6660,
      "##khala": 6661,
      "##amano": 6662,
      "##dika": 6663,
      "noma": 6664,
      "uri": 6665,
      "##ገኙ": 6666,
      "pir": 6667,
      "##አብ": 6668,
      "##inde": 6669,
      "##yat": 6670,
      "است": 6671,
      "oper": 6672,
      "##ders": 6673,
      "##wys": 6674,
      "grou": 6675,
      "##wira": 6676,
      "##ଞଚ": 6677,
      "offic": 6678,
      "amo": 6679,
      "##ይት": 6680,
      "##lɩ": 6681,
      "wawili": 6682,
      "ow": 6683,
      "##fanikiwa": 6684,
      "azy": 6685,
      "sti": 6686,
      "nyasa": 6687,
      "##babu": 6688,
      "viwanja": 6689,
      "##ያቄ": 6690,
      "kare": 6691,
      "##lot": 6692,
      "soomaaliyeed": 6693,
      "اب": 6694,
      "mafanikio": 6695,
      "##wii": 6696,
      "##yer": 6697,
      "ዓመት": 6698,
      "into": 6699,
      "##kpa": 6700,
      "##bta": 6701,
      "##lami": 6702,
      "##gon": 6703,
      "binadamu": 6704,
      "anat": 6705,
      "male": 6706,
      "mli": 6707,
      "##kr": 6708,
      "ayuu": 6709,
      "novemba": 6710,
      "##sin": 6711,
      "##ption": 6712,
      "##dz": 6713,
      "pun": 6714,
      "##ая": 6715,
      "imani": 6716,
      "##dar": 6717,
      "##lula": 6718,
      "##kabidhi": 6719,
      "##ባል": 6720,
      "tɔn": 6721,
      "##vious": 6722,
      "##ላም": 6723,
      "conc": 6724,
      "europe": 6725,
      "##uria": 6726,
      "sau": 6727,
      "kodwa": 6728,
      "aca": 6729,
      "national": 6730,
      "ukurasa": 6731,
      "uv": 6732,
      "iwa": 6733,
      "##عب": 6734,
      "ahaan": 6735,
      "##ሽን": 6736,
      "viwanda": 6737,
      "ciidamada": 6738,
      "##nee": 6739,
      "##aribu": 6740,
      "##anja": 6741,
      "##ashada": 6742,
      "##diga": 6743,
      "##ାଳ": 6744,
      "##ክል": 6745,
      "##aday": 6746,
      "seg": 6747,
      "katonda": 6748,
      "kiswahili": 6749,
      "lati": 6750,
      "gana": 6751,
      "##fanyi": 6752,
      "##ገለ": 6753,
      "ድርጅ": 6754,
      "maarufu": 6755,
      "##መስ": 6756,
      "ሲሆን": 6757,
      "##зы": 6758,
      "rehetra": 6759,
      "##ход": 6760,
      "##ʼa": 6761,
      "##fana": 6762,
      "kure": 6763,
      "kede": 6764,
      "##ged": 6765,
      "teknolojia": 6766,
      "##jer": 6767,
      "ɗa": 6768,
      "jehofa": 6769,
      "sol": 6770,
      "tet": 6771,
      "##deen": 6772,
      "pala": 6773,
      "##ାଉ": 6774,
      "##kezaji": 6775,
      "mawu": 6776,
      "##orie": 6777,
      "##ɗe": 6778,
      "##alamu": 6779,
      "##ил": 6780,
      "كل": 6781,
      "uzinduzi": 6782,
      "##enas": 6783,
      "ona": 6784,
      "##يرة": 6785,
      "ushiriki": 6786,
      "principal": 6787,
      "##erehe": 6788,
      "gere": 6789,
      "bene": 6790,
      "utawala": 6791,
      "##banga": 6792,
      "##ዱስ": 6793,
      "esa": 6794,
      "##kiya": 6795,
      "siste": 6796,
      "##ାବ": 6797,
      "nita": 6798,
      "wit": 6799,
      "##ziri": 6800,
      "links": 6801,
      "ଜଣ": 6802,
      "kijiji": 6803,
      "dra": 6804,
      "##ሳት": 6805,
      "shaca": 6806,
      "yii": 6807,
      "kauli": 6808,
      "##yela": 6809,
      "nako": 6810,
      "##long": 6811,
      "gw": 6812,
      "53": 6813,
      "sele": 6814,
      "##pela": 6815,
      "nika": 6816,
      "እዩ": 6817,
      "long": 6818,
      "isaa": 6819,
      "republi": 6820,
      "vor": 6821,
      "##ral": 6822,
      "##تي": 6823,
      "govern": 6824,
      "##zim": 6825,
      "تم": 6826,
      "eya": 6827,
      "##ctor": 6828,
      "kulan": 6829,
      "soko": 6830,
      "##ላማ": 6831,
      "##bil": 6832,
      "ling": 6833,
      "sto": 6834,
      "##waki": 6835,
      "jw": 6836,
      "##anisha": 6837,
      "56": 6838,
      "gin": 6839,
      "avo": 6840,
      "ula": 6841,
      "loko": 6842,
      "aika": 6843,
      "году": 6844,
      "##uza": 6845,
      "##ସତ": 6846,
      "##baar": 6847,
      "ବୟ": 6848,
      "በቀ": 6849,
      "impor": 6850,
      "##hang": 6851,
      "skakel": 6852,
      "ukumbi": 6853,
      "there": 6854,
      "##omwa": 6855,
      "ካብ": 6856,
      "kue": 6857,
      "msi": 6858,
      "##chie": 6859,
      "tel": 6860,
      "##حم": 6861,
      "labels": 6862,
      "ጥያቄ": 6863,
      "##ги": 6864,
      "ushindi": 6865,
      "epo": 6866,
      "##unta": 6867,
      "##ጣት": 6868,
      "##jies": 6869,
      "ƒe": 6870,
      "##fla": 6871,
      "##lise": 6872,
      "አሁን": 6873,
      "##katifu": 6874,
      "prop": 6875,
      "dakika": 6876,
      "##laan": 6877,
      "fɛ": 6878,
      "##gb": 6879,
      "##jui": 6880,
      "ilay": 6881,
      "hiki": 6882,
      "##leta": 6883,
      "##endesha": 6884,
      "over": 6885,
      "##ାନତ": 6886,
      "##haba": 6887,
      "ሥራ": 6888,
      "##صر": 6889,
      "vana": 6890,
      "##ciona": 6891,
      "##loko": 6892,
      "አድር": 6893,
      "##ዚያ": 6894,
      "kampeni": 6895,
      "oru": 6896,
      "kgo": 6897,
      "##cada": 6898,
      "azam": 6899,
      "lia": 6900,
      "ado": 6901,
      "yona": 6902,
      "contra": 6903,
      "isira": 6904,
      "raia": 6905,
      "##way": 6906,
      "##ረጋ": 6907,
      "karo": 6908,
      "efa": 6909,
      "mwenyewe": 6910,
      "onde": 6911,
      "kpe": 6912,
      "##tak": 6913,
      "msimu": 6914,
      "kumbu": 6915,
      "##eke": 6916,
      "led": 6917,
      "eze": 6918,
      "##tolewa": 6919,
      "kuweka": 6920,
      "##atilia": 6921,
      "##bolo": 6922,
      "##kubwa": 6923,
      "tie": 6924,
      "eno": 6925,
      "##те": 6926,
      "2005": 6927,
      "##ୀୟ": 6928,
      "wena": 6929,
      "kies": 6930,
      "deega": 6931,
      "ይች": 6932,
      "##tor": 6933,
      "##ongoni": 6934,
      "emp": 6935,
      "под": 6936,
      "##ɛi": 6937,
      "это": 6938,
      "##lao": 6939,
      "baxa": 6940,
      "##pedia": 6941,
      "brit": 6942,
      "##wang": 6943,
      "##hed": 6944,
      "pha": 6945,
      "desde": 6946,
      "gam": 6947,
      "ଆସ": 6948,
      "term": 6949,
      "mifu": 6950,
      "##ту": 6951,
      "##icio": 6952,
      "##pokuwa": 6953,
      "##irwa": 6954,
      "##cou": 6955,
      "gel": 6956,
      "udi": 6957,
      "##deling": 6958,
      "scho": 6959,
      "##ୋକ": 6960,
      "kikuu": 6961,
      "##zulu": 6962,
      "##hos": 6963,
      "##zuia": 6964,
      "gagwe": 6965,
      "وب": 6966,
      "የህ": 6967,
      "##hai": 6968,
      "categ": 6969,
      "eto": 6970,
      "form": 6971,
      "##ንት": 6972,
      "##hane": 6973,
      "magari": 6974,
      "ngai": 6975,
      "aliyekuwa": 6976,
      "liv": 6977,
      "##ሎት": 6978,
      "mpira": 6979,
      "kosa": 6980,
      "##hirika": 6981,
      "##دين": 6982,
      "##kwenda": 6983,
      "kuko": 6984,
      "seus": 6985,
      "##qi": 6986,
      "previous": 6987,
      "yaku": 6988,
      "##doomi": 6989,
      "##baab": 6990,
      "hus": 6991,
      "lita": 6992,
      "orom": 6993,
      "ମତ": 6994,
      "gid": 6995,
      "mrefu": 6996,
      "dhaa": 6997,
      "اك": 6998,
      "dig": 6999,
      "program": 7000,
      "mee": 7001,
      "conse": 7002,
      "data": 7003,
      "agosti": 7004,
      "##tyd": 7005,
      "##sia": 7006,
      "ngwa": 7007,
      "waf": 7008,
      "##ным": 7009,
      "nigeria": 7010,
      "roma": 7011,
      "tara": 7012,
      "aust": 7013,
      "58": 7014,
      "##ଳେ": 7015,
      "የሆነ": 7016,
      "yɛn": 7017,
      "##into": 7018,
      "##hada": 7019,
      "tafuta": 7020,
      "als": 7021,
      "mti": 7022,
      "kr": 7023,
      "##amaduni": 7024,
      "##ግዚአብ": 7025,
      "##siga": 7026,
      "red": 7027,
      "##anye": 7028,
      "##vaa": 7029,
      "aprili": 7030,
      "ged": 7031,
      "##ental": 7032,
      "52": 7033,
      "##inya": 7034,
      "indust": 7035,
      "##isiti": 7036,
      "watumishi": 7037,
      "shaq": 7038,
      "ଏକ": 7039,
      "uda": 7040,
      "thu": 7041,
      "adver": 7042,
      "##لة": 7043,
      "##oru": 7044,
      "yom": 7045,
      "mulungu": 7046,
      "##ାନା": 7047,
      "##vitra": 7048,
      "aidha": 7049,
      "teo": 7050,
      "leswaku": 7051,
      "hit": 7052,
      "cada": 7053,
      "##yia": 7054,
      "pho": 7055,
      "chanzo": 7056,
      "sing": 7057,
      "hukum": 7058,
      "##ଦେ": 7059,
      "ota": 7060,
      "##hua": 7061,
      "መጠ": 7062,
      "mohamed": 7063,
      "##amka": 7064,
      "kudi": 7065,
      "break": 7066,
      "wilay": 7067,
      "qay": 7068,
      "##ugh": 7069,
      "ста": 7070,
      "##هر": 7071,
      "##fisa": 7072,
      "##umar": 7073,
      "ahay": 7074,
      "eerste": 7075,
      "eu": 7076,
      "##bee": 7077,
      "aro": 7078,
      "iska": 7079,
      "lon": 7080,
      "##shada": 7081,
      "##فة": 7082,
      "loku": 7083,
      "##يه": 7084,
      "askari": 7085,
      "##сп": 7086,
      "##giza": 7087,
      "##kk": 7088,
      "ве": 7089,
      "##xu": 7090,
      "gratis": 7091,
      "##ገና": 7092,
      "##onale": 7093,
      "lei": 7094,
      "କାର": 7095,
      "nyu": 7096,
      "##hile": 7097,
      "link": 7098,
      "##fanywa": 7099,
      "bata": 7100,
      "best": 7101,
      "##vuga": 7102,
      "msh": 7103,
      "##cts": 7104,
      "wilayani": 7105,
      "wikipedia": 7106,
      "##nɛ": 7107,
      "##vit": 7108,
      "trump": 7109,
      "rece": 7110,
      "zama": 7111,
      "ren": 7112,
      "##imar": 7113,
      "dhacay": 7114,
      "##يو": 7115,
      "##anti": 7116,
      "##leed": 7117,
      "territ": 7118,
      "habit": 7119,
      "##ices": 7120,
      "##gele": 7121,
      "##ፍት": 7122,
      "wimbo": 7123,
      "##ʋʋ": 7124,
      "##ratti": 7125,
      "months": 7126,
      "kesho": 7127,
      "ማን": 7128,
      "roo": 7129,
      "provin": 7130,
      "hir": 7131,
      "እቲ": 7132,
      "sor": 7133,
      "tabia": 7134,
      "nte": 7135,
      "sendo": 7136,
      "play": 7137,
      "yiri": 7138,
      "##hil": 7139,
      "##fafan": 7140,
      "##رن": 7141,
      "##bh": 7142,
      "##ୋର": 7143,
      "solo": 7144,
      "uzo": 7145,
      "##hee": 7146,
      "wom": 7147,
      "##andla": 7148,
      "apres": 7149,
      "geo": 7150,
      "macha": 7151,
      "##hlu": 7152,
      "iti": 7153,
      "jumu": 7154,
      "bena": 7155,
      "##duu": 7156,
      "ስራ": 7157,
      "madaxweyne": 7158,
      "after": 7159,
      "##kundi": 7160,
      "beste": 7161,
      "ነገ": 7162,
      "##soon": 7163,
      "##puta": 7164,
      "kima": 7165,
      "##kanye": 7166,
      "##ishaji": 7167,
      "misy": 7168,
      "dhaq": 7169,
      "page": 7170,
      "lɛɛ": 7171,
      "len": 7172,
      "ilaa": 7173,
      "kanda": 7174,
      "ash": 7175,
      "nis": 7176,
      "tuzo": 7177,
      "mkataba": 7178,
      "ukuti": 7179,
      "gos": 7180,
      "pombe": 7181,
      "nata": 7182,
      "obo": 7183,
      "የስ": 7184,
      "ብሎ": 7185,
      "olona": 7186,
      "କରାଯ": 7187,
      "##fur": 7188,
      "qaa": 7189,
      "##vide": 7190,
      "international": 7191,
      "##isiwa": 7192,
      "##jila": 7193,
      "##vya": 7194,
      "##bba": 7195,
      "##ор": 7196,
      "var": 7197,
      "nko": 7198,
      "kop": 7199,
      "kijamii": 7200,
      "oli": 7201,
      "##kwi": 7202,
      "##anzu": 7203,
      "prote": 7204,
      "##ሳይ": 7205,
      "hoja": 7206,
      "owa": 7207,
      "sia": 7208,
      "kifo": 7209,
      "maalumu": 7210,
      "matatizo": 7211,
      "haja": 7212,
      "##vela": 7213,
      "##kome": 7214,
      "##eshwa": 7215,
      "estu": 7216,
      "##istan": 7217,
      "##ное": 7218,
      "##ሰው": 7219,
      "##husika": 7220,
      "98": 7221,
      "መካ": 7222,
      "##bul": 7223,
      "badala": 7224,
      "##esse": 7225,
      "qor": 7226,
      "##cado": 7227,
      "الذي": 7228,
      "urais": 7229,
      "kadhaa": 7230,
      "uyu": 7231,
      "##hihi": 7232,
      "##ረዳ": 7233,
      "##ବଂ": 7234,
      "##ал": 7235,
      "dali": 7236,
      "##leke": 7237,
      "walimu": 7238,
      "nuna": 7239,
      "##dela": 7240,
      "የኢ": 7241,
      "ሆነ": 7242,
      "##saidia": 7243,
      "plek": 7244,
      "ques": 7245,
      "miongoni": 7246,
      "algun": 7247,
      "ameri": 7248,
      "nang": 7249,
      "##ାପ": 7250,
      "##guu": 7251,
      "kish": 7252,
      "##ня": 7253,
      "kaska": 7254,
      "two": 7255,
      "videos": 7256,
      "##tti": 7257,
      "mashabiki": 7258,
      "##ጠር": 7259,
      "nach": 7260,
      "dink": 7261,
      "##ная": 7262,
      "maza": 7263,
      "site": 7264,
      "fura": 7265,
      "kye": 7266,
      "meneja": 7267,
      "ро": 7268,
      "##yam": 7269,
      "ess": 7270,
      "አይደለም": 7271,
      "##atsi": 7272,
      "##poteza": 7273,
      "self": 7274,
      "dies": 7275,
      "କମ": 7276,
      "uso": 7277,
      "##liam": 7278,
      "##ارة": 7279,
      "wenza": 7280,
      "##tuur": 7281,
      "kuingia": 7282,
      "hon": 7283,
      "local": 7284,
      "tuma": 7285,
      "mem": 7286,
      "neng": 7287,
      "##iness": 7288,
      "regiao": 7289,
      "dj": 7290,
      "##cido": 7291,
      "##sɛ": 7292,
      "##onesha": 7293,
      "pret": 7294,
      "##58": 7295,
      "##dim": 7296,
      "pub": 7297,
      "##64": 7298,
      "##sapp": 7299,
      "##unti": 7300,
      "jami": 7301,
      "ule": 7302,
      "##inte": 7303,
      "mua": 7304,
      "reply": 7305,
      "adam": 7306,
      "mono": 7307,
      "wakuu": 7308,
      "##xaa": 7309,
      "ଅଭ": 7310,
      "المت": 7311,
      "##ɔnɔ": 7312,
      "duu": 7313,
      "##قا": 7314,
      "plaas": 7315,
      "lang": 7316,
      "##ikh": 7317,
      "##скии": 7318,
      "##ristu": 7319,
      "##ания": 7320,
      "##вы": 7321,
      "alles": 7322,
      "yerusa": 7323,
      "social": 7324,
      "##inyi": 7325,
      "##wir": 7326,
      "##deed": 7327,
      "mina": 7328,
      "ipo": 7329,
      "cham": 7330,
      "##pala": 7331,
      "mipango": 7332,
      "idara": 7333,
      "##dom": 7334,
      "##iros": 7335,
      "sono": 7336,
      "kaskazini": 7337,
      "##bro": 7338,
      "##ርትራ": 7339,
      "##gira": 7340,
      "vili": 7341,
      "ଏବଂ": 7342,
      "haraka": 7343,
      "sabo": 7344,
      "##may": 7345,
      "constitu": 7346,
      "##ଯୟ": 7347,
      "obe": 7348,
      "##ween": 7349,
      "moder": 7350,
      "yango": 7351,
      "ihi": 7352,
      "هو": 7353,
      "high": 7354,
      "##ked": 7355,
      "##arajiwa": 7356,
      "piu": 7357,
      "##iss": 7358,
      "jee": 7359,
      "##ство": 7360,
      "##ɗo": 7361,
      "ndiye": 7362,
      "mape": 7363,
      "ster": 7364,
      "arti": 7365,
      "##كون": 7366,
      "nyerere": 7367,
      "##asan": 7368,
      "መንግስት": 7369,
      "##ories": 7370,
      "ndzi": 7371,
      "develop": 7372,
      "##indua": 7373,
      "##tumia": 7374,
      "##zidi": 7375,
      "whatsapp": 7376,
      "itoo": 7377,
      "##ዎቹ": 7378,
      "##cita": 7379,
      "mdogo": 7380,
      "mukama": 7381,
      "wey": 7382,
      "##bika": 7383,
      "для": 7384,
      "##rent": 7385,
      "kitabu": 7386,
      "##isana": 7387,
      "papa": 7388,
      "##ማር": 7389,
      "maamulka": 7390,
      "jiji": 7391,
      "##ktari": 7392,
      "ሆኖ": 7393,
      "guerra": 7394,
      "##gii": 7395,
      "##himu": 7396,
      "##الم": 7397,
      "aar": 7398,
      "ambacho": 7399,
      "nsi": 7400,
      "##ላለ": 7401,
      "aq": 7402,
      "##23": 7403,
      "clo": 7404,
      "kujua": 7405,
      "اس": 7406,
      "##tuba": 7407,
      "eji": 7408,
      "pic": 7409,
      "looga": 7410,
      "lab": 7411,
      "የቀ": 7412,
      "መንገድ": 7413,
      "dey": 7414,
      "##ህል": 7415,
      "##сле": 7416,
      "##ሰራ": 7417,
      "lond": 7418,
      "##right": 7419,
      "##ାତ": 7420,
      "በር": 7421,
      "kinders": 7422,
      "##ାତର": 7423,
      "ଉପ": 7424,
      "qey": 7425,
      "##adhim": 7426,
      "kif": 7427,
      "humo": 7428,
      "gur": 7429,
      "ɖɔ": 7430,
      "##takiwa": 7431,
      "importan": 7432,
      "##zungumzia": 7433,
      "##gulu": 7434,
      "ሚኒስት": 7435,
      "gesi": 7436,
      "power": 7437,
      "##اري": 7438,
      "##zito": 7439,
      "hɛ": 7440,
      "ለአ": 7441,
      "##ላሉ": 7442,
      "abdul": 7443,
      "cuf": 7444,
      "goed": 7445,
      "##phu": 7446,
      "enige": 7447,
      "hari": 7448,
      "##jja": 7449,
      "##كر": 7450,
      "ilivyo": 7451,
      "isu": 7452,
      "##langa": 7453,
      "jamaa": 7454,
      "##keleza": 7455,
      "##wela": 7456,
      "ଅଧ": 7457,
      "##вля": 7458,
      "jakaya": 7459,
      "mtanzania": 7460,
      "socie": 7461,
      "wurde": 7462,
      "##ሳብ": 7463,
      "##kai": 7464,
      "##juli": 7465,
      "##ጣም": 7466,
      "##lite": 7467,
      "bek": 7468,
      "amb": 7469,
      "##gaji": 7470,
      "##tainment": 7471,
      "الله": 7472,
      "##ልቅ": 7473,
      "##ɩɩ": 7474,
      "qaar": 7475,
      "как": 7476,
      "full": 7477,
      "##isti": 7478,
      "tene": 7479,
      "##tions": 7480,
      "ever": 7481,
      "nane": 7482,
      "maklik": 7483,
      "57": 7484,
      "##taafu": 7485,
      "water": 7486,
      "itti": 7487,
      "##yele": 7488,
      "anya": 7489,
      "gy": 7490,
      "##ку": 7491,
      "##atee": 7492,
      "##ଶୱ": 7493,
      "##uran": 7494,
      "##ኖች": 7495,
      "##culo": 7496,
      "ስም": 7497,
      "kinacho": 7498,
      "##dhibiti": 7499,
      "##dka": 7500,
      "##bisha": 7501,
      "dd": 7502,
      "ያል": 7503,
      "##logia": 7504,
      "pekee": 7505,
      "mere": 7506,
      "##volu": 7507,
      "taba": 7508,
      "pel": 7509,
      "##ствен": 7510,
      "amɛ": 7511,
      "geme": 7512,
      "ደረጃ": 7513,
      "##weng": 7514,
      "##ምህርት": 7515,
      "sifa": 7516,
      "alt": 7517,
      "##beli": 7518,
      "##bol": 7519,
      "ushirikiano": 7520,
      "##ሜሪካ": 7521,
      "year": 7522,
      "##limi": 7523,
      "mtendaji": 7524,
      "##baha": 7525,
      "እኔ": 7526,
      "roho": 7527,
      "maju": 7528,
      "wanachama": 7529,
      "koa": 7530,
      "verb": 7531,
      "##ቀው": 7532,
      "kong": 7533,
      "diya": 7534,
      "##zela": 7535,
      "damu": 7536,
      "##gat": 7537,
      "##uwa": 7538,
      "yeho": 7539,
      "progr": 7540,
      "lahaa": 7541,
      "seo": 7542,
      "##peleka": 7543,
      "##pat": 7544,
      "##kwo": 7545,
      "ከፍተኛ": 7546,
      "##vis": 7547,
      "mini": 7548,
      "ref": 7549,
      "##usub": 7550,
      "yawa": 7551,
      "од": 7552,
      "idan": 7553,
      "loogu": 7554,
      "##zam": 7555,
      "bots": 7556,
      "##lahi": 7557,
      "daya": 7558,
      "##انية": 7559,
      "##inyanga": 7560,
      "take": 7561,
      "bem": 7562,
      "fulani": 7563,
      "##ለያዩ": 7564,
      "##bhe": 7565,
      "##ание": 7566,
      "##vang": 7567,
      "##tela": 7568,
      "ija": 7569,
      "##wekwa": 7570,
      "wema": 7571,
      "tee": 7572,
      "jama": 7573,
      "ghar": 7574,
      "kel": 7575,
      "paa": 7576,
      "##lira": 7577,
      "petro": 7578,
      "አው": 7579,
      "##در": 7580,
      "kyk": 7581,
      "geen": 7582,
      "የው": 7583,
      "ataka": 7584,
      "##chuu": 7585,
      "##ዘጋ": 7586,
      "tech": 7587,
      "taka": 7588,
      "##lishaji": 7589,
      "ول": 7590,
      "##dera": 7591,
      "##oresha": 7592,
      "pd": 7593,
      "archi": 7594,
      "ቦታ": 7595,
      "mora": 7596,
      "##tun": 7597,
      "pass": 7598,
      "መሆኑን": 7599,
      "##97": 7600,
      "##ziwa": 7601,
      "rona": 7602,
      "oromoo": 7603,
      "mume": 7604,
      "##vor": 7605,
      "##ስፋ": 7606,
      "yoku": 7607,
      "ନର": 7608,
      "ወቅ": 7609,
      "##ዮን": 7610,
      "lava": 7611,
      "vwo": 7612,
      "bure": 7613,
      "##спо": 7614,
      "##intu": 7615,
      "وي": 7616,
      "##lisi": 7617,
      "aŋ": 7618,
      "golaha": 7619,
      "##kumi": 7620,
      "byo": 7621,
      "##gel": 7622,
      "##fir": 7623,
      "wazazi": 7624,
      "huis": 7625,
      "300": 7626,
      "ከዚህ": 7627,
      "190": 7628,
      "hassan": 7629,
      "##inaa": 7630,
      "##jim": 7631,
      "##tao": 7632,
      "kee": 7633,
      "##ican": 7634,
      "mmo": 7635,
      "##ambano": 7636,
      "ନେଇ": 7637,
      "አገ": 7638,
      "##fik": 7639,
      "dii": 7640,
      "##መራ": 7641,
      "##sor": 7642,
      "kaha": 7643,
      "##hariri": 7644,
      "mont": 7645,
      "##ichana": 7646,
      "##итель": 7647,
      "yem": 7648,
      "##cher": 7649,
      "iji": 7650,
      "jumat": 7651,
      "oth": 7652,
      "##leo": 7653,
      "wawe": 7654,
      "maior": 7655,
      "##etoa": 7656,
      "##itsa": 7657,
      "rich": 7658,
      "##laki": 7659,
      "እንዴ": 7660,
      "##vidi": 7661,
      "ሌላ": 7662,
      "##جل": 7663,
      "sunday": 7664,
      "ተወ": 7665,
      "bun": 7666,
      "kona": 7667,
      "thi": 7668,
      "conhe": 7669,
      "##ላፊ": 7670,
      "organi": 7671,
      "download": 7672,
      "##ush": 7673,
      "wasiliana": 7674,
      "##alme": 7675,
      "obi": 7676,
      "9f": 7677,
      "##gre": 7678,
      "##ገልግ": 7679,
      "##funza": 7680,
      "med": 7681,
      "##onna": 7682,
      "##dua": 7683,
      "də": 7684,
      "kikosi": 7685,
      "gharama": 7686,
      "##اص": 7687,
      "##onia": 7688,
      "##ديد": 7689,
      "amfani": 7690,
      "##zioni": 7691,
      "kil": 7692,
      "tany": 7693,
      "##ልክ": 7694,
      "due": 7695,
      "##ering": 7696,
      "##ward": 7697,
      "##قت": 7698,
      "kucheza": 7699,
      "##ados": 7700,
      "እንዲሁ": 7701,
      "kume": 7702,
      "equi": 7703,
      "##uliza": 7704,
      "ethiopia": 7705,
      "مت": 7706,
      "hara": 7707,
      "##wila": 7708,
      "miss": 7709,
      "mapato": 7710,
      "##bai": 7711,
      "##በል": 7712,
      "هذه": 7713,
      "##net": 7714,
      "##54": 7715,
      "kuy": 7716,
      "ଯେ": 7717,
      "aso": 7718,
      "መረጃ": 7719,
      "kuchukua": 7720,
      "ዛሬ": 7721,
      "104": 7722,
      "ክልል": 7723,
      "dep": 7724,
      "majaliwa": 7725,
      "##fuku": 7726,
      "gom": 7727,
      "album": 7728,
      "##መድ": 7729,
      "xildhi": 7730,
      "stel": 7731,
      "aliyo": 7732,
      "bilioni": 7733,
      "nwa": 7734,
      "risasi": 7735,
      "##umla": 7736,
      "те": 7737,
      "sanaa": 7738,
      "##ାଧ": 7739,
      "##nesday": 7740,
      "кон": 7741,
      "varia": 7742,
      "##kelo": 7743,
      "##lola": 7744,
      "kho": 7745,
      "bras": 7746,
      "run": 7747,
      "##gli": 7748,
      "umuntu": 7749,
      "alex": 7750,
      "uja": 7751,
      "lwe": 7752,
      "##чи": 7753,
      "utafiti": 7754,
      "yanzu": 7755,
      "rela": 7756,
      "ዋና": 7757,
      "##llo": 7758,
      "ରେ": 7759,
      "##kiisa": 7760,
      "##tsi": 7761,
      "jumla": 7762,
      "##ከላ": 7763,
      "kisiasa": 7764,
      "mob": 7765,
      "##ልጣን": 7766,
      "afrikaanse": 7767,
      "kich": 7768,
      "##ግዚአብሔር": 7769,
      "##لال": 7770,
      "delle": 7771,
      "juda": 7772,
      "##cul": 7773,
      "internet": 7774,
      "iray": 7775,
      "shirka": 7776,
      "##jani": 7777,
      "tali": 7778,
      "sab": 7779,
      "##ୀଙକ": 7780,
      "##huhu": 7781,
      "kanye": 7782,
      "jos": 7783,
      "##ኛል": 7784,
      "##dra": 7785,
      "ос": 7786,
      "##اج": 7787,
      "ቅዱስ": 7788,
      "nyɔ": 7789,
      "kap": 7790,
      "wednesday": 7791,
      "wanneer": 7792,
      "##atakiwa": 7793,
      "commun": 7794,
      "mchezaji": 7795,
      "##unua": 7796,
      "##عم": 7797,
      "пред": 7798,
      "jerusa": 7799,
      "መጽ": 7800,
      "##jaro": 7801,
      "tirsan": 7802,
      "bino": 7803,
      "cla": 7804,
      "sas": 7805,
      "nella": 7806,
      "mcha": 7807,
      "##mel": 7808,
      "ከእ": 7809,
      "##gio": 7810,
      "xukuu": 7811,
      "nami": 7812,
      "##baya": 7813,
      "##ummaa": 7814,
      "politic": 7815,
      "እንጂ": 7816,
      "##ሞክ": 7817,
      "ዓለም": 7818,
      "##lemu": 7819,
      "open": 7820,
      "##69": 7821,
      "wajumbe": 7822,
      "tab": 7823,
      "contin": 7824,
      "##itti": 7825,
      "unu": 7826,
      "dagaal": 7827,
      "agu": 7828,
      "##sea": 7829,
      "buli": 7830,
      "##qay": 7831,
      "##هد": 7832,
      "party": 7833,
      "##lica": 7834,
      "lief": 7835,
      "african": 7836,
      "encont": 7837,
      "##irira": 7838,
      "##jea": 7839,
      "jihova": 7840,
      "art": 7841,
      "dola": 7842,
      "til": 7843,
      "##eron": 7844,
      "line": 7845,
      "hausa": 7846,
      "##onka": 7847,
      "##linda": 7848,
      "kumbukumbu": 7849,
      "ranar": 7850,
      "##insia": 7851,
      "##nd": 7852,
      "bɛɛ": 7853,
      "##ynta": 7854,
      "banda": 7855,
      "kufikia": 7856,
      "them": 7857,
      "##baki": 7858,
      "lig": 7859,
      "luk": 7860,
      "##vat": 7861,
      "total": 7862,
      "nso": 7863,
      "##oa": 7864,
      "##fungua": 7865,
      "##ጠና": 7866,
      "inge": 7867,
      "dambe": 7868,
      "shacabka": 7869,
      "##buhi": 7870,
      "fas": 7871,
      "lees": 7872,
      "yayi": 7873,
      "##cter": 7874,
      "cele": 7875,
      "##ства": 7876,
      "##isira": 7877,
      "هي": 7878,
      "##asie": 7879,
      "##ዘብ": 7880,
      "##ቷል": 7881,
      "##sch": 7882,
      "south": 7883,
      "mao": 7884,
      "##cl": 7885,
      "##وف": 7886,
      "asso": 7887,
      "በኢትዮጵያ": 7888,
      "##zen": 7889,
      "##ram": 7890,
      "##ታችን": 7891,
      "сво": 7892,
      "##ert": 7893,
      "gɔ": 7894,
      "هذا": 7895,
      "##ally": 7896,
      "kungiyar": 7897,
      "##ты": 7898,
      "##ƒe": 7899,
      "59": 7900,
      "sherehe": 7901,
      "madrid": 7902,
      "##ሰማ": 7903,
      "ጠቅ": 7904,
      "kuni": 7905,
      "eie": 7906,
      "samee": 7907,
      "macho": 7908,
      "ህዝብ": 7909,
      "ngen": 7910,
      "jar": 7911,
      "##arop": 7912,
      "##wil": 7913,
      "##itse": 7914,
      "shafi": 7915,
      "ria": 7916,
      "##anganyi": 7917,
      "де": 7918,
      "bh": 7919,
      "uingereza": 7920,
      "matsa": 7921,
      "cad": 7922,
      "##sebenzi": 7923,
      "uchunguzi": 7924,
      "resul": 7925,
      "bayi": 7926,
      "iju": 7927,
      "oop": 7928,
      "yaani": 7929,
      "george": 7930,
      "desen": 7931,
      "##hola": 7932,
      "aliwa": 7933,
      "mundu": 7934,
      "ido": 7935,
      "са": 7936,
      "##tle": 7937,
      "moko": 7938,
      "##ambulia": 7939,
      "wakazi": 7940,
      "##ወሰ": 7941,
      "##ful": 7942,
      "dza": 7943,
      "##icht": 7944,
      "##xii": 7945,
      "dri": 7946,
      "##isan": 7947,
      "opo": 7948,
      "##hika": 7949,
      "##tera": 7950,
      "ନଆ": 7951,
      "##angana": 7952,
      "teny": 7953,
      "##fukwa": 7954,
      "ear": 7955,
      "କରେ": 7956,
      "outros": 7957,
      "breaking": 7958,
      "cusub": 7959,
      "##ታይ": 7960,
      "##hango": 7961,
      "##toka": 7962,
      "omwa": 7963,
      "dama": 7964,
      "##dhara": 7965,
      "comun": 7966,
      "##kras": 7967,
      "sekond": 7968,
      "qora": 7969,
      "##ism": 7970,
      "##ንዳ": 7971,
      "qual": 7972,
      "gɛ": 7973,
      "ukuze": 7974,
      "gbɛ": 7975,
      "##ሪዎች": 7976,
      "joa": 7977,
      "ዜና": 7978,
      "ulo": 7979,
      "abra": 7980,
      "ፕሮ": 7981,
      "hun": 7982,
      "##stem": 7983,
      "eine": 7984,
      "##sɔ": 7985,
      "wapo": 7986,
      "ach": 7987,
      "daily": 7988,
      "##wepo": 7989,
      "##inti": 7990,
      "ainda": 7991,
      "ulim": 7992,
      "copy": 7993,
      "##ለይ": 7994,
      "mose": 7995,
      "##خت": 7996,
      "##عض": 7997,
      "ayeke": 7998,
      "inv": 7999,
      "##anne": 8000,
      "2004": 8001,
      "##ግብ": 8002,
      "alem": 8003,
      "##utes": 8004,
      "dhina": 8005,
      "ሰብ": 8006,
      "umo": 8007,
      "mwananchi": 8008,
      "meta": 8009,
      "just": 8010,
      "##cted": 8011,
      "kpɔ": 8012,
      "spa": 8013,
      "windo": 8014,
      "pon": 8015,
      "##engeneza": 8016,
      "entertainment": 8017,
      "okun": 8018,
      "##caa": 8019,
      "upinzani": 8020,
      "##74": 8021,
      "monday": 8022,
      "##سا": 8023,
      "stre": 8024,
      "##kuli": 8025,
      "ወን": 8026,
      "##mis": 8027,
      "nji": 8028,
      "##ند": 8029,
      "##fum": 8030,
      "inu": 8031,
      "##ثر": 8032,
      "##loka": 8033,
      "его": 8034,
      "##werk": 8035,
      "administ": 8036,
      "##emu": 8037,
      "tec": 8038,
      "##بة": 8039,
      "mazo": 8040,
      "##istas": 8041,
      "##он": 8042,
      "wajen": 8043,
      "አቀ": 8044,
      "##ዮች": 8045,
      "norte": 8046,
      "##ነበረ": 8047,
      "state": 8048,
      "wateja": 8049,
      "tangazo": 8050,
      "kwo": 8051,
      "##cs": 8052,
      "iets": 8053,
      "qara": 8054,
      "kwao": 8055,
      "##gemea": 8056,
      "enn": 8057,
      "mgombea": 8058,
      "sə": 8059,
      "##hugu": 8060,
      "##ше": 8061,
      "##manjaro": 8062,
      "##itokeza": 8063,
      "asubuhi": 8064,
      "##kies": 8065,
      "##isitiza": 8066,
      "mau": 8067,
      "uya": 8068,
      "kapa": 8069,
      "##ذا": 8070,
      "bato": 8071,
      "organ": 8072,
      "tt": 8073,
      "tura": 8074,
      "club": 8075,
      "ola": 8076,
      "الو": 8077,
      "jumuiya": 8078,
      "defin": 8079,
      "##zungumzo": 8080,
      "##ном": 8081,
      "eff": 8082,
      "ener": 8083,
      "kame": 8084,
      "sil": 8085,
      "##gle": 8086,
      "##ativa": 8087,
      "class": 8088,
      "fainali": 8089,
      "##ondia": 8090,
      "naam": 8091,
      "##ɩn": 8092,
      "65": 8093,
      "tik": 8094,
      "##kwaa": 8095,
      "##pen": 8096,
      "hem": 8097,
      "anche": 8098,
      "##gam": 8099,
      "##yɔ": 8100,
      "##tige": 8101,
      "hadda": 8102,
      "##gɛ": 8103,
      "##hulu": 8104,
      "##ŋo": 8105,
      "pode": 8106,
      "##ፍሪካ": 8107,
      "##atha": 8108,
      "majina": 8109,
      "##ера": 8110,
      "##cil": 8111,
      "##unye": 8112,
      "##bola": 8113,
      "vreem": 8114,
      "hele": 8115,
      "ush": 8116,
      "plat": 8117,
      "ክርስቲ": 8118,
      "##ɑn": 8119,
      "terug": 8120,
      "##yaasha": 8121,
      "##madda": 8122,
      "bele": 8123,
      "friday": 8124,
      "mazungumzo": 8125,
      "motho": 8126,
      "##utar": 8127,
      "wol": 8128,
      "suas": 8129,
      "##ادة": 8130,
      "miezi": 8131,
      "bayyana": 8132,
      "су": 8133,
      "nku": 8134,
      "aji": 8135,
      "liber": 8136,
      "muham": 8137,
      "dro": 8138,
      "kupiga": 8139,
      "adu": 8140,
      "##fiya": 8141,
      "zv": 8142,
      "muse": 8143,
      "ይህን": 8144,
      "ତାଙକ": 8145,
      "efe": 8146,
      "adda": 8147,
      "kuhu": 8148,
      "حيث": 8149,
      "##bidi": 8150,
      "ма": 8151,
      "uamuzi": 8152,
      "##xda": 8153,
      "tana": 8154,
      "pere": 8155,
      "##uras": 8156,
      "##гра": 8157,
      "goe": 8158,
      "persoon": 8159,
      "##ril": 8160,
      "##ден": 8161,
      "yale": 8162,
      "mitanda": 8163,
      "vry": 8164,
      "##ሩት": 8165,
      "hatari": 8166,
      "nawe": 8167,
      "##jan": 8168,
      "lokacin": 8169,
      "kore": 8170,
      "አደ": 8171,
      "##زي": 8172,
      "tff": 8173,
      "york": 8174,
      "federaalka": 8175,
      "##bed": 8176,
      "##ለች": 8177,
      "micha": 8178,
      "possi": 8179,
      "lt": 8180,
      "itakuwa": 8181,
      "biyu": 8182,
      "##ନତରୀ": 8183,
      "katikati": 8184,
      "##дов": 8185,
      "tazama": 8186,
      "##kale": 8187,
      "##kami": 8188,
      "##vul": 8189,
      "##عر": 8190,
      "nyasaye": 8191,
      "##kathi": 8192,
      "##zwi": 8193,
      "##ቀት": 8194,
      "##kato": 8195,
      "##zal": 8196,
      "vri": 8197,
      "fis": 8198,
      "shinyanga": 8199,
      "mauaji": 8200,
      "##ግራይ": 8201,
      "##etti": 8202,
      "wanaume": 8203,
      "##oms": 8204,
      "cel": 8205,
      "mesmo": 8206,
      "system": 8207,
      "kidato": 8208,
      "##tto": 8209,
      "##qaa": 8210,
      "sistema": 8211,
      "bajeti": 8212,
      "leer": 8213,
      "hae": 8214,
      "##ın": 8215,
      "##dada": 8216,
      "kilimanjaro": 8217,
      "##ኤል": 8218,
      "##ረብ": 8219,
      "##patia": 8220,
      "yel": 8221,
      "serie": 8222,
      "ec": 8223,
      "የበ": 8224,
      "only": 8225,
      "vip": 8226,
      "utamaduni": 8227,
      "xe": 8228,
      "##ውም": 8229,
      "ore": 8230,
      "yau": 8231,
      "gun": 8232,
      "yini": 8233,
      "##سة": 8234,
      "##ере": 8235,
      "influ": 8236,
      "siyo": 8237,
      "mov": 8238,
      "##78": 8239,
      "##rada": 8240,
      "kag": 8241,
      "##teli": 8242,
      "##tso": 8243,
      "##imbi": 8244,
      "ova": 8245,
      "institu": 8246,
      "##hel": 8247,
      "juli": 8248,
      "##zed": 8249,
      "origin": 8250,
      "ବଜ": 8251,
      "kambi": 8252,
      "guud": 8253,
      "jia": 8254,
      "later": 8255,
      "##imamia": 8256,
      "እው": 8257,
      "taal": 8258,
      "sug": 8259,
      "но": 8260,
      "##kayo": 8261,
      "##did": 8262,
      "##krasia": 8263,
      "dood": 8264,
      "sich": 8265,
      "##oshi": 8266,
      "ምክንያት": 8267,
      "jus": 8268,
      "compos": 8269,
      "##fie": 8270,
      "##esday": 8271,
      "##ምና": 8272,
      "##onio": 8273,
      "yandi": 8274,
      "wenyewe": 8275,
      "##bb": 8276,
      "##inthu": 8277,
      "usu": 8278,
      "comme": 8279,
      "good": 8280,
      "##gula": 8281,
      "fili": 8282,
      "##ola": 8283,
      "jari": 8284,
      "##chester": 8285,
      "manis": 8286,
      "ፓርቲ": 8287,
      "##chumi": 8288,
      "life": 8289,
      "##ଣଟ": 8290,
      "wazee": 8291,
      "abat": 8292,
      "##huka": 8293,
      "mapema": 8294,
      "depo": 8295,
      "pie": 8296,
      "በዓ": 8297,
      "akam": 8298,
      "##ثل": 8299,
      "##zingatia": 8300,
      "signi": 8301,
      "##раз": 8302,
      "toon": 8303,
      "tiba": 8304,
      "lom": 8305,
      "##grafia": 8306,
      "##ተን": 8307,
      "nem": 8308,
      "disc": 8309,
      "yezu": 8310,
      "##yadda": 8311,
      "##pes": 8312,
      "##anay": 8313,
      "##ysan": 8314,
      "##fura": 8315,
      "##zio": 8316,
      "##kim": 8317,
      "gli": 8318,
      "uvu": 8319,
      "toer": 8320,
      "##dores": 8321,
      "alu": 8322,
      "##ችል": 8323,
      "##ሩን": 8324,
      "##ኝነት": 8325,
      "ahi": 8326,
      "##limo": 8327,
      "bone": 8328,
      "##دينة": 8329,
      "ure": 8330,
      "kisa": 8331,
      "መካከል": 8332,
      "utc": 8333,
      "##mee": 8334,
      "uye": 8335,
      "kutya": 8336,
      "ଭବ": 8337,
      "lama": 8338,
      "##ነሳ": 8339,
      "##كت": 8340,
      "such": 8341,
      "##ቶም": 8342,
      "president": 8343,
      "##amar": 8344,
      "##bantu": 8345,
      "##angwe": 8346,
      "stars": 8347,
      "itali": 8348,
      "##حة": 8349,
      "##kiza": 8350,
      "yule": 8351,
      "##itor": 8352,
      "kusoma": 8353,
      "والم": 8354,
      "##kabili": 8355,
      "##fuu": 8356,
      "awamu": 8357,
      "##kamani": 8358,
      "dala": 8359,
      "johan": 8360,
      "##esco": 8361,
      "tuesday": 8362,
      "kontak": 8363,
      "##hwe": 8364,
      "nzi": 8365,
      "maswali": 8366,
      "geno": 8367,
      "happ": 8368,
      "atra": 8369,
      "leswi": 8370,
      "ple": 8371,
      "vyu": 8372,
      "##kye": 8373,
      "ripoti": 8374,
      "nabo": 8375,
      "был": 8376,
      "በጣም": 8377,
      "eva": 8378,
      "momba": 8379,
      "brasil": 8380,
      "eby": 8381,
      "##zamo": 8382,
      "የነበረ": 8383,
      "##ደው": 8384,
      "fane": 8385,
      "##ኩል": 8386,
      "##ወጣ": 8387,
      "##56": 8388,
      "##ጠበ": 8389,
      "##burg": 8390,
      "mabao": 8391,
      "የማይ": 8392,
      "manispaa": 8393,
      "##ndi": 8394,
      "rap": 8395,
      "##ାଇଛ": 8396,
      "final": 8397,
      "nuu": 8398,
      "chin": 8399,
      "##dana": 8400,
      "##yala": 8401,
      "##husiana": 8402,
      "##julikana": 8403,
      "##wes": 8404,
      "count": 8405,
      "majalis": 8406,
      "ተግባ": 8407,
      "##hamia": 8408,
      "መር": 8409,
      "paar": 8410,
      "complete": 8411,
      "manu": 8412,
      "##59": 8413,
      "singi": 8414,
      "memb": 8415,
      "gut": 8416,
      "oke": 8417,
      "ngɛ": 8418,
      "የታ": 8419,
      "99": 8420,
      "##ይነት": 8421,
      "ذلك": 8422,
      "##лю": 8423,
      "gwamnatin": 8424,
      "##aron": 8425,
      "tlho": 8426,
      "##she": 8427,
      "cit": 8428,
      "film": 8429,
      "sis": 8430,
      "hifadhi": 8431,
      "wasiirka": 8432,
      "charles": 8433,
      "##pende": 8434,
      "aos": 8435,
      "anna": 8436,
      "##dɔ": 8437,
      "kigoma": 8438,
      "sekondari": 8439,
      "##lle": 8440,
      "gwe": 8441,
      "ugonjwa": 8442,
      "politi": 8443,
      "dw": 8444,
      "akɛ": 8445,
      "rama": 8446,
      "faida": 8447,
      "##kora": 8448,
      "##тов": 8449,
      "leng": 8450,
      "weyn": 8451,
      "nyota": 8452,
      "gene": 8453,
      "manier": 8454,
      "##gor": 8455,
      "dande": 8456,
      "الغ": 8457,
      "##də": 8458,
      "##ይወት": 8459,
      "##аль": 8460,
      "##ሱን": 8461,
      "kwam": 8462,
      "##omin": 8463,
      "##vula": 8464,
      "##isema": 8465,
      "##ires": 8466,
      "kasas": 8467,
      "fia": 8468,
      "difer": 8469,
      "##badi": 8470,
      "##twa": 8471,
      "hita": 8472,
      "dor": 8473,
      "##كم": 8474,
      "kay": 8475,
      "rahisi": 8476,
      "##isaa": 8477,
      "##ጠው": 8478,
      "##elwa": 8479,
      "nza": 8480,
      "jim": 8481,
      "##ሉም": 8482,
      "##ናን": 8483,
      "##hiwa": 8484,
      "brasi": 8485,
      "##asho": 8486,
      "እንዲሁም": 8487,
      "bə": 8488,
      "መንግሥት": 8489,
      "##ସଥ": 8490,
      "pasi": 8491,
      "##miza": 8492,
      "vanhu": 8493,
      "even": 8494,
      "##መው": 8495,
      "afri": 8496,
      "ijumaa": 8497,
      "aange": 8498,
      "##عي": 8499,
      "##ፖለቲካ": 8500,
      "lid": 8501,
      "todo": 8502,
      "pole": 8503,
      "andu": 8504,
      "##cen": 8505,
      "##ፈው": 8506,
      "bɛn": 8507,
      "##kezo": 8508,
      "andro": 8509,
      "kie": 8510,
      "vra": 8511,
      "##ጀመሪያ": 8512,
      "##ности": 8513,
      "uhusiano": 8514,
      "sk": 8515,
      "nova": 8516,
      "##cation": 8517,
      "##ጨማሪ": 8518,
      "mahakamani": 8519,
      "william": 8520,
      "##zisa": 8521,
      "##ادي": 8522,
      "ezin": 8523,
      "ча": 8524,
      "##wezesha": 8525,
      "ዝተ": 8526,
      "mahali": 8527,
      "##ido": 8528,
      "##imarisha": 8529,
      "baadaye": 8530,
      "##ମାନଙକ": 8531,
      "##وت": 8532,
      "እንዴት": 8533,
      "##ursday": 8534,
      "yari": 8535,
      "sum": 8536,
      "hadlay": 8537,
      "kato": 8538,
      "##isra": 8539,
      "maand": 8540,
      "kem": 8541,
      "##amali": 8542,
      "profile": 8543,
      "##itas": 8544,
      "makini": 8545,
      "##beni": 8546,
      "##ones": 8547,
      "wafu": 8548,
      "##iz": 8549,
      "rol": 8550,
      "##ዲያ": 8551,
      "times": 8552,
      "rafiki": 8553,
      "ин": 8554,
      "##gelo": 8555,
      "##мер": 8556,
      "አካባቢ": 8557,
      "vrou": 8558,
      "ህዝ": 8559,
      "say": 8560,
      "##bare": 8561,
      "##erre": 8562,
      "numero": 8563,
      "shabaab": 8564,
      "oso": 8565,
      "colle": 8566,
      "##ቶችን": 8567,
      "በየ": 8568,
      "amewa": 8569,
      "##jijini": 8570,
      "##erumani": 8571,
      "swe": 8572,
      "##ruk": 8573,
      "##mali": 8574,
      "copyright": 8575,
      "##pongeza": 8576,
      "then": 8577,
      "fra": 8578,
      "##dug": 8579,
      "##tere": 8580,
      "##gogoro": 8581,
      "now": 8582,
      "age": 8583,
      "kufa": 8584,
      "با": 8585,
      "akili": 8586,
      "##dd": 8587,
      "##usika": 8588,
      "##mwe": 8589,
      "##ገኝ": 8590,
      "nea": 8591,
      "nwo": 8592,
      "side": 8593,
      "##urt": 8594,
      "sonder": 8595,
      "aliy": 8596,
      "thursday": 8597,
      "sido": 8598,
      "partir": 8599,
      "almal": 8600,
      "##ቱም": 8601,
      "log": 8602,
      "mwene": 8603,
      "thamani": 8604,
      "lut": 8605,
      "segundo": 8606,
      "##ность": 8607,
      "lika": 8608,
      "mfuko": 8609,
      "nzima": 8610,
      "ተቀ": 8611,
      "refer": 8612,
      "##jj": 8613,
      "##84": 8614,
      "wach": 8615,
      "cl": 8616,
      "nɛɛ": 8617,
      "sent": 8618,
      "mpa": 8619,
      "##са": 8620,
      "great": 8621,
      "ibra": 8622,
      "msim": 8623,
      "mane": 8624,
      "koko": 8625,
      "ልዩ": 8626,
      "ikiwemo": 8627,
      "yina": 8628,
      "hukumar": 8629,
      "##isadi": 8630,
      "etu": 8631,
      "##seben": 8632,
      "##rie": 8633,
      "##መጣ": 8634,
      "##awo": 8635,
      "##umbo": 8636,
      "yara": 8637,
      "possu": 8638,
      "differ": 8639,
      "kujiunga": 8640,
      "##kiin": 8641,
      "gala": 8642,
      "coun": 8643,
      "##ppie": 8644,
      "manchester": 8645,
      "populacao": 8646,
      "##ments": 8647,
      "vye": 8648,
      "mzuri": 8649,
      "cul": 8650,
      "iny": 8651,
      "att": 8652,
      "##anana": 8653,
      "ଦର": 8654,
      "##cɛ": 8655,
      "uhaki": 8656,
      "##versi": 8657,
      "darasa": 8658,
      "sle": 8659,
      "afo": 8660,
      "##ምነት": 8661,
      "##рав": 8662,
      "ding": 8663,
      "##sel": 8664,
      "##bisa": 8665,
      "##biliya": 8666,
      "84": 8667,
      "shein": 8668,
      "ram": 8669,
      "axmed": 8670,
      "##ongezeka": 8671,
      "በሰ": 8672,
      "shirik": 8673,
      "ପରତ": 8674,
      "##kuthi": 8675,
      "belang": 8676,
      "arrimaha": 8677,
      "tempo": 8678,
      "pɩ": 8679,
      "big": 8680,
      "የሕ": 8681,
      "vro": 8682,
      "labada": 8683,
      "##ке": 8684,
      "##usan": 8685,
      "image": 8686,
      "##የር": 8687,
      "name": 8688,
      "kumbe": 8689,
      "በስ": 8690,
      "##ደም": 8691,
      "nyam": 8692,
      "በፊት": 8693,
      "alivyo": 8694,
      "##sanya": 8695,
      "centro": 8696,
      "94": 8697,
      "omdat": 8698,
      "##bea": 8699,
      "##fua": 8700,
      "mwenyezi": 8701,
      "india": 8702,
      "magonjwa": 8703,
      "hotuba": 8704,
      "stat": 8705,
      "sahihi": 8706,
      "##ክር": 8707,
      "mole": 8708,
      "##pigwa": 8709,
      "##hifadhi": 8710,
      "##33": 8711,
      "utar": 8712,
      "kusaidia": 8713,
      "mahusiano": 8714,
      "maali": 8715,
      "habitantes": 8716,
      "enda": 8717,
      "ukim": 8718,
      "kuboresha": 8719,
      "ndogo": 8720,
      "kiki": 8721,
      "##су": 8722,
      "##yso": 8723,
      "hotel": 8724,
      "wasio": 8725,
      "##hau": 8726,
      "safi": 8727,
      "mod": 8728,
      "##ለዋል": 8729,
      "iis": 8730,
      "##vamente": 8731,
      "ped": 8732,
      "cost": 8733,
      "nana": 8734,
      "kakhulu": 8735,
      "kube": 8736,
      "aux": 8737,
      "liga": 8738,
      "mte": 8739,
      "mawaziri": 8740,
      "back": 8741,
      "##طة": 8742,
      "##ህን": 8743,
      "badi": 8744,
      "##hoji": 8745,
      "nati": 8746,
      "##ilu": 8747,
      "##ook": 8748,
      "desta": 8749,
      "fla": 8750,
      "rego": 8751,
      "weg": 8752,
      "lef": 8753,
      "##af": 8754,
      "mach": 8755,
      "##arana": 8756,
      "##esig": 8757,
      "mʋ": 8758,
      "peter": 8759,
      "mone": 8760,
      "##atikana": 8761,
      "neem": 8762,
      "depois": 8763,
      "primeiro": 8764,
      "##bua": 8765,
      "jin": 8766,
      "##enn": 8767,
      "hla": 8768,
      "eyo": 8769,
      "ambavyo": 8770,
      "##ea": 8771,
      "fela": 8772,
      "yas": 8773,
      "xoo": 8774,
      "awu": 8775,
      "goeie": 8776,
      "anthu": 8777,
      "jumapili": 8778,
      "somalia": 8779,
      "daudi": 8780,
      "dina": 8781,
      "batu": 8782,
      "mkazi": 8783,
      "##gues": 8784,
      "##umela": 8785,
      "under": 8786,
      "##ካሄ": 8787,
      "sport": 8788,
      "##ታቸውን": 8789,
      "amerika": 8790,
      "dok": 8791,
      "kiri": 8792,
      "##handi": 8793,
      "##ŋn": 8794,
      "##вер": 8795,
      "cloud": 8796,
      "egi": 8797,
      "ଆଜ": 8798,
      "uria": 8799,
      "todos": 8800,
      "slaa": 8801,
      "##qe": 8802,
      "natu": 8803,
      "shee": 8804,
      "gon": 8805,
      "##diliano": 8806,
      "##мя": 8807,
      "የሚያስ": 8808,
      "##fariki": 8809,
      "majalisar": 8810,
      "salama": 8811,
      "##ykan": 8812,
      "##ደት": 8813,
      "sein": 8814,
      "anam": 8815,
      "##خل": 8816,
      "business": 8817,
      "makundi": 8818,
      "##bir": 8819,
      "##itha": 8820,
      "tant": 8821,
      "school": 8822,
      "##daka": 8823,
      "##atar": 8824,
      "##يات": 8825,
      "wah": 8826,
      "satur": 8827,
      "mundo": 8828,
      "##жен": 8829,
      "##khathi": 8830,
      "после": 8831,
      "##ተዋል": 8832,
      "##shin": 8833,
      "umwe": 8834,
      "orodha": 8835,
      "kanuni": 8836,
      "المن": 8837,
      "ሕዝብ": 8838,
      "##ɖo": 8839,
      "bale": 8840,
      "##unde": 8841,
      "shari": 8842,
      "##lies": 8843,
      "house": 8844,
      "tlo": 8845,
      "considera": 8846,
      "elect": 8847,
      "горо": 8848,
      "ли": 8849,
      "dake": 8850,
      "covid": 8851,
      "##ରା": 8852,
      "oy": 8853,
      "nts": 8854,
      "##wari": 8855,
      "vida": 8856,
      "ome": 8857,
      "kamu": 8858,
      "##kos": 8859,
      "##ክስ": 8860,
      "##aba": 8861,
      "proje": 8862,
      "made": 8863,
      "##vunja": 8864,
      "ወር": 8865,
      "##humiwa": 8866,
      "america": 8867,
      "our": 8868,
      "kerk": 8869,
      "ae": 8870,
      "group": 8871,
      "wakulima": 8872,
      "##cto": 8873,
      "##ss": 8874,
      "##nia": 8875,
      "##biwa": 8876,
      "##iriza": 8877,
      "periodo": 8878,
      "##wə": 8879,
      "##ysay": 8880,
      "##inka": 8881,
      "yai": 8882,
      "wanthu": 8883,
      "leza": 8884,
      "##bien": 8885,
      "##arti": 8886,
      "ciki": 8887,
      "komm": 8888,
      "##kadi": 8889,
      "wara": 8890,
      "##pla": 8891,
      "vhu": 8892,
      "##maye": 8893,
      "##kera": 8894,
      "yose": 8895,
      "west": 8896,
      "antu": 8897,
      "nacional": 8898,
      "كما": 8899,
      "##leen": 8900,
      "ushauri": 8901,
      "these": 8902,
      "ie": 8903,
      "66": 8904,
      "##ናገ": 8905,
      "singida": 8906,
      "tanz": 8907,
      "##bane": 8908,
      "##ኦሮ": 8909,
      "ମା": 8910,
      "##kanya": 8911,
      "##ባለ": 8912,
      "vituo": 8913,
      "utaratibu": 8914,
      "##isto": 8915,
      "ру": 8916,
      "96": 8917,
      "zot": 8918,
      "mɛn": 8919,
      "org": 8920,
      "ଦନ": 8921,
      "poder": 8922,
      "conce": 8923,
      "person": 8924,
      "ተቋ": 8925,
      "states": 8926,
      "##мы": 8927,
      "materia": 8928,
      "##ራሲ": 8929,
      "##mala": 8930,
      "tshe": 8931,
      "iyadoo": 8932,
      "##aji": 8933,
      "suke": 8934,
      "buu": 8935,
      "suc": 8936,
      "rwa": 8937,
      "اله": 8938,
      "utekele": 8939,
      "respon": 8940,
      "##wor": 8941,
      "agi": 8942,
      "villa": 8943,
      "yaki": 8944,
      "74": 8945,
      "nish": 8946,
      "##ያዊ": 8947,
      "##କରମ": 8948,
      "provincia": 8949,
      "akitoa": 8950,
      "##list": 8951,
      "diri": 8952,
      "ibe": 8953,
      "muh": 8954,
      "##qin": 8955,
      "kele": 8956,
      "nyama": 8957,
      "doorashada": 8958,
      "shugaba": 8959,
      "##teen": 8960,
      "exem": 8961,
      "##onso": 8962,
      "##guliwa": 8963,
      "tul": 8964,
      "па": 8965,
      "ue": 8966,
      "verander": 8967,
      "moshi": 8968,
      "licha": 8969,
      "sos": 8970,
      "##ald": 8971,
      "##zie": 8972,
      "##wasi": 8973,
      "75": 8974,
      "madai": 8975,
      "ଲୋକ": 8976,
      "##undo": 8977,
      "crit": 8978,
      "human": 8979,
      "bati": 8980,
      "ми": 8981,
      "##iewe": 8982,
      "##moo": 8983,
      "religi": 8984,
      "telev": 8985,
      "##andra": 8986,
      "kutaka": 8987,
      "##ገው": 8988,
      "እንደሆነ": 8989,
      "oni": 8990,
      "kamanda": 8991,
      "pwani": 8992,
      "kamar": 8993,
      "##32": 8994,
      "lahat": 8995,
      "ବା": 8996,
      "anc": 8997,
      "መግለ": 8998,
      "##shwa": 8999,
      "##kes": 9000,
      "bofya": 9001,
      "##ገሪ": 9002,
      "sty": 9003,
      "waq": 9004,
      "dois": 9005,
      "ሳይሆን": 9006,
      "furaha": 9007,
      "exist": 9008,
      "caal": 9009,
      "baarlama": 9010,
      "##رق": 9011,
      "ተከ": 9012,
      "##ffie": 9013,
      "dinge": 9014,
      "ድረስ": 9015,
      "estados": 9016,
      "##87": 9017,
      "cia": 9018,
      "##vita": 9019,
      "zar": 9020,
      "love": 9021,
      "##indra": 9022,
      "rɔ": 9023,
      "tour": 9024,
      "kra": 9025,
      "bahati": 9026,
      "inaweza": 9027,
      "would": 9028,
      "##tado": 9029,
      "swali": 9030,
      "və": 9031,
      "pesso": 9032,
      "jɛ": 9033,
      "##اض": 9034,
      "james": 9035,
      "##forma": 9036,
      "##fanyia": 9037,
      "##وع": 9038,
      "ihany": 9039,
      "pai": 9040,
      "muhim": 9041,
      "kuelekea": 9042,
      "iru": 9043,
      "nah": 9044,
      "ସରକାର": 9045,
      "አር": 9046,
      "keess": 9047,
      "islam": 9048,
      "##ولة": 9049,
      "khi": 9050,
      "baraka": 9051,
      "mtandaoni": 9052,
      "blogu": 9053,
      "unga": 9054,
      "##buu": 9055,
      "mitandao": 9056,
      "##lum": 9057,
      "କରୋନା": 9058,
      "በወ": 9059,
      "kikubwa": 9060,
      "iga": 9061,
      "haw": 9062,
      "##irobi": 9063,
      "muno": 9064,
      "##ns": 9065,
      "watan": 9066,
      "yaka": 9067,
      "gia": 9068,
      "lw": 9069,
      "partic": 9070,
      "gat": 9071,
      "##rum": 9072,
      "chel": 9073,
      "kutafuta": 9074,
      "suo": 9075,
      "rushwa": 9076,
      "franca": 9077,
      "##об": 9078,
      "##puka": 9079,
      "kushirikiana": 9080,
      "አድ": 9081,
      "##iras": 9082,
      "пере": 9083,
      "አገልግ": 9084,
      "lui": 9085,
      "2003": 9086,
      "##чен": 9087,
      "##amosi": 9088,
      "tlha": 9089,
      "ስብ": 9090,
      "የሚል": 9091,
      "where": 9092,
      "anaweza": 9093,
      "zum": 9094,
      "mawazo": 9095,
      "zimba": 9096,
      "utekelezaji": 9097,
      "##jar": 9098,
      "አገር": 9099,
      "##zɩ": 9100,
      "##kufa": 9101,
      "ann": 9102,
      "ኤርትራ": 9103,
      "ከሚ": 9104,
      "elle": 9105,
      "tras": 9106,
      "audio": 9107,
      "እንዲያ": 9108,
      "الي": 9109,
      "400": 9110,
      "desemba": 9111,
      "tafa": 9112,
      "##ጆች": 9113,
      "listen": 9114,
      "law": 9115,
      "##endeleza": 9116,
      "ବରଷ": 9117,
      "##بد": 9118,
      "vitendo": 9119,
      "##ern": 9120,
      "gago": 9121,
      "ŋɔ": 9122,
      "كانت": 9123,
      "##uny": 9124,
      "mok": 9125,
      "ଭବନେ": 9126,
      "zwi": 9127,
      "arsen": 9128,
      "israeli": 9129,
      "hafa": 9130,
      "gemaak": 9131,
      "ଜଲ": 9132,
      "achi": 9133,
      "##ୟମ": 9134,
      "بل": 9135,
      "desenvol": 9136,
      "##ghari": 9137,
      "ችግር": 9138,
      "yeyote": 9139,
      "##gy": 9140,
      "##ɛlɛ": 9141,
      "xiri": 9142,
      "##ልን": 9143,
      "dhac": 9144,
      "##erde": 9145,
      "##bya": 9146,
      "teks": 9147,
      "primeira": 9148,
      "bru": 9149,
      "##ambuzi": 9150,
      "все": 9151,
      "visi": 9152,
      "##risho": 9153,
      "##kay": 9154,
      "trabal": 9155,
      "kere": 9156,
      "labara": 9157,
      "zawadi": 9158,
      "dɩ": 9159,
      "keer": 9160,
      "acti": 9161,
      "ros": 9162,
      "##atro": 9163,
      "jane": 9164,
      "##በው": 9165,
      "agter": 9166,
      "##yuka": 9167,
      "guddoomi": 9168,
      "nairobi": 9169,
      "wasan": 9170,
      "##lette": 9171,
      "##jee": 9172,
      "socda": 9173,
      "##ington": 9174,
      "zva": 9175,
      "##see": 9176,
      "hɔ": 9177,
      "pol": 9178,
      "ком": 9179,
      "##lion": 9180,
      "itoobiya": 9181,
      "niŋ": 9182,
      "وقد": 9183,
      "maanda": 9184,
      "staan": 9185,
      "nh": 9186,
      "##ଳା": 9187,
      "##ነቱ": 9188,
      "##yima": 9189,
      "##helo": 9190,
      "kime": 9191,
      "255": 9192,
      "##gamba": 9193,
      "yenu": 9194,
      "kike": 9195,
      "##yesu": 9196,
      "##فس": 9197,
      "ngazi": 9198,
      "##terior": 9199,
      "sets": 9200,
      "ተብ": 9201,
      "sci": 9202,
      "##karu": 9203,
      "##يع": 9204,
      "used": 9205,
      "tokko": 9206,
      "muito": 9207,
      "እጅ": 9208,
      "##disha": 9209,
      "taona": 9210,
      "በት": 9211,
      "وفي": 9212,
      "##chia": 9213,
      "zita": 9214,
      "##kwata": 9215,
      "klein": 9216,
      "baza": 9217,
      "muku": 9218,
      "##89": 9219,
      "##ጨረ": 9220,
      "bank": 9221,
      "##ɓa": 9222,
      "dus": 9223,
      "amek": 9224,
      "nak": 9225,
      "##አዴ": 9226,
      "minist": 9227,
      "spo": 9228,
      "ray": 9229,
      "በደ": 9230,
      "ସବ": 9231,
      "haz": 9232,
      "##ness": 9233,
      "##vuma": 9234,
      "bom": 9235,
      "##berg": 9236,
      "##yahay": 9237,
      "found": 9238,
      "yata": 9239,
      "2001": 9240,
      "ክፍል": 9241,
      "ede": 9242,
      "chelsea": 9243,
      "qaad": 9244,
      "daniel": 9245,
      "continu": 9246,
      "ቢሆን": 9247,
      "##kosi": 9248,
      "irin": 9249,
      "xar": 9250,
      "kiuchumi": 9251,
      "tambien": 9252,
      "xis": 9253,
      "ନଜ": 9254,
      "##rat": 9255,
      "arsenal": 9256,
      "##حي": 9257,
      "design": 9258,
      "lou": 9259,
      "kufunga": 9260,
      "shida": 9261,
      "leyi": 9262,
      "spesia": 9263,
      "##aren": 9264,
      "##weke": 9265,
      "cette": 9266,
      "##bale": 9267,
      "##asiri": 9268,
      "##gile": 9269,
      "##kina": 9270,
      "nord": 9271,
      "shirikisho": 9272,
      "##пу": 9273,
      "mikopo": 9274,
      "##ଟକ": 9275,
      "##gawa": 9276,
      "wamekuwa": 9277,
      "##kany": 9278,
      "brasile": 9279,
      "##kamatwa": 9280,
      "viungo": 9281,
      "kushindwa": 9282,
      "doc": 9283,
      "kano": 9284,
      "##hughu": 9285,
      "##dow": 9286,
      "irratti": 9287,
      "##woord": 9288,
      "ruge": 9289,
      "clouds": 9290,
      "much": 9291,
      "##ap": 9292,
      "saint": 9293,
      "##esti": 9294,
      "ଭାର": 9295,
      "##ፋት": 9296,
      "##were": 9297,
      "labarai": 9298,
      "ସଥ": 9299,
      "##ሰባ": 9300,
      "##зи": 9301,
      "##polo": 9302,
      "michael": 9303,
      "altyd": 9304,
      "bie": 9305,
      "##unzi": 9306,
      "##ፈለ": 9307,
      "xasan": 9308,
      "##angazwa": 9309,
      "##ضا": 9310,
      "kusu": 9311,
      "##guo": 9312,
      "አሳ": 9313,
      "вре": 9314,
      "principa": 9315,
      "ciidanka": 9316,
      "jumamosi": 9317,
      "wacha": 9318,
      "##lista": 9319,
      "##doen": 9320,
      "##osh": 9321,
      "yak": 9322,
      "pero": 9323,
      "##llah": 9324,
      "##tele": 9325,
      "##isie": 9326,
      "sheeg": 9327,
      "actu": 9328,
      "ɔn": 9329,
      "##tad": 9330,
      "babban": 9331,
      "ምንም": 9332,
      "##kik": 9333,
      "##logy": 9334,
      "usajili": 9335,
      "2002": 9336,
      "воз": 9337,
      "##bho": 9338,
      "##iter": 9339,
      "ntan": 9340,
      "xub": 9341,
      "nkh": 9342,
      "zangu": 9343,
      "##wezekana": 9344,
      "##word": 9345,
      "##ging": 9346,
      "##wassa": 9347,
      "samun": 9348,
      "deux": 9349,
      "يت": 9350,
      "##fanele": 9351,
      "##iwa": 9352,
      "እንኳ": 9353,
      "##ums": 9354,
      "##cre": 9355,
      "ning": 9356,
      "##sed": 9357,
      "dre": 9358,
      "epoca": 9359,
      "##ить": 9360,
      "си": 9361,
      "ତେ": 9362,
      "##irs": 9363,
      "michuano": 9364,
      "kuweza": 9365,
      "hakika": 9366,
      "##ይና": 9367,
      "ahe": 9368,
      "mrisho": 9369,
      "maadili": 9370,
      "lebo": 9371,
      "##vido": 9372,
      "seng": 9373,
      "##amman": 9374,
      "naomba": 9375,
      "ces": 9376,
      "aiki": 9377,
      "##sione": 9378,
      "##cesso": 9379,
      "##tshi": 9380,
      "ቃል": 9381,
      "maombi": 9382,
      "mitaa": 9383,
      "kuangalia": 9384,
      "stra": 9385,
      "ଓଡ": 9386,
      "profesa": 9387,
      "lona": 9388,
      "divers": 9389,
      "##yoni": 9390,
      "nav": 9391,
      "roman": 9392,
      "fund": 9393,
      "##iran": 9394,
      "lowassa": 9395,
      "##wengu": 9396,
      "64": 9397,
      "##gho": 9398,
      "mudi": 9399,
      "yeroo": 9400,
      "meme": 9401,
      "##fanye": 9402,
      "koffie": 9403,
      "ወቅት": 9404,
      "##вш": 9405,
      "ሁለት": 9406,
      "##eros": 9407,
      "##hede": 9408,
      "kadib": 9409,
      "husika": 9410,
      "import": 9411,
      "ଦେଇ": 9412,
      "##gol": 9413,
      "##ligting": 9414,
      "##waan": 9415,
      "kupambana": 9416,
      "67": 9417,
      "iwo": 9418,
      "እኛ": 9419,
      "well": 9420,
      "##ving": 9421,
      "##ffe": 9422,
      "kristu": 9423,
      "##aree": 9424,
      "kafa": 9425,
      "##aransa": 9426,
      "kɛɛ": 9427,
      "blogs": 9428,
      "pot": 9429,
      "##ركة": 9430,
      "которы": 9431,
      "consider": 9432,
      "ሥር": 9433,
      "rem": 9434,
      "kupunguza": 9435,
      "##طل": 9436,
      "tendo": 9437,
      "jukwaa": 9438,
      "ଦେଖ": 9439,
      "mazoezi": 9440,
      "##ule": 9441,
      "##bye": 9442,
      "makuu": 9443,
      "uwo": 9444,
      "iso": 9445,
      "mila": 9446,
      "##gang": 9447,
      "aru": 9448,
      "rest": 9449,
      "matibabu": 9450,
      "##onu": 9451,
      "kple": 9452,
      "##poli": 9453,
      "faha": 9454,
      "##مر": 9455,
      "##ውል": 9456,
      "vari": 9457,
      "lead": 9458,
      "ካል": 9459,
      "related": 9460,
      "masomo": 9461,
      "km²": 9462,
      "##biga": 9463,
      "##əm": 9464,
      "wir": 9465,
      "saturday": 9466,
      "##gui": 9467,
      "lenye": 9468,
      "nwere": 9469,
      "haddii": 9470,
      "##ረን": 9471,
      "##31": 9472,
      "shaqa": 9473,
      "fig": 9474,
      "##quer": 9475,
      "wadan": 9476,
      "reactions": 9477,
      "##elo": 9478,
      "##batar": 9479,
      "corona": 9480,
      "##ଟର": 9481,
      "uyo": 9482,
      "##ଗର": 9483,
      "##ብል": 9484,
      "##goa": 9485,
      "kuleta": 9486,
      "vam": 9487,
      "navi": 9488,
      "mwenza": 9489,
      "##bou": 9490,
      "##huku": 9491,
      "انت": 9492,
      "##wini": 9493,
      "##zimu": 9494,
      "##gaba": 9495,
      "wafanyabiashara": 9496,
      "##jumu": 9497,
      "tii": 9498,
      "alfa": 9499,
      "##kumbuka": 9500,
      "saboda": 9501,
      "wele": 9502,
      "##dla": 9503,
      "##ୀର": 9504,
      "ኢን": 9505,
      "kuling": 9506,
      "କରବା": 9507,
      "ኮሚ": 9508,
      "yɔɔ": 9509,
      "afisa": 9510,
      "##delinge": 9511,
      "capa": 9512,
      "heshima": 9513,
      "interna": 9514,
      "##وية": 9515,
      "##yeza": 9516,
      "##bone": 9517,
      "okuti": 9518,
      "##areo": 9519,
      "##ريق": 9520,
      "auch": 9521,
      "ሲያ": 9522,
      "ዘመን": 9523,
      "london": 9524,
      "respe": 9525,
      "austra": 9526,
      "##enyi": 9527,
      "mug": 9528,
      "##cimento": 9529,
      "##ଚନା": 9530,
      "##dhali": 9531,
      "##وات": 9532,
      "uzalishaji": 9533,
      "##qii": 9534,
      "##kra": 9535,
      "partici": 9536,
      "ss": 9537,
      "mii": 9538,
      "nyan": 9539,
      "##kanga": 9540,
      "rele": 9541,
      "bef": 9542,
      "mbere": 9543,
      "capital": 9544,
      "maan": 9545,
      "malo": 9546,
      "##veni": 9547,
      "##ମାନେ": 9548,
      "##ማይ": 9549,
      "kijana": 9550,
      "መንግስ": 9551,
      "apenas": 9552,
      "##حل": 9553,
      "kufika": 9554,
      "mtwara": 9555,
      "##ከር": 9556,
      "##wun": 9557,
      "kɩ": 9558,
      "##yal": 9559,
      "mulu": 9560,
      "##sip": 9561,
      "##ou": 9562,
      "##kane": 9563,
      "cria": 9564,
      "kont": 9565,
      "##bwo": 9566,
      "italia": 9567,
      "bae": 9568,
      "daima": 9569,
      "##ደረጉ": 9570,
      "tweet": 9571,
      "lugar": 9572,
      "again": 9573,
      "zoezi": 9574,
      "መለ": 9575,
      "iche": 9576,
      "##ବସ": 9577,
      "ozo": 9578,
      "heer": 9579,
      "##رج": 9580,
      "##funda": 9581,
      "##ards": 9582,
      "сов": 9583,
      "fad": 9584,
      "kuwan": 9585,
      "noho": 9586,
      "##وري": 9587,
      "##ଞଜ": 9588,
      "##yango": 9589,
      "##kufu": 9590,
      "makosa": 9591,
      "##መል": 9592,
      "##ics": 9593,
      "jack": 9594,
      "##ጠቃ": 9595,
      "በም": 9596,
      "kasta": 9597,
      "altern": 9598,
      "##fsiri": 9599,
      "maru": 9600,
      "##ብረት": 9601,
      "##يف": 9602,
      "86": 9603,
      "oto": 9604,
      "##karar": 9605,
      "assim": 9606,
      "##dhuria": 9607,
      "ሌሎች": 9608,
      "##ят": 9609,
      "kagera": 9610,
      "industria": 9611,
      "##bles": 9612,
      "second": 9613,
      "sake": 9614,
      "##ሃን": 9615,
      "daraja": 9616,
      "kipa": 9617,
      "##من": 9618,
      "baarlamaanka": 9619,
      "##gola": 9620,
      "##መረ": 9621,
      "apro": 9622,
      "zimbabwe": 9623,
      "አላ": 9624,
      "##صب": 9625,
      "kuishi": 9626,
      "nishati": 9627,
      "##ورة": 9628,
      "nae": 9629,
      "tshwan": 9630,
      "uliopita": 9631,
      "አያ": 9632,
      "##kosa": 9633,
      "rai": 9634,
      "وج": 9635,
      "anni": 9636,
      "gali": 9637,
      "bulshada": 9638,
      "ድማ": 9639,
      "##ይማ": 9640,
      "##alaha": 9641,
      "##rito": 9642,
      "rie": 9643,
      "##zil": 9644,
      "zia": 9645,
      "ciu": 9646,
      "ingawa": 9647,
      "##wambia": 9648,
      "naba": 9649,
      "casa": 9650,
      "ଆମ": 9651,
      "yeke": 9652,
      "ታሪክ": 9653,
      "##yanya": 9654,
      "##nam": 9655,
      "wang": 9656,
      "##ቻችን": 9657,
      "nombre": 9658,
      "kisi": 9659,
      "udaku": 9660,
      "zaben": 9661,
      "##ଯୋଗ": 9662,
      "ture": 9663,
      "##kofu": 9664,
      "##pana": 9665,
      "mɛni": 9666,
      "nuus": 9667,
      "##ason": 9668,
      "suu": 9669,
      "ml": 9670,
      "1990": 9671,
      "mona": 9672,
      "##wano": 9673,
      "seun": 9674,
      "ske": 9675,
      "ega": 9676,
      "እንዲህ": 9677,
      "zenye": 9678,
      "عند": 9679,
      "##pɔ": 9680,
      "koro": 9681,
      "qayb": 9682,
      "mosi": 9683,
      "##jii": 9684,
      "##86": 9685,
      "189": 9686,
      "kwetu": 9687,
      "pak": 9688,
      "##sii": 9689,
      "##yali": 9690,
      "cerca": 9691,
      "sli": 9692,
      "الار": 9693,
      "amni": 9694,
      "##inho": 9695,
      "uhakika": 9696,
      "##ራን": 9697,
      "##husisha": 9698,
      "##idizi": 9699,
      "espa": 9700,
      "bingwa": 9701,
      "daardie": 9702,
      "قد": 9703,
      "##ну": 9704,
      "munthu": 9705,
      "okwe": 9706,
      "sidii": 9707,
      "upendo": 9708,
      "france": 9709,
      "tuka": 9710,
      "coo": 9711,
      "الاول": 9712,
      "baxay": 9713,
      "تق": 9714,
      "quali": 9715,
      "imekuwa": 9716,
      "tamasha": 9717,
      "##adda": 9718,
      "##essaa": 9719,
      "ያሉ": 9720,
      "##لم": 9721,
      "##ites": 9722,
      "##ቤት": 9723,
      "imo": 9724,
      "он": 9725,
      "babi": 9726,
      "andre": 9727,
      "mago": 9728,
      "##ykanka": 9729,
      "gor": 9730,
      "##encias": 9731,
      "##си": 9732,
      "ሚኒስትር": 9733,
      "meel": 9734,
      "kashe": 9735,
      "kufuatia": 9736,
      "##ана": 9737,
      "የግ": 9738,
      "imana": 9739,
      "ରାଜୟ": 9740,
      "qeyb": 9741,
      "rati": 9742,
      "ally": 9743,
      "##vind": 9744,
      "ለው": 9745,
      "labo": 9746,
      "doon": 9747,
      "##тив": 9748,
      "ማዕ": 9749,
      "##فت": 9750,
      "##wula": 9751,
      "naka": 9752,
      "##liga": 9753,
      "##ambazaji": 9754,
      "##woo": 9755,
      "##gro": 9756,
      "uwekezaji": 9757,
      "##leng": 9758,
      "tex": 9759,
      "##jabu": 9760,
      "##kodi": 9761,
      "##pɛ": 9762,
      "ፖሊ": 9763,
      "##sal": 9764,
      "aang": 9765,
      "juzi": 9766,
      "kassim": 9767,
      "seif": 9768,
      "##wulo": 9769,
      "##ሏል": 9770,
      "santa": 9771,
      "##uawa": 9772,
      "##ዋን": 9773,
      "##atic": 9774,
      "ዓመታት": 9775,
      "##ନଧ": 9776,
      "maŋ": 9777,
      "onu": 9778,
      "##ቸዋል": 9779,
      "##اه": 9780,
      "##ሞች": 9781,
      "##cent": 9782,
      "maamuzi": 9783,
      "kɔɔ": 9784,
      "elo": 9785,
      "waye": 9786,
      "##lishwa": 9787,
      "enyi": 9788,
      "chocho": 9789,
      "dum": 9790,
      "ተፈ": 9791,
      "qaaday": 9792,
      "kɔn": 9793,
      "##andikwa": 9794,
      "situ": 9795,
      "naŋ": 9796,
      "##ሉን": 9797,
      "ehe": 9798,
      "mutum": 9799,
      "paris": 9800,
      "linalo": 9801,
      "polis": 9802,
      "reer": 9803,
      "ପରସ": 9804,
      "hariri": 9805,
      "vaka": 9806,
      "##tr": 9807,
      "ninu": 9808,
      "##alaa": 9809,
      "naij": 9810,
      "egter": 9811,
      "cro": 9812,
      "dic": 9813,
      "##ይማኖ": 9814,
      "በተለይ": 9815,
      "dowlad": 9816,
      "ufundi": 9817,
      "ବଭ": 9818,
      "##kanin": 9819,
      "gona": 9820,
      "##beka": 9821,
      "anda": 9822,
      "##kizi": 9823,
      "የፖለቲካ": 9824,
      "##engi": 9825,
      "sede": 9826,
      "hard": 9827,
      "iku": 9828,
      "uto": 9829,
      "##vano": 9830,
      "moont": 9831,
      "boko": 9832,
      "danda": 9833,
      "gebe": 9834,
      "##vier": 9835,
      "##gul": 9836,
      "##ଗଡ": 9837,
      "fore": 9838,
      "##ዶች": 9839,
      "mstaafu": 9840,
      "cb": 9841,
      "##eth": 9842,
      "kasashen": 9843,
      "mito": 9844,
      "oya": 9845,
      "##beer": 9846,
      "kutekeleza": 9847,
      "kisheria": 9848,
      "boek": 9849,
      "majibu": 9850,
      "tuu": 9851,
      "ገን": 9852,
      "gye": 9853,
      "jengo": 9854,
      "ric": 9855,
      "ukiwa": 9856,
      "kga": 9857,
      "также": 9858,
      "dest": 9859,
      "jinsia": 9860,
      "ኣይ": 9861,
      "sant": 9862,
      "##79": 9863,
      "##wet": 9864,
      "uthi": 9865,
      "cru": 9866,
      "##kwimu": 9867,
      "mv": 9868,
      "##ጥታ": 9869,
      "esti": 9870,
      "biy": 9871,
      "##saka": 9872,
      "indr": 9873,
      "##isse": 9874,
      "##fungwa": 9875,
      "бе": 9876,
      "##ball": 9877,
      "##perat": 9878,
      "##hiki": 9879,
      "ekyo": 9880,
      "وكان": 9881,
      "pee": 9882,
      "لت": 9883,
      "iba": 9884,
      "କରଛନତ": 9885,
      "##tuma": 9886,
      "##ዳር": 9887,
      "kaba": 9888,
      "rangi": 9889,
      "kuomba": 9890,
      "tabora": 9891,
      "##kuwepo": 9892,
[...]
