[PAD]
[UNK]
[CLS]
[SEP]
[MASK]
!
"
#
$
%
&
'
(
)
*
+
,
-
.
/
0
1
2
3
4
5
6
7
8
9
:
;
<
=
>
?
@
[
\
]
^
_
`
a
b
c
d
e
f
g
h
i
j
k
l
m
n
o
p
q
r
s
t
u
v
w
x
y
z
{
|
}
~
¡
£
¤
§
¨
©
ª
«
¬
®
°
±
²
³
´
¶
·
º
»
½
¿
×
ß
æ
ð
÷
ø
þ
đ
ħ
ı
ł
ŉ
ŋ
œ
ŧ
ſ
ƃ
ƌ
ƒ
ƙ
ƴ
ƹ
ǀ
ǁ
ǂ
ǃ
ǝ
ȿ
ɀ
ɉ
ɐ
ɑ
ɓ
ɔ
ɖ
ɗ
ə
ɛ
ɠ
ɡ
ɢ
ɣ
ɥ
ɦ
ɨ
ɩ
ɪ
ɲ
ɴ
ɵ
ʀ
ʉ
ʊ
ʋ
ʌ
ʏ
ʒ
ʔ
ʙ
ʜ
ʟ
ʷ
ʹ
ʻ
ʼ
ʿ
ˀ
ˆ
ˈ
ː
˖
˗
˚
α
β
γ
δ
ε
η
θ
ι
κ
λ
μ
ν
ο
π
ρ
ς
σ
τ
υ
φ
χ
ω
ϣ
ϥ
ϧ
ϩ
ϫ
ϯ
а
б
в
г
д
е
ж
з
и
к
л
м
н
о
п
р
с
т
у
ф
х
ц
ч
ш
щ
ъ
ы
ь
э
ю
я
ђ
є
ѕ
і
ғ
ա
ե
ն
א
ב
ה
ו
י
ל
מ
נ
ע
ר
ש
ת
،
؛
؞
؟
ء
ا
ب
ة
ت
ث
ج
ح
خ
د
ذ
ر
ز
س
ش
ص
ض
ط
ظ
ع
غ
ـ
ف
ق
ك
ل
م
ن
ه
و
ى
ي
٠
١
٢
٣
٤
٥
٪
ٱ
ٻ
پ
چ
ڒ
ڤ
ک
گ
ں
ھ
ہ
ی
ے
ݣ
क
ग
ज
त
द
न
प
ब
म
य
र
ल
व
स
ह
ा
ि
ी
ो
।
ং
ব
র
ল
া
ে
ଂ
ଃ
ଅ
ଆ
ଇ
ଈ
ଉ
ଊ
ଋ
ଏ
ଐ
ଓ
ଔ
କ
ଖ
ଗ
ଘ
ଙ
ଚ
ଛ
ଜ
ଝ
ଞ
ଟ
ଠ
ଡ
ଢ
ଣ
ତ
ଥ
ଦ
ଧ
ନ
ପ
ଫ
ବ
ଭ
ମ
ଯ
ର
ଲ
ଳ
ଵ
ଶ
ଷ
ସ
ହ
ା
ୀ
େ
ୗ
ୟ
୦
୧
୨
୩
୪
୫
୬
୭
୮
୯
ୱ
த
ம
ா
ி
ನ
ก
ข
ท
น
ม
ย
ร
อ
า
เ
โ
ไ
๐
မ
ာ
ა
ი
ᄀ
ᄉ
ᄋ
ᄒ
ᅡ
ᅥ
ᅩ
ᅮ
ᅳ
ᅵ
ᆨ
ᆫ
ᆯ
ᆼ
ሀ
ሁ
ሂ
ሃ
ሄ
ህ
ሆ
ሇ
ለ
ሉ
ሊ
ላ
ሌ
ል
ሎ
ሏ
ሐ
ሑ
ሒ
ሓ
ሔ
ሕ
ሖ
መ
ሙ
ሚ
ማ
ሜ
ም
ሞ
ሟ
ሠ
ሡ
ሢ
ሣ
ሤ
ሥ
ሦ
ረ
ሩ
ሪ
ራ
ሬ
ር
ሮ
ሯ
ሰ
ሱ
ሲ
ሳ
ሴ
ስ
ሶ
ሷ
ሸ
ሹ
ሺ
ሻ
ሼ
ሽ
ሾ
ሿ
ቀ
ቁ
ቂ
ቃ
ቄ
ቅ
ቆ
ቈ
ቊ
ቋ
ቍ
ቐ
ቑ
ቒ
ቓ
ቕ
ቖ
ቘ
ቛ
ቝ
በ
ቡ
ቢ
ባ
ቤ
ብ
ቦ
ቧ
ቨ
ቪ
ቫ
ቬ
ቭ
ቮ
ተ
ቱ
ቲ
ታ
ቴ
ት
ቶ
ቷ
ቸ
ቹ
ቺ
ቻ
ቼ
ች
ቾ
ቿ
ኀ
ኃ
ኄ
ኅ
ኋ
ነ
ኑ
ኒ
ና
ኔ
ን
ኖ
ኗ
ኘ
ኙ
ኚ
ኛ
ኜ
ኝ
ኞ
ኟ
አ
ኡ
ኢ
ኣ
ኤ
እ
ኦ
ኧ
ከ
ኩ
ኪ
ካ
ኬ
ክ
ኮ
ኰ
ኲ
ኳ
ኵ
ኸ
ኹ
ኺ
ኻ
ኼ
ኽ
ኾ
ዀ
ዃ
ዄ
ዅ
ወ
ዉ
ዊ
ዋ
ዌ
ው
ዎ
ዐ
ዑ
ዒ
ዓ
ዔ
ዕ
ዖ
ዘ
ዙ
ዚ
ዛ
ዜ
ዝ
ዞ
ዟ
ዠ
ዡ
ዢ
ዣ
ዤ
ዥ
ዦ
የ
ዩ
ዪ
ያ
ዬ
ይ
ዮ
ደ
ዱ
ዲ
ዳ
ዴ
ድ
ዶ
ዷ
ዺ
ዻ
ዼ
ዽ
ዾ
ጀ
ጁ
ጂ
ጃ
ጄ
ጅ
ጆ
ጇ
ገ
ጉ
ጊ
ጋ
ጌ
ግ
ጎ
ጐ
ጒ
ጓ
ጕ
ጘ
ጛ
ጝ
ጠ
ጡ
ጢ
ጣ
ጤ
ጥ
ጦ
ጧ
ጨ
ጩ
ጪ
ጫ
ጬ
ጭ
ጮ
ጰ
ጲ
ጳ
ጴ
ጵ
ጶ
ጸ
ጹ
ጺ
ጻ
ጼ
ጽ
ጾ
ጿ
ፀ
ፁ
ፂ
ፃ
ፄ
ፅ
ፆ
ፈ
ፉ
ፊ
ፋ
ፌ
ፍ
ፎ
ፏ
ፐ
ፑ
ፒ
ፓ
ፔ
ፕ
ፖ
፡
።
፣
፤
፥
፦
፧
፩
፪
፫
፬
፭
፮
፯
፰
፱
፲
፳
፴
፵
፶
፻
ᴀ
ᴄ
ᴅ
ᴇ
ᴋ
ᴍ
ᴏ
ᴘ
ᴛ
ᴜ
ᴠ
ᴡ
ᵻ
ᵽ
‐
‑
–
—
―
‘
’
‚
“
”
„
‟
†
•
․
…
′
″
‹
›
⁄
€
⃣
№
™
ↄ
←
↑
→
⇒
−
≡
─
│
├
■
□
▪
▷
▸
►
▼
◄
●
◼
★
☆
☺
♀
♂
♥
♦
♪
⚽
✅
✊
✌
✔
✨
❤
ⲁ
ⲃ
ⲅ
ⲇ
ⲉ
ⲏ
ⲑ
ⲓ
ⲕ
ⲗ
ⲙ
ⲛ
ⲟ
ⲡ
ⲣ
ⲥ
ⲧ
ⲩ
ⲫ
ⲭ
ⲱ
ⴰ
ⴶ
ⴹ
ⴼ
ⴾ
ⵀ
ⵂ
ⵆ
ⵍ
ⵎ
ⵏ
ⵓ
ⵔ
ⵗ
ⵙ
ⵛ
ⵜ
ⵢ
ⵤ
⵰
、
い
か
た
て
の
ま
ん
ー
中
文
日
本
語
ꔀ
ꔇ
ꔒ
ꔝ
ꔤ
ꔧ
ꔳ
ꔻ
ꕃ
ꕉ
ꕊ
ꕌ
ꕎ
ꕒ
ꕓ
ꕘ
ꕚ
ꕞ
ꕡ
ꕢ
ꕧ
ꕩ
ꕪ
ꕮ
ꕯ
ꕴ
ꖃ
ꖏ
ꖴ
ꖷ
ꖸ
ꖺ
ꗃ
ꗉ
ꗏ
ꗓ
ꗞ
ꗡ
ꗢ
ꗪ
ꗱ
ꗷ
ꘂ
ꘃ
ꘋ
ꜱ
꞊
ꞌ
ꭹ
ꮃ
ꮳ
﴾
﴿
ﷺ
！
：
🇦
🇪
🇬
🇮
🇳
🇷
🇸
🇹
🇿
🌙
🌚
🌹
🎉
🎶
🏃
🏻
🏼
🏽
🏾
🏿
👀
👇
👉
👊
👌
👍
👏
👑
💀
💃
💔
💕
💙
💚
💛
💜
💥
💪
💯
🔥
🔴
🖤
😀
😁
😂
😃
😄
😅
😆
😉
😊
😋
😌
😍
😎
😏
😒
😔
😘
😜
😢
😩
😫
😭
😳
😹
🙂
🙄
🙆
🙈
🙌
🙏
🚮
🚶
🤍
🤔
🤗
🤞
🤣
🤦
🤭
🤲
🤷
🥰
🥺
##ଟ
##ବ
##େ
##ନ
##a
##s
##e
##k
##u
##p
##h
##m
##l
##i
##n
##b
##d
##ር
##ተ
##ራ
##ት
##ን
##t
##w
##ß
##4
##9
##5
##0
##ያ
##ዜ
##ሙ
##ል
##ቹ
##ኛ
##z
##c
##o
##j
##ل
##ج
##ا
##ي
##ة
##q
##y
##r
##g
##3
##6
##1
##ɔ
##v
##е
##в
##л
##и
##о
##x
##7
##f
##የ
##ቀ
##ኻ
##2
##س
##ه
##ଫ
##ଗ
##ା
##ୀ
##ସ
##ତ
##ର
##କ
##ଲ
##ମ
##ɛ
##8
##ቅ
##ሎ
##ስ
##ቲ
##ጰ
##ሱ
##ድ
##ና
##መ
##ካ
##ቸ
##ው
##አ
##ዳ
##ደ
##ሏ
##ɩ
##ቤ
##ፌ
##ግ
##ˈ
##ᄒ
##ᅡ
##ᆫ
##ᄀ
##ᅮ
##ᆨ
##ᄋ
##ᅥ
##မ
##ာ
##р
##у
##с
##к
##स
##क
##त
##म
##ኬ
##ታ
##ኔ
##ŋ
##ن
##ع
##ز
##ቃ
##ሾ
##ጆ
##ሰ
##و
##ت
##ዋ
##ለ
##ሁ
##ፈ
##ፃ
##ሚ
##ر
##ነ
##ፀ
##م
##ق
##т
##а
##ذ
##ሂ
##ወ
##ቱ
##୧
##୫
##୨
##ጸ
##ክ
##ፉ
##ላ
##ጠ
##ə
##−
##ይ
##ቨ
##ሩ
##ም
##ች
##ኅ
##በ
##ረ
##ከ
##ኝ
##ጡ
##ብ
##з
##н
##ф
##м
##ጋ
##ሪ
##ቕ
##ቶ
##ማ
##ب
##б
##ь
##г
##ዛ
##ቴ
##п
##ч
##я
##غ
##ك
##ሌ
##ዎ
##ቾ
##ዝ
##ɓ
##ف
##ح
##ଖ
##ହ
##ኽ
##ኩ
##እ
##ቆ
##ص
##د
##ጣ
##ኙ
##خ
##ፒ
##ʼ
##ƙ
##ଙ
##ኤ
##ኣ
##ش
##ባ
##ሐ
##ଡ
##ሯ
##ሮ
##ю
##ዉ
##ዕ
##ጻ
##ዚ
##ህ
##ኸ
##ୟ
##ଣ
##ж
##д
##ɗ
##ገ
##ሽ
##ኳ
##ጀ
##ቺ
##ɑ
##ፎ
##ଦ
##ቁ
##ш
##ዑ
##ሉ
##ዖ
##ኒ
##ፋ
##ሳ
##ط
##ы
##ፍ
##ኮ
##ዲ
##ሥ
##ض
##π
##ⲉ
##ⲧ
##ⲛ
##ⲙ
##ϣ
##ⲁ
##ⲑ
##ϧ
##ጲ
##ዴ
##ц
##ʉ
##ک
##ጢ
##ପ
##ዶ
##ዐ
##ሃ
##ጓ
##ዙ
##ଶ
##ι
##α
##β
##ν
##ε
##ሻ
##ی
##ሆ
##ɨ
##୭
##ፖ
##ዬ
##ዘ
##ኞ
##ୗ
##ሕ
##ꞌ
##ⴹ
##ⴾ
##ⵍ
##ى
##ƒ
##ↄ
##ጃ
##ጅ
##ث
##ቂ
##ዟ
##ǝ
##ሓ
##ፊ
##ሀ
##х
##ሞ
##ጽ
##ጥ
##ሜ
##ኖ
##ኹ
##ଇ
##ଥ
##ጺ
##ጎ
##ዊ
##ፂ
##த
##ம
##ி
##ŧ
##ዓ
##ଧ
##´
##ጊ
##ቻ
##ጁ
##ଠ
##ቢ
##ቡ
##ʋ
##ፐ
##ⵜ
##ⵓ
##ⵎ
##ⵤ
##ظ
##ו
##ב
##א
##ଜ
##ዼ
##ሢ
##ଏ
##ଳ
##ቫ
##ዮ
##ଞ
##ଚ
##ዃ
##ኑ
##ኢ
##ዩ
##ጄ
##ኪ
##ቐ
##э
##ሊ
##ኼ
##ሲ
##ኦ
##ଷ
##ፔ
##ጤ
##ʀ
##ː
##ʔ
##ሠ
##ጦ
##ଭ
##ଓ
##ୱ
##°
##ρ
##φ
##ο
##ω
##ሴ
##ଉ
##ଛ
##ǃ
##ƴ
##щ
##ጂ
##ጫ
##ዷ
##ቦ
##ጉ
##୯
##୮
##ዔ
##ı
##ଯ
##ሸ
##ⴼ
##×
##ɖ
##ء
##ጒ
##ђ
##ቬ
##º
##ኡ
##ϫ
##ⲱ
##ፅ
##ሶ
##ዱ
##ጨ
##ʷ
##ጮ
##ʟ
##ጐ
##ሬ
##ጩ
##न
##ी
##ɣ
##ɉ
##ኃ
##گ
##ቧ
##ⲓ
##ⲕ
##ⲅ
##อ
##ก
##เ
##ร
##ዠ
##ቄ
##ፓ
##୬
##୦
##ଅ
##ሹ
##ଘ
##ቋ
##ኺ
##چ
##ዌ
##፱
##፻
##፰
##፬
##ጭ
##ø
##ᅩ
##ᄉ
##ኟ
##ቷ
##¬
##ɲ
##ዥ
##ଂ
##ዒ
##ጌ
##ፁ
##ъ
##ቪ
##ዡ
##ǀ
##ሑ
##୪
##ሺ
##ᅵ
##ଈ
##า
##น
##ท
##ไ
##ม
##ย
##ቼ
##ጴ
##ो
##ि
##ዪ
##ⲟ
##ⲩ
##ⲥ
##ⲣ
##ጪ
##ⵂ
##ⵗ
##ⵏ
##ኚ
##ǂ
##ሼ
##η
##λ
##ሣ
##ଆ
##ፕ
##ኘ
##て
##ᆯ
##σ
##τ
##ς
##ሟ
##ـ
##پ
##ኗ
##γ
##ቓ
##ⵔ
##ⴰ
##ꕌ
##ꕩ
##ⲇ
##ł
##є
##ሄ
##ሷ
##ा
##य
##ዞ
##ቭ
##ሒ
##ᴜ
##ʙ
##ɪ
##ᴄ
##ጹ
##ፆ
##ٻ
##٤
##٠
##র
##া
##र
##ቈ
##ଵ
##ፑ
##ʒ
##ቊ
##δ
##ⴶ
##ኋ
##ˀ
##€
##ꘋ
##ー
##ん
##ኾ
##κ
##υ
##ቝ
##ա
##ե
##ն
##ע
##ר
##י
##ת
##ह
##द
##ʊ
##ל
##ᴏ
##ᴡ
##ቿ
##ዣ
##ሇ
##୩
##ꮳ
##ꮃ
##ꭹ
##ሔ
##ǁ
##ª
##の
##ଢ
##ᴇ
##ꗞ
##ⵀ
##ɀ
##ɡ
##ኵ
##œ
##፪
##፳
##ہ
##ں
##ڤ
##і
##ɴ
##ᴛ
##ᴍ
##ᴘ
##ᴀ
##ሖ
##→
##ɵ
##ⲭ
##ⲏ
##ፏ
##θ
##か
##🏿
##☆
##ⲡ
##ⵛ
##ƌ
##ጵ
##ʜ
##ጶ
##˖
##ल
##ब
##★
##ጝ
##ð
##ᅳ
##ሦ
##ꕡ
##ⵙ
##đ
##ⵢ
##ƃ
##ጬ
##ڒ
##ᴠ
##ɢ
##፲
##፴
##ɠ
##æ
##ⵆ
##ϩ
##÷
##®
##ሡ
##ኧ
##⃣
##🇸
##─
##ዀ
##ኰ
##ቮ
##½
##ⲗ
##ዅ
##£
##ጾ
##ꔝ
##፮
##ھ
##ዦ
##ग
##ғ
##ʏ
##い
##נ
##ቖ
##ቍ
##ଝ
##ᆼ
##፭
##ጧ
##χ
##ꕮ
##ꕴ
##ꔀ
##व
##た
##ሤ
##ꗡ
##ϥ
##ዺ
##þ
##ኲ
##ᴋ
##˚
##ዢ
##⁄
##ጕ
##ა
##ი
##ʻ
##¤
##ے
##፫
##፶
##ጘ
##ቑ
##μ
##ⲫ
##ϯ
##ዄ
##ꖏ
##ꖷ
##ᵻ
##ଃ
##ኀ
##ᴅ
##ٱ
##٣
##ѕ
##ข
##ኜ
##ħ
##ש
##ה
##፯
##ዻ
##ꕊ
##ꘃ
##ꔒ
##โ
##ɥ
##ꖺ
##ꕒ
##ज
##ⲃ
##ȿ
##ব
##ং
##ল
##ா
##ƹ
##ſ
##ɐ
##˗
##ˆ
##ʹ
##ﷺ
##ʿ
##ዾ
##ጳ
##±
##ꗓ
##ᵽ
##፩
##ɦ
##ে
##ፄ
##ꗏ
##፵
##ቒ
##ꜱ
##٥
##١
##٢
##ଊ
##ቘ
##ጿ
##²
##מ
##►
##ま
##ʌ
##ꔧ
##ጼ
##ꗢ
##■
##ጛ
##प
##😭
##🙏
##ቛ
##ଔ
##ዤ
##♪
##ଋ
##™
##🏼
##♀
##🤦
##😂
##🏻
##ሿ
##ꕉ
##꞊
##ꖸ
##ꔤ
##├
##ನ
##ꕢ
##│
##ꕪ
##ꘂ
##🔥
##👌
##🏾
##¨
##๐
##ꕞ
##ዽ
##ጇ
##ŉ
##≡
##ݣ
##ꕓ
##😳
##³
##ꕎ
##🇷
##🇦
##👇
##♦
##ꔻ
##ꕃ
##ꕚ
##ꕯ
##🏽
##←
##👍
##👏
##ꔳ
##ኄ
##🇹
##♂
##□
##▸
##🇪
##▼
##◄
##ꕘ
##№
##↑
##ꗪ
##⇒
##ꗷ
##●
##😁
##♥
##ꖃ
##😀
##🇿
##ꕧ
##ଐ
##❤
##🇳
##🇬
##✔
##🤲
##ꗃ
##©
##ꖴ
##😅
##🇮
##ꗱ
##ꗉ
##👑
##⚽
##💔
##😋
##✌
##😏
##🤔
##▷
##😜
##💕
##🤣
##💪
##🥰
##🙌
##☺
##😍
##💃
##😎
##😊
##▪
##🏃
##🎉
##ꔇ
##😆
##😒
##👊
##🌹
##🙈
##😹
##😔
##😄
##💙
##✊
##🖤
##💛
##💚
##✨
##😢
##🤍
##👉
##😉
##🥺
##👀
##an
##in
##en
##ar
##wa
##li
##er
##at
##on
##am
ku
wa
##ka
##is
na
##es
##la
ya
##ha
ma
##le
##it
##ba
##un
##da
##or
##ia
##ya
##ku
##hi
##ma
##ga
##di
##as
##he
##ir
##om
##ana
##ta
##os
##ie
##te
de
##ur
##zi
in
##ki
ka
la
##we
##yo
##lo
ba
##et
##um
##de
ha
##ke
##za
##ho
##us
##ye
##ati
##ti
an
da
##ko
##im
##ing
##to
kwa
##ic
##ra
ni
##go
##ani
en
mu
##do
##al
##ara
##si
##ge
##gu
##be
am
##sa
##ji
##bu
le
se
##bo
##hu
##ari
ki
ta
##re
ال
##ama
die
sa
##ri
za
##oo
##bi
20
##el
to
ny
##se
hi
##ini
##ja
##ata
##ro
##zo
##po
re
##ul
ne
##ina
##ch
si
##fa
no
##na
mo
##tu
##em
##ed
di
is
##il
##pa
##ent
##yi
on
##du
##va
mi
al
kati
##wan
so
##fu
201
the
be
##gi
do
##wen
##ita
com
##ter
##sh
su
##mu
ko
##ca
un
hu
##ano
es
te
vi
ga
wat
##are
ali
##lu
go
##id
ye
##and
ra
##ona
##pe
##ue
##wo
##ere
li
katika
##ira
##isa
##ang
##iri
as
me
##anga
pa
##ci
##wi
bi
##ut
po
of
ke
ge
##ce
con
##so
##me
cha
ho
##amu
we
bo
tu
19
##mo
ch
kuwa
##ad
ti
##ze
lo
fa
##ine
em
af
##ru
oo
##pi
##oni
##chi
##ve
##isha
van
##ua
##ene
##ami
ar
kan
##fan
##ts
##ers
##era
##eri
um
##isi
##vi
##fi
wan
ak
us
yo
th
mat
##mi
at
##ol
ab
bu
10
##iti
and
sh
##je
om
##asa
pro
##eng
mar
##kuwa
##asi
wo
##anz
wana
ng
##uu
##ende
##ung
##eni
amba
##co
ay
##xa
##ne
##ena
mwa
##wenye
##una
ndi
ili
እን
##kwa
yi
jo
man
ca
##uri
##th
##ame
##one
pos
##ber
que
ja
##ane
ad
im
pe
##anda
va
he
##ore
##ongo
##vu
##ong
##uni
au
wi
het
nga
##che
ap
##ania
##ungu
je
##ال
ji
##cha
ver
ci
pr
##ate
##ist
nie
##lia
gu
kuto
ts
op
mas
uku
ah
for
##ato
##der
by
wali
##ni
##ada
##bari
mku
##ant
##lis
ana
##ome
lu
##mba
##log
##vo
##ente
##ст
el
des
ek
du
##ରେ
shi
st
##ura
##wu
##yaa
ee
12
mic
##ment
11
ina
##ish
kama
##amo
##ito
wak
##anzania
##ese
##uru
was
##ran
fi
##oro
##han
mp
nd
par
fe
##ен
##itu
18
##yu
nu
kam
zi
##ora
una
iyo
##ية
aki
##vyo
aan
##kan
15
##yan
##ek
##ingi
##fun
co
##bwa
ri
mba
##ان
##ation
##ele
##ɛn
habari
##ver
##ቸው
et
kwenye
sha
waxa
##atu
##end
##wana
##ly
##ord
##pu
##ାର
##hova
aba
##fanya
##ind
##ban
dit
የሚ
##ono
##esu
13
##kana
##amba
##ting
##но
kup
##ite
14
soo
##est
##ifa
kun
##qu
kum
vo
sy
met
tanzania
##umi
في
mus
##ond
##ens
ro
##ino
ur
##idi
vir
##ɔn
del
##ambo
ex
##st
##ishi
##gh
ama
16
hiyo
il
kut
##no
##ham
qu
sit
17
##ire
mun
##kali
##cia
oku
##hus
##enda
por
it
vya
##ak
ju
200
kus
##bar
or
الم
##ala
##esi
##esa
aka
##ୋ
##ose
##ali
##etu
##ime
##imu
jy
##ica
##ро
dan
##cho
fo
miche
##ume
mb
##esha
mwan
mak
##cao
kazi
##rika
ag
##inga
dha
##lan
ons
ru
gi
##res
pi
##dda
michezo
##ɛɛ
##ра
##jo
##sema
##ات
##ry
##ise
ነው
##amb
wen
yake
qa
os
she
yan
##kiwa
##fe
##any
##eti
##umu
##ct
من
##ori
##day
##ris
uu
dar
##zu
##ary
##lik
min
baada
ber
kas
##aro
##man
##osi
##ዎች
ame
##dhi
##endele
ban
##ነት
##wer
##ين
er
##enzi
##ok
##ju
sitting
##kin
watu
##sha
chi
ayaa
sal
per
seri
##ار
##por
##00
##iro
##tem
para
##bili
##fo
##su
##usa
##kh
##ام
##ко
##indi
##kwe
mkuu
wakati
##ck
##amii
kab
amin
##ɔɔ
rais
##ys
les
ac
##dan
bar
zaidi
##ll
ngo
ut
hii
ol
##ер
men
##tion
uma
21
25
##ph
##les
blog
wake
የተ
##onge
che
ms
sana
##ont
dia
##liwa
serikali
##kini
kutoka
##laa
по
har
ce
##pan
##osa
24
mwaka
##omo
##ulu
##zwa
wu
kw
##hili
leo
comment
yesu
##icha
tam
shu
user
##ан
##ero
##то
ve
mt
##ли
##ାନ
##san
kom
22
kɛ
##kun
##lin
##ure
mw
ter
maga
sta
siku
##eshi
##hay
##ambu
##anu
##bele
this
nɛ
##ବା
##ich
##weza
##isho
30
እና
##ase
##cion
hul
##ль
##jini
waa
new
##eno
jamii
##endo
##iso
##arifa
uli
##per
ema
kim
mara
##umba
23
##unge
እንደ
##ble
##umbe
00
##ଙକ
nch
kar
kuti
##ны
##ust
##lay
zo
##го
waz
الا
##ith
2018
mko
lɛ
uta
afrika
##ess
##gan
##yin
##chu
##eria
##tan
##har
##usi
##ии
ou
my
kwamba
##omba
pu
##haa
iz
bara
home
eli
ላይ
##yn
##ها
sim
##ff
poli
eng
nchini
##iny
sasa
pre
##lka
##ony
lakini
nya
##sili
ir
##unga
##kia
##ento
ime
ok
ser
sep
##ard
##wit
mada
##kum
ob
nchi
ପର
mon
uj
на
tsa
post
mis
alisema
##las
est
face
dhi
feb
san
kuma
##ାଇ
tra
word
hy
##qa
##int
ita
mwenye
##shi
mag
##book
##kala
pamo
ara
dis
##que
inter
##ted
##cu
sala
dat
maa
##land
##dos
##xi
##lela
##ет
kwe
zan
##kio
aw
nan
##ik
map
ele
como
##bia
##ير
hapa
kwan
mbali
loo
mia
facebook
##ውን
##ondo
pia
କର
##kea
##ችን
nt
28
##imi
huo
hai
##aru
ao
email
waziri
saba
ata
kila
##husu
up
nj
uk
moja
##ras
##dio
##dh
##wahili
kuli
esta
##ри
pamoja
##zaji
##enga
war
isa
##und
aa
26
url
tan
##ре
han
hat
der
eb
##yar
hivyo
vol
comments
27
##kut
##imo
gr
yu
##die
##lish
dec
##inda
hata
##ici
nov
nam
##ول
##jili
bat
##од
##eto
##tel
2017
##ов
los
are
ken
wil
##ico
wata
##ନତ
fr
##ember
##ongozi
oor
##umia
##andi
cont
jul
uit
tem
kuu
##ks
cu
##taa
bes
##dade
##ombe
አን
##lɛ
res
baa
##ple
xa
##kii
##ambi
ub
tse
ngu
##oria
jou
omu
ib
kon
hilo
share
##ingine
daar
hulle
##ትዮ
vide
وال
may
maha
##witter
wɔ
##ges
##anchi
##engo
ai
naa
##hat
mit
picha
##laya
##kha
##ла
29
cc
##pp
twitter
hier
##liza
fed
በመ
##enge
##hiri
mai
##moja
##በት
##ون
##share
##nan
ent
##lwa
##ለው
##pita
yɛ
##ري
fu
huu
ان
##indu
mk
##anza
##tic
##ishwa
##ty
hali
##ጵያ
##ገር
zu
sp
##kulu
##rit
##ትዮጵያ
bia
taifa
##را
##ten
salaam
##yay
عل
mad
##на
yehova
##dii
wer
bas
waki
ala
juu
##kho
##shara
##yika
ndo
reg
##das
##ando
kuna
##war
son
##enye
jun
car
ago
##kt
##zung
##enta
ed
iliyo
##oso
sooma
##ig
##ие
kuhusu
kuj
jam
##kuu
##inta
##eg
jehova
nde
##endelea
nk
walio
##yɛ
nin
kita
##ab
wame
##ስት
##kati
nda
##pata
##kam
yako
mungu
mash
maj
الت
sun
##lem
##anka
##dha
mtu
##kazi
las
mwana
መን
##ск
tr
##uro
soomaali
##khu
av
##urs
##በር
##usu
##maa
kili
##kis
##اد
pas
ges
ps
kis
##zungum
bɛ
##ombo
##umb
oc
##dili
awa
##kani
##kua
الع
##ле
mɛ
gen
##ия
##imbo
የመ
##lla
##pos
##adhi
31
2016
እንዲ
አስ
abo
##dad
vy
##umo
yana
##uti
የአ
##kar
##zibar
##use
had
tun
ambayo
sam
tuna
##onga
##iasa
nje
mare
ben
##ataifa
##ken
sub
wananchi
nge
##ud
mambo
fran
ndani
##ዚህ
zanzibar
zili
##mente
##ces
##ва
az
zina
##ло
dos
das
has
aug
that
##bati
video
##ls
##for
##oto
mil
with
##ит
iya
soma
isi
##ld
##lisha
fun
bin
mos
##ዋል
febru
cor
##zuri
##ما
fil
chama
##bre
ati
##eme
##gwa
##mas
##gen
mbe
##ega
hawa
##20
ccm
##gun
id
##gr
##bli
miaka
matu
pl
kuji
mid
lin
##ሆን
##engine
mili
kit
mf
##taka
yali
kufanya
በአ
##rou
##ቶች
##ons
kɔ
##kuba
ik
waxaa
news
##omi
##fic
199
hayo
##usha
dr
pres
kale
2015
##sy
far
maar
##ker
era
won
##ling
##اي
mwe
##kat
##kama
##wala
dh
umu
ile
##anii
pin
##yansi
##faa
##ets
##ست
##wili
##ଲା
ze
iza
##onda
ire
##asha
##ores
##hn
##futa
mkoa
##ins
##bas
mut
posts
foi
##doo
ко
##zima
saa
xi
nɔ
2013
yao
english
mal
don
kwanza
##van
##ور
2019
ug
##guzi
በተ
ambao
##kele
##ity
ene
lagu
##ни
br
net
daga
##ef
##amente
kana
##tra
huyo
nel
##mbali
uwe
ig
khu
##во
kwen
2012
deur
haki
wao
eg
##ለም
aban
ind
##wam
und
##eld
##ben
dow
ndu
sayansi
##ars
kitu
mbalimbali
##ood
kp
maji
##let
ugu
##ango
##fer
##ско
den
##aria
##اب
nao
biashara
##ela
##esema
##kom
##amp
##ся
##ми
على
##hen
mpya
yaa
##hana
janu
kala
mh
naf
mg
kuba
sho
##kul
##wani
##gin
ot
mor
##ስጥ
##ida
##baa
##itia
ten
አይ
muda
wax
2014
stadi
##gra
##hemu
##ለት
kub
##loo
##ria
mais
ግን
ወደ
uni
kaa
##ps
taarifa
maal
mɔ
##hwa
kari
##lele
##hla
ajili
ras
nn
hisa
##edia
##angu
mawa
jijini
sɛ
mul
##cin
##ric
maarifa
##ven
bon
##jana
isra
##fin
##ትን
inc
##sen
maisha
madax
baba
##phe
##ка
hal
##ante
##zeti
kubwa
ani
ii
##lee
aliye
##tay
voor
gaan
##husi
##itra
hierdie
##heid
tar
you
##ଲେ
##hari
ለመ
##unt
apri
sababu
##يا
bila
gb
##fani
##yna
god
##kaa
ale
kui
hao
kamp
##hiriki
##imba
tsy
##encia
ume
akiwa
##like
watoto
##ings
##та
##fanyika
koo
ook
wote
mmoja
wasi
ucha
##inu
##tes
##thi
##her
##ger
waar
haiba
ila
##ደር
##lɔ
##kiti
wenye
mbo
hom
sen
gore
##duma
##ction
nou
kia
pinter
wam
##lewa
pinterest
##nu
yetu
iki
hisabati
##hin
fin
##ats
fre
usa
##lam
fedha
asi
din
##its
##zing
uch
kin
wada
aku
ውስጥ
ireo
col
ins
huku
out
ari
##wanda
##lim
##ves
##vel
hivi
can
##لا
##wanja
##tho
##ros
all
##dani
vers
##kon
sua
##atti
matukio
mam
elimu
aha
##ሆኑ
##ደረ
bɔ
kip
bwa
##thu
ይህ
hadi
##laka
sin
##kuru
##ያን
ambaye
duni
afya
mama
chu
##too
comp
cas
##sion
ኣብ
jum
##да
hor
ea
##pha
##uli
tena
##ንድ
polisi
##jwa
sek
##val
##kari
buru
daa
wilaya
##icho
mche
muhi
##yd
##cri
bw
40
##the
##omb
##omu
cho
ለማ
##kisha
##bara
maka
dad
##gar
kat
##blog
her
##ти
##con
abu
huduma
##dig
deg
fan
##ля
##hl
his
##waa
ስለ
entre
32
##ሆነ
kul
taa
maba
kimataifa
nyi
##min
jir
dur
##يد
##kiswahili
wiki
posted
waka
##ibu
الح
##uma
##ght
07
hist
kwi
##anta
##kel
##atra
kusa
##يل
from
qo
nz
50
mm
не
##yen
##ቸውን
##50
##ራት
fur
##نا
haya
jumbe
viongozi
timu
maana
nafasi
mwen
bet
ham
ра
##وا
##eso
##den
gar
amesema
##endeleo
kh
እየ
ste
##mb
baadhi
toe
##ista
##kula
kya
une
##gua
hizo
rep
##ashi
gra
sheria
more
hak
usi
kor
##ሪያ
##ongeza
mata
nas
##gwe
tran
kupata
##oog
##30
wor
mali
cent
##paka
##piga
##tal
##dia
##tember
##kw
comm
john
##port
ima
tare
soomaaliya
##bat
##idia
##this
##hita
wengi
##በረ
og
february
со
##zia
##bc
##yey
##vol
nti
dun
##10
sur
ambapo
kutokana
##emba
kal
الس
ori
ada
simba
الى
nini
لل
##ther
kutoa
magu
jana
##gha
##anya
bay
tsh
##weka
##bal
jan
##zungumza
exp
##ንም
##ton
wanao
33
vit
mala
##ስተ
wannan
wetu
##unda
##vers
##enti
##ariki
nor
gal
basi
##ታት
pet
tal
sheega
##ୟା
##line
##ors
الق
##zara
##rug
##ତର
##ем
kris
##yaan
##kie
2011
##lie
##umbu
##howa
##haki
34
twittershare
thisblog
thisblogthis
kuk
indi
alla
aj
kpa
01
##koo
waku
mwenyekiti
max
sat
በማ
aad
##ee
sao
produ
app
maendeleo
hapo
##weni
##bel
##iria
ndio
про
lili
##ርት
moet
##br
##oot
ulio
ky
chini
ସେ
##fika
2010
yin
##bon
dal
198
الب
##fuli
##enu
##hara
dom
##vid
tl
yanga
##ру
за
##kɛ
mimi
##ላይ
mes
##ny
ano
02
kupitia
uh
baie
##indo
shule
via
##لك
zao
dalka
##zione
bei
##tano
kua
##ario
##saa
siasa
03
nom
##عد
##ኢትዮጵያ
##insi
##bit
##funzi
tla
##inge
##lar
##ili
hili
##phi
ing
obu
##cial
tɔ
የሚያ
##dogo
uchaguzi
cam
maak
august
uf
##undi
hoe
##ult
mme
##amani
wengine
tanga
zilizo
prin
##60
kara
##dala
bal
kha
##pas
##وم
##ux
##dy
lat
mjini
##lima
hatua
bak
naye
waj
kuku
##ବେ
##ement
##wee
awon
##atia
##че
kina
prof
aga
mto
bur
nye
mana
##ረት
##tober
hore
september
##coes
ጋር
dhe
##pele
35
not
sɔ
tur
##wali
magufuli
##mbi
ary
mkutano
nili
##anyi
abantu
##amini
##raa
wala
##low
##رب
##unu
suka
##ans
zote
val
lwa
ase
vu
bus
fami
cal
##wn
hos
06
yer
kuta
wag
shir
##alada
stu
ass
ont
nat
ein
##jia
##pul
aut
የማ
##yada
##biri
vie
kur
if
##ାମ
##zin
መንግ
##esho
##dat
##wɔ
ger
год
##ice
january
##dem
trans
##umbani
kweli
##alka
vijana
##ory
##keo
pm
april
##cc
197
при
spe
asa
xu
july
##tig
mch
##dde
aye
ସମ
hin
##los
kumu
taas
dowla
##هم
maoni
об
kabla
##40
##يم
##undu
wizara
##kee
##ተኛ
simu
##cas
sehemu
december
one
##kile
boo
от
ከተ
tim
##kɔ
alikuwa
burudani
pili
##soek
wako
во
##pit
ጊዜ
##induzi
bongo
بال
kad
##huri
lit
##koa
dans
ebi
november
volg
ate
mato
kula
const
march
##ств
##mer
##pr
##ws
الج
##eli
##dwa
##ited
አለ
##ርስ
##ence
##ug
bora
tume
##ପର
##ାହ
##ell
ኢትዮጵያ
rec
##еи
yangu
tot
magazeti
##jua
lina
##atizo
из
laa
##ак
kenya
##hle
##aman
##uka
kitaifa
uz
##କଷ
mkoani
hicho
facebookshare
non
##mal
embas
bya
live
##won
##ft
##ereza
mbi
june
embassy
##ky
wasa
##iste
##esus
nyingine
##ምን
##zee
laga
sida
any
ଦେ
web
pour
08
pla
njia
jira
gud
ihe
ofisi
100
##ungano
msa
mense
##miwa
##pon
##lon
##hala
##dai
ଏହ
##iel
##hitaji
lim
##angi
##ande
nne
dɔ
09
eneo
dunia
tor
uki
madaxwe
##ghu
mbu
##ин
##vie
october
nyumba
inay
dem
sheegay
##hama
##khe
esi
yoo
##лен
##по
dir
bina
della
kə
አንድ
##ambe
##ድር
##asema
05
##ated
##ingia
zake
##kao
##ange
##amaa
tɛ
ወይ
ang
wani
cikin
jambo
##yote
##araka
soos
ful
##rica
nke
##uso
እስ
##xo
##eny
مع
##del
##kry
##aran
##ziki
36
wangu
wees
badan
but
radio
##lika
##pt
##ii
num
kata
##hoto
ton
ul
pers
ነበር
##yaka
fir
ciid
bel
##by
noo
ubu
oyo
##art
##vin
37
##kela
##ŋa
cab
##din
##antes
##ial
twa
##kap
set
##hr
##une
##qo
##ste
##jibu
mur
##ulo
akka
##cio
##11
kampuni
ezi
##hoo
mta
gran
dhidi
onder
04
##entes
kufu
shuga
asili
##hy
cre
sem
##lea
##win
maja
##wɛ
dist
##rɛ
##କା
inayo
glo
##kor
##doma
sc
##athi
fut
muungano
##wake
##bab
ikiwa
katibu
jesu
bul
kwani
##vy
sec
##pre
mbili
media
nyumbani
##ንግ
kuf
##son
##gn
##ନଦ
gobo
##iele
бы
##bwe
bunge
mchezo
maku
rus
##عة
##их
##if
about
##ድረ
anga
wewe
bana
##ዲስ
الف
##dzi
##ନା
##ራዊ
michu
##ود
##ገባ
atu
##iru
online
##ላል
##କର
##eshimiwa
##رة
kush
##esh
ete
ରା
##cal
fer
marekani
ef
nyo
nna
ujumbe
##rugenzi
ጉዳ
wal
hakuna
አል
##ель
kasar
##bem
##ዝብ
uka
##fs
##kata
##untu
عن
magaalada
princi
##ୋଇ
الش
gre
een
##shauri
dai
som
##led
##ey
kule
seu
##ungo
ହେ
45
##eru
aya
##cribe
##ath
##toa
mtoto
##buni
2009
olu
conta
kwenda
##lizi
##enya
ପାଇ
tatu
##gal
##onjwa
bado
yote
##tii
lis
##pia
እንዳ
jose
soc
yeye
##kwete
qab
ngi
mkurugenzi
##etse
##yari
##cer
rom
cer
mtanda
ባለ
alipo
##им
bir
tso
hay
mpaka
kura
qui
dodoma
weer
##ika
##med
##ations
whi
##lala
tin
mbunge
በሚ
##lii
subs
waxay
atom
38
##ational
##arka
##ɛm
pri
##ат
وا
##pande
fara
intern
##eneo
izay
##وس
##dee
##aka
ያለ
von
vitu
##dema
part
##limu
##penda
39
geb
dkt
tv
##goro
ahu
moo
##حد
##mada
##ann
##bɛ
##andishi
bai
wale
ቤት
fol
meer
41
makala
ነገር
bee
gə
##ных
до
mwisho
sii
cewa
الن
##nes
aansoek
ɖe
##kolo
##нои
##daa
sul
jina
tə
maeneo
እንደሚ
##laha
list
##ሪካ
ukuba
##yeen
##ሰብ
muhimu
bre
lee
let
##irka
aja
##hamu
wanafunzi
historia
##kal
wanawake
uga
##ance
ly
##zazi
الد
kutumia
yaliyo
jesus
omo
ହୋଇ
##pal
##jin
##dag
bali
vita
oh
uwa
int
##ଛନତ
##ataka
##ingwa
matokeo
read
doen
##ias
mab
tele
jer
##ሁን
##cy
196
what
bona
##jiri
uwanja
##gaa
lie
tus
chadema
##ray
tshi
mer
hel
dire
yam
##lom
older
kamati
##tar
publi
##tre
##isu
ander
##ረጃ
##chen
fɔ
##fiki
masu
mn
##ova
kikwete
mheshimiwa
chat
##angaza
mbele
##сти
##yya
kug
##قد
milioni
##yana
somali
##ms
bib
laba
የም
sel
الك
mpe
subscribe
jinsi
##ቱን
##kumbu
##des
mafun
##gem
##damu
hum
##kubali
##zani
##uk
##car
##gs
vile
##ሮች
##rɔ
tamin
nyingi
##weze
##keza
jamhuri
##اء
wafanya
mhe
mwanzo
nos
##baka
##aa
tom
ake
rasmi
##hir
blo
kutu
gha
euro
tarehe
##yoo
cons
dk
##siliano
tir
##zini
##ron
yehowa
##ateg
saf
##ሎች
zinazo
tas
##mia
muri
ns
lya
ምክ
##بر
kabisa
##bha
##де
ave
##fauti
መል
ligi
##yaha
popul
mani
##king
##сс
kla
##lio
oro
haar
newer
##gɔ
land
gani
eni
##naa
##vent
42
##alama
bil
##ናል
aina
fit
##لي
##መን
##ግባ
##ାରେ
##onyesha
akizungumza
##iya
door
##ви
ሁሉ
##chukua
##pati
bwana
##اف
ses
##maan
eka
mkubwa
wɛ
yenye
xil
eri
umoja
united
##taan
izany
sara
##kola
vha
nw
##gba
imi
kik
end
kij
##indwa
##ər
##amin
bot
##kuti
##hlo
##ithi
gas
mwezi
duniani
tre
##hani
##ysa
lan
ukuthi
kir
bab
##ብር
##atibu
gba
##gram
##iche
##ትና
##maha
ዓመ
saam
##رك
##gga
##ombea
##gue
here
siya
nguvu
prime
##cel
كان
##udi
jaar
mari
##ста
ez
##bɔ
moto
##kara
##ገል
emi
##par
##itwa
gwa
arusha
were
##fadhi
##erio
munici
##tos
##ywa
##ungua
naibu
##hela
swi
##este
##bora
kuka
##сто
wux
##dor
##shindi
oko
africa
ujenzi
ura
kai
##ንያ
##ingo
oma
wur
nime
##embe
pelo
kawa
kadi
wereld
##wezi
##ied
parte
##endaji
kipindi
##cional
##ques
gwam
##bay
44
ant
pat
##اس
##hidi
gaa
cy
otu
wap
##zwe
##goo
gbe
##kus
pra
nə
gro
##cis
swa
kute
jeshi
have
music
##ча
##khulu
ከም
##vun
##21
##can
##70
##ep
bam
mawasiliano
##pio
##hii
sisi
##eral
##mɔ
##els
##ରୀ
##jie
##arch
tambem
sio
##zama
##ost
##lig
##amento
ndugu
pan
##lha
##hia
##ମାନ
##yne
##kwen
nasi
##him
mot
nee
##gana
##ры
super
##бо
tayari
gee
wab
sai
marka
vin
##መለ
##disho
##ве
same
ris
##amada
##liki
##bur
gover
##angwa
parti
##сь
ምን
##bin
like
huko
##fikia
umma
##ного
##lek
##ition
come
194
##ɓe
watanzania
tek
##pika
وت
##wara
##мен
##onde
ɖo
plus
##pote
##يس
##lamu
##xt
##radi
muu
anyi
##zana
##daha
volgende
የእ
##vuti
##umbi
##kiri
bwe
##fia
##ላት
eo
mwanam
tyd
wakiwa
juma
##lozi
msingi
tro
get
##mar
ker
moro
##funga
taasisi
መስ
use
pela
##anao
ደግ
dhu
jehovah
ua
kpo
እያ
##ters
hoo
##kas
nina
##lelo
##lwe
##kur
karibu
##ungi
##ки
##19
mahakama
amu
modi
##ən
عام
dira
hizi
anti
##ress
##lai
bbc
##get
##dades
በእ
fam
bantu
pen
الل
inf
gan
ayo
##bka
43
masha
##emb
rea
пер
##onekana
vifaa
##lisa
##ଥବା
yen
israel
goo
60
nog
##ast
##pl
anos
##kira
##teri
##ates
##ତା
##ambia
##ዳን
##xe
##بي
kandi
то
abe
##ар
baraza
ade
uko
##wanga
tho
tofauti
##jiji
##ash
##arin
##cos
nyɛ
gh
କେ
##قة
ini
##uno
bala
##iao
##hiin
##osha
edi
hasa
kuanz
2008
bor
apr
##dza
##tha
uchumi
pages
vyombo
##eriya
mei
sie
rel
werk
halma
##pewa
пре
##ለን
##عل
tuli
መብ
uti
nii
wad
game
ahaa
mbeya
አባ
alle
mati
##amad
##aso
##mad
ps0
##ille
familia
naj
##ላቸው
mita
##ced
##ghi
ambazo
okwa
dham
aza
##belea
hospita
ደግሞ
cin
halmashauri
##ribu
kali
mie
##tica
##elle
imp
comple
chang
eki
او
አካ
chuo
هذ
izy
የነ
##yon
ndipo
##elu
##wango
wazi
esc
##kp
##rist
##gg
##pho
##umishi
##ବର
##iet
##atan
huyu
ida
ድር
##tim
ре
##uta
band
##ongwe
tum
##ler
вы
##bet
мо
other
sig
vizuri
ሰው
amer
bang
##24
pale
kry
vis
kud
##ungwa
ako
mma
its
who
kituo
tɩ
ayi
##يت
bro
jed
##wal
sus
ŋa
km
nuwe
##was
ሳይ
##kutana
##ፈል
##ort
domin
adi
tahay
ndiyo
which
አስተ
##مل
kuja
demo
baka
##କାର
mpi
michuzi
kristo
sama
gbo
##ታል
##rik
uwezo
inst
medi
##amua
kid
dadka
##cheza
##ଧୟ
nit
shugaban
upande
##ቅር
го
##ଙଗ
waxaana
nim
dib
musa
mechi
ran
##gera
##ገድ
guu
##ner
##ous
kasi
kuch
sir
mke
##ные
የኢትዮጵያ
kaka
said
tok
win
##ାସ
dɛ
##via
##esia
##ረው
##itaka
kuru
ski
##imento
##nin
dim
aho
gari
bye
##hisi
zin
48
cli
##zingira
bid
##gee
##kuta
espe
##wele
##qui
##ports
وم
##ag
##amuzi
ብዙ
nun
mashariki
lazima
##tsa
##soma
muq
katiba
ibi
amma
rehe
mradi
too
mpango
ute
uhuru
##ጀመ
paulo
ndege
dag
forma
kind
faa
##lema
195
iy
##lama
kodi
##ከል
usalama
##hanga
##ግር
bua
55
namna
##ምህ
aus
lake
amani
mwi
eme
yahay
##vana
##sem
allah
dee
##poti
##ения
somaliland
46
##endi
zim
jeho
consi
kusini
maele
##ую
##lad
sar
ብቻ
soka
##fica
char
##tain
##uzi
batho
kos
muna
bari
ወይም
kushoto
fal
suid
##bii
##ruik
kiasi
##umizi
shirika
##zz
##uth
mafunzo
##ାଲ
dzi
paul
lɔ
mens
mazingira
bayan
##hakikisha
##kit
##12
##kke
doona
አመ
kesi
##ናት
kundi
##ንን
##zea
##fwa
tes
80
##paa
presid
mapinduzi
mwanza
time
inclu
##lana
##atin
##ishe
##angan
##gani
لا
##ନେ
##не
##90
haa
mum
kilimo
yɔ
ska
##ባት
ic
tao
##رو
grande
##في
##gia
dei
##wemo
##ezi
nia
##lop
muqdisho
##ልጣ
##ret
ସଂ
ɣer
mud
አበ
uba
##ily
##сть
mwand
onye
##amul
masa
nama
##pokea
##pili
nɩ
##amoto
sita
ସହ
##tin
##ме
ph
groot
##سم
##kila
##husiano
##hali
##bidhi
ono
##len
qof
wadau
##ታዊ
clas
##uld
##bani
##pel
##atis
##anaa
econ
moham
##38
##vua
##ette
##elf
city
abi
##ኛው
tatizo
nka
dara
التي
kulia
##ula
##ila
dowladda
##tt
##мо
mfumo
wie
gele
##uf
##eleza
ep
wasu
eers
##enza
mtaa
gaba
##ded
##kumu
ክፍ
##ester
##rid
##በሩ
##ynaha
kwake
##gala
##andika
ሰዎች
kg
##ଣଡ
kasa
air
##14
##biti
mene
##ents
tut
wuxuu
kuzi
ela
kuri
durante
dawa
way
##amed
eye
##hio
sou
hospitali
regi
##erra
ebe
##ци
pes
usiku
asilimia
##ାଯ
##ис
##kuja
day
##ግራ
##ୋଗ
tat
waandishi
##aram
ika
##ችሁ
karibuni
plan
kle
##wane
huru
##dir
markii
##କତ
የሰ
samu
##ାଗ
##lile
##bona
wh
الخ
zai
ବର
##ɖe
##lag
pou
##سل
##ongoza
swahili
##bor
mataifa
izi
china
tha
chan
##indano
##kulun
##же
mji
47
mwanamke
sera
acc
##pula
suala
##ree
ନେ
##bali
tangu
wanda
serv
##bile
sawa
kuz
##leni
lam
yar
##tis
##kweli
##linzi
matumizi
follow
##engene
tit
##ማሪ
##ghuli
kɨ
tri
ange
бо
ከመ
alo
mira
yanayo
they
bao
alb
hana
##dul
##ታወ
##ଷଟ
##15
kusema
este
الذ
##leka
ity
##ብረ
klabu
mengi
##angazo
##ister
od
eta
##cay
waxaan
##tee
##ሉት
##ingu
kuwe
sobre
##ма
mapenzi
##iska
moyo
ps1
dini
##geme
hada
##ныи
##се
bit
##kulunkulu
ɓe
ngoku
tsi
mir
hati
##ୋଟ
wel
##atwa
mfu
lek
search
contact
ɓa
jimbo
ɛn
##fsi
##ଥଲେ
ip
your
eti
##tas
fri
hen
maalum
##itoa
see
##ለቲ
##13
##بل
##emi
ilikuwa
iwe
##golo
##kika
##ବାର
fana
vre
##ነው
kusi
##كن
arg
view
anu
sup
iko
##nolo
real
also
want
##سب
mah
unaweza
usha
premi
yon
maf
##fund
##ተር
mre
hala
##ib
kushiriki
##ተው
akwa
nyuma
##diliko
econom
cidade
##zan
##80
##jaa
wee
##до
segun
##icos
##amia
eza
##lic
matangazo
በዚህ
mj
##25
ud
kuanza
muk
zuwa
##ть
gebruik
raha
##ди
mtandao
##ren
wed
prim
ava
##lada
duk
እነ
##ɑɑ
laat
##gay
##gas
fm
bos
mate
ey
zetu
twe
እየተ
الص
ከአ
##olo
mkono
##umiwa
kanisa
##iswa
##kiliza
iyi
##andu
##buka
twee
juni
enter
##esta
uongozi
##ение
mwili
##лу
mka
ret
februari
##mula
##ров
##16
wabunge
anaye
bad
maxamed
ସର
luka
##maak
mə
enc
##atoa
lea
##pwa
##تم
waan
their
##tima
benki
##has
muntu
inda
##mbo
pam
##essa
##kili
inga
##wile
bili
##hit
##rin
popular
የወ
##red
mzee
bible
deel
shughuli
##ለያ
nani
azi
##ራል
kiongozi
##ser
ajira
ምር
mwandishi
ብር
umeme
show
##urka
ziara
foto
##geen
maamul
kuhakikisha
doo
##wene
##ute
wɔn
##mbe
##biki
teen
##ongea
julle
gobolka
ia
maanta
ndoa
nyimbo
maneno
pal
##plo
biblia
##vas
70
አብ
sports
changamoto
ما
##hany
sien
##ump
##ታቸው
heshi
ናቸው
wache
dɛn
agos
olo
univers
##cti
world
##18
##pend
##dele
##bula
##wahi
iye
##wat
ist
##ባቢ
##men
gara
ምስ
years
##tea
cr
##17
uno
bra
loka
##ኞች
##وب
add
iri
ଅନ
##скои
##yinka
ରାଜ
ena
##hor
nni
sko
how
##ለሁ
##مة
##eds
kuona
pɛ
dz
isku
lime
tuta
##yama
##werf
kumi
##ନଦର
##gara
##onal
##atay
voa
muziki
##rag
##ንስ
##mɛ
utu
yat
gwamn
##ሚያ
msaada
rio
mpo
ክል
اي
punt
mamlaka
maso
##ዎችን
ei
##كل
##gbo
##uala
lib
بن
koma
mwingine
መሆኑ
##كان
mutu
##ତତ
##angalia
##ረስ
mika
been
##idos
##fya
asu
##sika
najeriya
##حت
##kka
##jiwa
##ach
jihar
diam
awe
ሚኒ
kuv
hand
##ical
##onte
ov
2007
##ще
main
##39
makamu
goog
##ures
##idha
tussen
ка
አም
kawaida
deve
noku
##amizi
lewe
fursa
##cr
##py
##itos
ମଧୟ
rwanda
ambalo
afa
##zeka
top
##ርያ
mengine
##ima
##vir
##hudi
##risto
sekta
وه
##yeli
yes
##ng
##form
ax
##ከት
skip
bann
pesa
mel
##bana
pais
admin
wachezaji
##нов
##ለቲካ
##tɔ
##ware
dc
dam
google
##bs
namba
toka
perio
futhi
##ool
##из
##chama
wasaara
mɔɔ
##wel
isla
##ale
qar
##ork
##ባቸው
##ድረግ
inuu
##tembelea
estado
##ርቲ
##ombi
##uts
mr
nzambi
yet
esp
bis
##ଣା
##hal
lengo
jwa
kiwango
##hele
года
раз
igi
##icao
nta
##ide
vil
str
chakula
##hon
##arufu
##kisa
oct
vic
ከፍ
##boo
አቶ
haka
##ision
##ket
##zar
##zer
##ander
##holo
francis
begin
nzuri
reali
##bada
##bela
ike
pad
zime
##dhani
tukio
##ely
bah
caa
##amili
##umika
##ኔታ
90
##fiti
raa
uru
##ран
wet
##ved
ከተማ
uganda
maelezo
##yeed
##toba
##ghe
uza
tano
ቀን
##kir
lugha
spika
kuya
inte
##sao
##emo
##37
idadi
##au
madaxweynaha
madini
toeg
apo
masi
repu
##andaa
ry
first
##lingi
month
ikulu
kuo
##huma
fc
##ɛnɛ
ino
##lat
##ድን
##ctions
div
barua
##лов
##bert
##ଥା
bung
##almente
conf
click
##ции
##jalo
oba
cali
##unguza
down
kig
modimo
##ambana
##ከተ
siri
xo
##fuata
vina
formula
kilicho
##ется
ме
##zza
##tse
ise
wafanyakazi
edu
##tern
maro
iv
kuendelea
##nolojia
##babisha
mna
##ют
##ዓት
49
sch
እር
##wis
hours
##قل
##firi
barabara
balozi
kiu
alim
##ciones
##pya
##ኋላ
cabdi
area
##tico
cur
avy
ese
አበባ
ତା
menu
##وج
##دا
ty
peo
nig
##uaji
##aray
##asu
##waku
clu
##ческ
ጉዳይ
##habari
sare
zamani
##arios
##inzani
##ingereza
ukweli
##lishi
##34
inta
##pet
qua
mfano
##kaya
##ley
##ማት
##chuku
##ding
የት
##hou
maria
noq
##وق
##bad
##kop
##wadi
##ርስቲ
safari
ira
ole
mom
haku
##22
##36
##ella
##ɔŋ
tala
##ାୟ
##ishia
bii
##pital
##baan
##ismo
##خر
dau
##ataa
make
kuele
##يث
phe
ŋu
masuala
ቤተ
##sie
lar
proble
##የት
webwerf
##رت
bio
yee
##gaan
##ይወ
def
bha
##pro
##wing
##anse
ww
##ልም
joseph
##اني
eku
dell
##ign
ст
ተመ
##gbe
##ggi
##bra
##ግዚ
cult
insta
አይደ
##عت
binafsi
51
##eshe
##sies
##ቀር
auf
##var
##fahamu
##unguzi
##ጥር
toegang
gaar
bibi
daw
##ገራ
##ского
##fat
##ile
ሁኔታ
bere
onge
nen
cara
##far
##ማራ
##ief
januari
##zya
##bus
municipio
gese
machi
ere
##tɛ
ide
mingi
will
ine
ምክንያ
الام
##35
##па
yihiin
nawa
##angia
##نة
ij
##ይል
leh
anasema
kile
shar
wapi
##vos
##ei
morogoro
##ውያን
walikuwa
##etsa
dik
##wy
##lit
wate
##vha
star
cir
##ense
##سي
king
##sim
кото
tehama
dhan
ବେ
owo
ardhi
##ning
##engwa
##fundi
አዲስ
pele
##ደረገ
oktoba
##islamu
most
##ቦች
miti
الان
kocha
mutane
rat
gru
gazeti
##ular
mikoa
ethio
##umwa
ulaya
kuza
##ек
##patikana
baar
huwa
joo
idi
ih
##anto
##orde
##bala
fue
when
##entos
kuondo
##lang
##my
bag
makubwa
так
baya
##وي
##ግለ
tovuti
##ative
reli
መንግሥ
sidoo
lik
kisha
ane
ام
jon
wasanii
ware
nai
2006
yena
global
muka
##kuma
ven
eko
##tokea
##pango
##biya
fat
inde
ufu
nome
diamond
##siliana
##ቅም
kuongeza
##ୟରେ
jen
week
ናይ
##му
arri
ስር
##biashara
##habu
zit
##ሔር
##orio
##ጠቀ
##ffer
##goma
perm
sm
ያለው
abin
miko
sauti
baj
##فا
##ков
aman
yadda
kira
በኋላ
leg
##ቢያ
##ገኘ
بعد
base
geor
zon
kib
الر
##ɗi
##lila
nayo
unao
halka
wanne
##ାଣ
lililo
##bila
vyama
christ
что
##ني
##rasa
##haka
mpenzi
iran
##со
kno
##iek
##zesha
ato
pɔ
##lə
##jehova
mano
mand
hab
##nis
##ርድ
enye
54
kuliko
##bels
##ichi
quando
miradi
muli
elke
hau
hou
vez
##vaar
500
##had
sont
amp
##28
ማለት
##ink
##alu
##erere
الط
constru
azo
##risti
##bere
yoyote
እስከ
many
##tani
him
##com
##anada
##kryf
##57
eny
##icas
segu
kuanzia
##zon
wash
mabadiliko
misa
io
bungeni
##zos
##hukuru
help
##ବାକ
##ୋଲ
##gos
maz
cos
mac
##دم
langu
woo
contro
apos
izao
ajali
kiny
neno
next
##panga
##lho
eyi
କହ
ଗର
dho
لم
##lhe
hatu
repres
الث
##ାକ
##ря
##lement
##pot
kiba
##ሪክ
mik
##inali
##vil
##enskap
##io
bla
##за
kucha
##ଦଧ
kupi
##cess
##ଥଲା
##27
shilingi
vas
##temba
free
##riki
በላይ
ተጠ
##gela
mafuta
awo
##ataba
##qq
##ural
##luit
kol
federa
ያስ
fl
mwalimu
some
awali
vat
بين
##ick
duniya
gir
yame
##onni
##rio
portu
general
##صل
መሰ
##yee
##file
bly
##adka
##bbi
people
artic
bed
iringa
afric
##قي
wun
2020
eke
kujenga
##ኖር
##daan
loca
##vam
##شر
kungi
yim
foram
##cle
tak
##gte
nto
##hun
##mes
marehemu
bidhaa
##onya
##mbu
##ppe
##ምር
##ongwa
jioni
umri
basa
##ds
##ushi
weet
##ምሮ
grand
##funa
akim
avec
##با
mujibu
##ፊት
##الي
##ambua
##ته
kidogo
naku
tz
##га
oa
##tro
msanii
babu
##unguka
utalii
##ታው
mako
kuki
yuda
ማስ
ରହ
muta
##umani
puntland
##paswa
##load
##جم
tres
off
than
pepe
david
##ገን
bodi
chake
##kte
lə
dada
##benzi
##yuma
iliyopita
kii
##ክት
##bata
madi
##ев
dhex
##ያስ
##tsha
kombe
julai
##ду
ami
stand
sina
000
##lich
##enena
##wona
##kano
mafani
##دة
##ɗa
septemba
##ରମ
mol
mang
filamu
##bio
##bes
apa
popula
##liya
##wed
ପରେ
##29
##26
kikao
##onto
ମହ
##idhi
buhari
mashindano
akan
ulinzi
##ግል
##መር
suna
mbaya
cat
timo
##khala
##amano
##dika
noma
uri
##ገኙ
pir
##አብ
##inde
##yat
است
oper
##ders
##wys
grou
##wira
##ଞଚ
offic
amo
##ይት
##lɩ
wawili
ow
##fanikiwa
azy
sti
nyasa
##babu
viwanja
##ያቄ
kare
##lot
soomaaliyeed
اب
mafanikio
##wii
##yer
ዓመት
into
##kpa
##bta
##lami
##gon
binadamu
anat
male
mli
##kr
ayuu
novemba
##sin
##ption
##dz
pun
##ая
imani
##dar
##lula
##kabidhi
##ባል
tɔn
##vious
##ላም
conc
europe
##uria
sau
kodwa
aca
national
ukurasa
uv
iwa
##عب
ahaan
##ሽን
viwanda
ciidamada
##nee
##aribu
##anja
##ashada
##diga
##ାଳ
##ክል
##aday
seg
katonda
kiswahili
lati
gana
##fanyi
##ገለ
ድርጅ
maarufu
##መስ
ሲሆን
##зы
rehetra
##ход
##ʼa
##fana
kure
kede
##ged
teknolojia
##jer
ɗa
jehofa
sol
tet
##deen
pala
##ାଉ
##kezaji
mawu
##orie
##ɗe
##alamu
##ил
كل
uzinduzi
##enas
ona
##يرة
ushiriki
principal
##erehe
gere
bene
utawala
##banga
##ዱስ
esa
##kiya
siste
##ାବ
nita
wit
##ziri
links
ଜଣ
kijiji
dra
##ሳት
shaca
yii
kauli
##yela
nako
##long
gw
53
sele
##pela
nika
እዩ
long
isaa
republi
vor
##ral
##تي
govern
##zim
تم
eya
##ctor
kulan
soko
##ላማ
##bil
ling
sto
##waki
jw
##anisha
56
gin
avo
ula
loko
aika
году
##uza
##ସତ
##baar
ବୟ
በቀ
impor
##hang
skakel
ukumbi
there
##omwa
ካብ
kue
msi
##chie
tel
##حم
labels
ጥያቄ
##ги
ushindi
epo
##unta
##ጣት
##jies
ƒe
##fla
##lise
አሁን
##katifu
prop
dakika
##laan
fɛ
##gb
##jui
ilay
hiki
##leta
##endesha
over
##ାନତ
##haba
ሥራ
##صر
vana
##ciona
##loko
አድር
##ዚያ
kampeni
oru
kgo
##cada
azam
lia
ado
yona
contra
isira
raia
##way
##ረጋ
karo
efa
mwenyewe
onde
kpe
##tak
msimu
kumbu
##eke
led
eze
##tolewa
kuweka
##atilia
##bolo
##kubwa
tie
eno
##те
2005
##ୀୟ
wena
kies
deega
ይች
##tor
##ongoni
emp
под
##ɛi
это
##lao
baxa
##pedia
brit
##wang
##hed
pha
desde
gam
ଆସ
term
mifu
##ту
##icio
##pokuwa
##irwa
##cou
gel
udi
##deling
scho
##ୋକ
kikuu
##zulu
##hos
##zuia
gagwe
وب
የህ
##hai
categ
eto
form
##ንት
##hane
magari
ngai
aliyekuwa
liv
##ሎት
mpira
kosa
##hirika
##دين
##kwenda
kuko
seus
##qi
previous
yaku
##doomi
##baab
hus
lita
orom
ମତ
gid
mrefu
dhaa
اك
dig
program
mee
conse
data
agosti
##tyd
##sia
ngwa
waf
##ным
nigeria
roma
tara
aust
58
##ଳେ
የሆነ
yɛn
##into
##hada
tafuta
als
mti
kr
##amaduni
##ግዚአብ
##siga
red
##anye
##vaa
aprili
ged
##ental
52
##inya
indust
##isiti
watumishi
shaq
ଏକ
uda
thu
adver
##لة
##oru
yom
mulungu
##ାନା
##vitra
aidha
teo
leswaku
hit
cada
##yia
pho
chanzo
sing
hukum
##ଦେ
ota
##hua
መጠ
mohamed
##amka
kudi
break
wilay
qay
##ugh
ста
##هر
##fisa
##umar
ahay
eerste
eu
##bee
aro
iska
lon
##shada
##فة
loku
##يه
askari
##сп
##giza
##kk
ве
##xu
gratis
##ገና
##onale
lei
କାର
nyu
##hile
link
##fanywa
bata
best
##vuga
msh
##cts
wilayani
wikipedia
##nɛ
##vit
trump
rece
zama
ren
##imar
dhacay
##يو
##anti
##leed
territ
habit
##ices
##gele
##ፍት
wimbo
##ʋʋ
##ratti
months
kesho
ማን
roo
provin
hir
እቲ
sor
tabia
nte
sendo
play
yiri
##hil
##fafan
##رن
##bh
##ୋର
solo
uzo
##hee
wom
##andla
apres
geo
macha
##hlu
iti
jumu
bena
##duu
ስራ
madaxweyne
after
##kundi
beste
ነገ
##soon
##puta
kima
##kanye
##ishaji
misy
dhaq
page
lɛɛ
len
ilaa
kanda
ash
nis
tuzo
mkataba
ukuti
gos
pombe
nata
obo
የስ
ብሎ
olona
କରାଯ
##fur
qaa
##vide
international
##isiwa
##jila
##vya
##bba
##ор
var
nko
kop
kijamii
oli
##kwi
##anzu
prote
##ሳይ
hoja
owa
sia
kifo
maalumu
matatizo
haja
##vela
##kome
##eshwa
estu
##istan
##ное
##ሰው
##husika
98
መካ
##bul
badala
##esse
qor
##cado
الذي
urais
kadhaa
uyu
##hihi
##ረዳ
##ବଂ
##ал
dali
##leke
walimu
nuna
##dela
የኢ
ሆነ
##saidia
plek
ques
miongoni
algun
ameri
nang
##ାପ
##guu
kish
##ня
kaska
two
videos
##tti
mashabiki
##ጠር
nach
dink
##ная
maza
site
fura
kye
meneja
ро
##yam
ess
አይደለም
##atsi
##poteza
self
dies
କମ
uso
##liam
##ارة
wenza
##tuur
kuingia
hon
local
tuma
mem
neng
##iness
regiao
dj
##cido
##sɛ
##onesha
pret
##58
##dim
pub
##64
##sapp
##unti
jami
ule
##inte
mua
reply
adam
mono
wakuu
##xaa
ଅଭ
المت
##ɔnɔ
duu
##قا
plaas
lang
##ikh
##скии
##ristu
##ания
##вы
alles
yerusa
social
##inyi
##wir
##deed
mina
ipo
cham
##pala
mipango
idara
##dom
##iros
sono
kaskazini
##bro
##ርትራ
##gira
vili
ଏବଂ
haraka
sabo
##may
constitu
##ଯୟ
obe
##ween
moder
yango
ihi
هو
high
##ked
##arajiwa
piu
##iss
jee
##ство
##ɗo
ndiye
mape
ster
arti
##كون
nyerere
##asan
መንግስት
##ories
ndzi
develop
##indua
##tumia
##zidi
whatsapp
itoo
##ዎቹ
##cita
mdogo
mukama
wey
##bika
для
##rent
kitabu
##isana
papa
##ማር
maamulka
jiji
##ktari
ሆኖ
guerra
##gii
##himu
##الم
aar
ambacho
nsi
##ላለ
aq
##23
clo
kujua
اس
##tuba
eji
pic
looga
lab
የቀ
መንገድ
dey
##ህል
##сле
##ሰራ
lond
##right
##ାତ
በር
kinders
##ାତର
ଉପ
qey
##adhim
kif
humo
gur
ɖɔ
##takiwa
importan
##zungumzia
##gulu
ሚኒስት
gesi
power
##اري
##zito
hɛ
ለአ
##ላሉ
abdul
cuf
goed
##phu
enige
hari
##jja
##كر
ilivyo
isu
##langa
jamaa
##keleza
##wela
ଅଧ
##вля
jakaya
mtanzania
socie
wurde
##ሳብ
##kai
##juli
##ጣም
##lite
bek
amb
##gaji
##tainment
الله
##ልቅ
##ɩɩ
qaar
как
full
##isti
tene
##tions
ever
nane
maklik
57
##taafu
water
itti
##yele
anya
gy
##ку
##atee
##ଶୱ
##uran
##ኖች
##culo
ስም
kinacho
##dhibiti
##dka
##bisha
dd
ያል
##logia
pekee
mere
##volu
taba
pel
##ствен
amɛ
geme
ደረጃ
##weng
##ምህርት
sifa
alt
##beli
##bol
ushirikiano
##ሜሪካ
year
##limi
mtendaji
##baha
እኔ
roho
maju
wanachama
koa
verb
##ቀው
kong
diya
##zela
damu
##gat
##uwa
yeho
progr
lahaa
seo
##peleka
##pat
##kwo
ከፍተኛ
##vis
mini
ref
##usub
yawa
од
idan
loogu
##zam
bots
##lahi
daya
##انية
##inyanga
take
bem
fulani
##ለያዩ
##bhe
##ание
##vang
##tela
ija
##wekwa
wema
tee
jama
ghar
kel
paa
##lira
petro
አው
##در
kyk
geen
የው
ataka
##chuu
##ዘጋ
tech
taka
##lishaji
ول
##dera
##oresha
pd
archi
ቦታ
mora
##tun
pass
መሆኑን
##97
##ziwa
rona
oromoo
mume
##vor
##ስፋ
yoku
ନର
ወቅ
##ዮን
lava
vwo
bure
##спо
##intu
وي
##lisi
aŋ
golaha
##kumi
byo
##gel
##fir
wazazi
huis
300
ከዚህ
190
hassan
##inaa
##jim
##tao
kee
##ican
mmo
##ambano
ନେଇ
አገ
##fik
dii
##መራ
##sor
kaha
##hariri
mont
##ichana
##итель
yem
##cher
iji
jumat
oth
##leo
wawe
maior
##etoa
##itsa
rich
##laki
እንዴ
##vidi
ሌላ
##جل
sunday
ተወ
bun
kona
thi
conhe
##ላፊ
organi
download
##ush
wasiliana
##alme
obi
9f
##gre
##ገልግ
##funza
med
##onna
##dua
də
kikosi
gharama
##اص
##onia
##ديد
amfani
##zioni
kil
tany
##ልክ
due
##ering
##ward
##قت
kucheza
##ados
እንዲሁ
kume
equi
##uliza
ethiopia
مت
hara
##wila
miss
mapato
##bai
##በል
هذه
##net
##54
kuy
ଯେ
aso
መረጃ
kuchukua
ዛሬ
104
ክልል
dep
majaliwa
##fuku
gom
album
##መድ
xildhi
stel
aliyo
bilioni
nwa
risasi
##umla
те
sanaa
##ାଧ
##nesday
кон
varia
##kelo
##lola
kho
bras
run
##gli
umuntu
alex
uja
lwe
##чи
utafiti
yanzu
rela
ዋና
##llo
ରେ
##kiisa
##tsi
jumla
##ከላ
kisiasa
mob
##ልጣን
afrikaanse
kich
##ግዚአብሔር
##لال
delle
juda
##cul
internet
iray
shirka
##jani
tali
sab
##ୀଙକ
##huhu
kanye
jos
##ኛል
##dra
ос
##اج
ቅዱስ
nyɔ
kap
wednesday
wanneer
##atakiwa
commun
mchezaji
##unua
##عم
пред
jerusa
መጽ
##jaro
tirsan
bino
cla
sas
nella
mcha
##mel
ከእ
##gio
xukuu
nami
##baya
##ummaa
politic
እንጂ
##ሞክ
ዓለም
##lemu
open
##69
wajumbe
tab
contin
##itti
unu
dagaal
agu
##sea
buli
##qay
##هد
party
##lica
lief
african
encont
##irira
##jea
jihova
art
dola
til
##eron
line
hausa
##onka
##linda
kumbukumbu
ranar
##insia
##nd
bɛɛ
##ynta
banda
kufikia
them
##baki
lig
luk
##vat
total
nso
##oa
##fungua
##ጠና
inge
dambe
shacabka
##buhi
fas
lees
yayi
##cter
cele
##ства
##isira
هي
##asie
##ዘብ
##ቷል
##sch
south
mao
##cl
##وف
asso
በኢትዮጵያ
##zen
##ram
##ታችን
сво
##ert
gɔ
هذا
##ally
kungiyar
##ты
##ƒe
59
sherehe
madrid
##ሰማ
ጠቅ
kuni
eie
samee
macho
ህዝብ
ngen
jar
##arop
##wil
##itse
shafi
ria
##anganyi
де
bh
uingereza
matsa
cad
##sebenzi
uchunguzi
resul
bayi
iju
oop
yaani
george
desen
##hola
aliwa
mundu
ido
са
##tle
moko
##ambulia
wakazi
##ወሰ
##ful
dza
##icht
##xii
dri
##isan
opo
##hika
##tera
ନଆ
##angana
teny
##fukwa
ear
କରେ
outros
breaking
cusub
##ታይ
##hango
##toka
omwa
dama
##dhara
comun
##kras
sekond
qora
##ism
##ንዳ
qual
gɛ
ukuze
gbɛ
##ሪዎች
joa
ዜና
ulo
abra
ፕሮ
hun
##stem
eine
##sɔ
wapo
ach
daily
##wepo
##inti
ainda
ulim
copy
##ለይ
mose
##خت
##عض
ayeke
inv
##anne
2004
##ግብ
alem
##utes
dhina
ሰብ
umo
mwananchi
meta
just
##cted
kpɔ
spa
windo
pon
##engeneza
entertainment
okun
##caa
upinzani
##74
monday
##سا
stre
##kuli
ወን
##mis
nji
##ند
##fum
inu
##ثر
##loka
его
##werk
administ
##emu
tec
##بة
mazo
##istas
##он
wajen
አቀ
##ዮች
norte
##ነበረ
state
wateja
tangazo
kwo
##cs
iets
qara
kwao
##gemea
enn
mgombea
sə
##hugu
##ше
##manjaro
##itokeza
asubuhi
##kies
##isitiza
mau
uya
kapa
##ذا
bato
organ
tt
tura
club
ola
الو
jumuiya
defin
##zungumzo
##ном
eff
ener
kame
sil
##gle
##ativa
class
fainali
##ondia
naam
##ɩn
65
tik
##kwaa
##pen
hem
anche
##gam
##yɔ
##tige
hadda
##gɛ
##hulu
##ŋo
pode
##ፍሪካ
##atha
majina
##ера
##cil
##unye
##bola
vreem
hele
ush
plat
ክርስቲ
##ɑn
terug
##yaasha
##madda
bele
friday
mazungumzo
motho
##utar
wol
suas
##ادة
miezi
bayyana
су
nku
aji
liber
muham
dro
kupiga
adu
##fiya
zv
muse
ይህን
ତାଙକ
efe
adda
kuhu
حيث
##bidi
ма
uamuzi
##xda
tana
pere
##uras
##гра
goe
persoon
##ril
##ден
yale
mitanda
vry
##ሩት
hatari
nawe
##jan
lokacin
kore
አደ
##زي
tff
york
federaalka
##bed
##ለች
micha
possi
lt
itakuwa
biyu
##ନତରୀ
katikati
##дов
tazama
##kale
##kami
##vul
##عر
nyasaye
##kathi
##zwi
##ቀት
##kato
##zal
vri
fis
shinyanga
mauaji
##ግራይ
##etti
wanaume
##oms
cel
mesmo
system
kidato
##tto
##qaa
sistema
bajeti
leer
hae
##ın
##dada
kilimanjaro
##ኤል
##ረብ
##patia
yel
serie
ec
የበ
only
vip
utamaduni
xe
##ውም
ore
yau
gun
yini
##سة
##ере
influ
siyo
mov
##78
##rada
kag
##teli
##tso
##imbi
ova
institu
##hel
juli
##zed
origin
ବଜ
kambi
guud
jia
later
##imamia
እው
taal
sug
но
##kayo
##did
##krasia
dood
sich
##oshi
ምክንያት
jus
compos
##fie
##esday
##ምና
##onio
yandi
wenyewe
##bb
##inthu
usu
comme
good
##gula
fili
##ola
jari
##chester
manis
ፓርቲ
##chumi
life
##ଣଟ
wazee
abat
##huka
mapema
depo
pie
በዓ
akam
##ثل
##zingatia
signi
##раз
toon
tiba
lom
##grafia
##ተን
nem
disc
yezu
##yadda
##pes
##anay
##ysan
##fura
##zio
##kim
gli
uvu
toer
##dores
alu
##ችል
##ሩን
##ኝነት
ahi
##limo
bone
##دينة
ure
kisa
መካከል
utc
##mee
uye
kutya
ଭବ
lama
##ነሳ
##كت
such
##ቶም
president
##amar
##bantu
##angwe
stars
itali
##حة
##kiza
yule
##itor
kusoma
والم
##kabili
##fuu
awamu
##kamani
dala
johan
##esco
tuesday
kontak
##hwe
nzi
maswali
geno
happ
atra
leswi
ple
vyu
##kye
ripoti
nabo
был
በጣም
eva
momba
brasil
eby
##zamo
የነበረ
##ደው
fane
##ኩል
##ወጣ
##56
##ጠበ
##burg
mabao
የማይ
manispaa
##ndi
rap
##ାଇଛ
final
nuu
chin
##dana
##yala
##husiana
##julikana
##wes
count
majalis
ተግባ
##hamia
መር
paar
complete
manu
##59
singi
memb
gut
oke
ngɛ
የታ
99
##ይነት
ذلك
##лю
gwamnatin
##aron
tlho
##she
cit
film
sis
hifadhi
wasiirka
charles
##pende
aos
anna
##dɔ
kigoma
sekondari
##lle
gwe
ugonjwa
politi
dw
akɛ
rama
faida
##kora
##тов
leng
weyn
nyota
gene
manier
##gor
dande
الغ
##də
##ይወት
##аль
##ሱን
kwam
##omin
##vula
##isema
##ires
kasas
fia
difer
##badi
##twa
hita
dor
##كم
kay
rahisi
##isaa
##ጠው
##elwa
nza
jim
##ሉም
##ናን
##hiwa
brasi
##asho
እንዲሁም
bə
መንግሥት
##ସଥ
pasi
##miza
vanhu
even
##መው
afri
ijumaa
aange
##عي
##ፖለቲካ
lid
todo
pole
andu
##cen
##ፈው
bɛn
##kezo
andro
kie
vra
##ጀመሪያ
##ности
uhusiano
sk
nova
##cation
##ጨማሪ
mahakamani
william
##zisa
##ادي
ezin
ча
##wezesha
ዝተ
mahali
##ido
##imarisha
baadaye
##ମାନଙକ
##وت
እንዴት
##ursday
yari
sum
hadlay
kato
##isra
maand
kem
##amali
profile
##itas
makini
##beni
##ones
wafu
##iz
rol
##ዲያ
times
rafiki
ин
##gelo
##мер
አካባቢ
vrou
ህዝ
say
##bare
##erre
numero
shabaab
oso
colle
##ቶችን
በየ
amewa
##jijini
##erumani
swe
##ruk
##mali
copyright
##pongeza
then
fra
##dug
##tere
##gogoro
now
age
kufa
با
akili
##dd
##usika
##mwe
##ገኝ
nea
nwo
side
##urt
sonder
aliy
thursday
sido
partir
almal
##ቱም
log
mwene
thamani
lut
segundo
##ность
lika
mfuko
nzima
ተቀ
refer
##jj
##84
wach
cl
nɛɛ
sent
mpa
##са
great
ibra
msim
mane
koko
ልዩ
ikiwemo
yina
hukumar
##isadi
etu
##seben
##rie
##መጣ
##awo
##umbo
yara
possu
differ
kujiunga
##kiin
gala
coun
##ppie
manchester
populacao
##ments
vye
mzuri
cul
iny
att
##anana
ଦର
##cɛ
uhaki
##versi
darasa
sle
afo
##ምነት
##рав
ding
##sel
##bisa
##biliya
84
shein
ram
axmed
##ongezeka
በሰ
shirik
ପରତ
##kuthi
belang
arrimaha
tempo
pɩ
big
የሕ
vro
labada
##ке
##usan
image
##የር
name
kumbe
በስ
##ደም
nyam
በፊት
alivyo
##sanya
centro
94
omdat
##bea
##fua
mwenyezi
india
magonjwa
hotuba
stat
sahihi
##ክር
mole
##pigwa
##hifadhi
##33
utar
kusaidia
mahusiano
maali
habitantes
enda
ukim
kuboresha
ndogo
kiki
##су
##yso
hotel
wasio
##hau
safi
mod
##ለዋል
iis
##vamente
ped
cost
nana
kakhulu
kube
aux
liga
mte
mawaziri
back
##طة
##ህን
badi
##hoji
nati
##ilu
##ook
desta
fla
rego
weg
lef
##af
mach
##arana
##esig
mʋ
peter
mone
##atikana
neem
depois
primeiro
##bua
jin
##enn
hla
eyo
ambavyo
##ea
fela
yas
xoo
awu
goeie
anthu
jumapili
somalia
daudi
dina
batu
mkazi
##gues
##umela
under
##ካሄ
sport
##ታቸውን
amerika
dok
kiri
##handi
##ŋn
##вер
cloud
egi
ଆଜ
uria
todos
slaa
##qe
natu
shee
gon
##diliano
##мя
የሚያስ
##fariki
majalisar
salama
##ykan
##ደት
sein
anam
##خل
business
makundi
##bir
##itha
tant
school
##daka
##atar
##يات
wah
satur
mundo
##жен
##khathi
после
##ተዋል
##shin
umwe
orodha
kanuni
المن
ሕዝብ
##ɖo
bale
##unde
shari
##lies
house
tlo
considera
elect
горо
ли
dake
covid
##ରା
oy
nts
##wari
vida
ome
kamu
##kos
##ክስ
##aba
proje
made
##vunja
ወር
##humiwa
america
our
kerk
ae
group
wakulima
##cto
##ss
##nia
##biwa
##iriza
periodo
##wə
##ysay
##inka
yai
wanthu
leza
##bien
##arti
ciki
komm
##kadi
wara
##pla
vhu
##maye
##kera
yose
west
antu
nacional
كما
##leen
ushauri
these
ie
66
##ናገ
singida
tanz
##bane
##ኦሮ
ମା
##kanya
##ባለ
vituo
utaratibu
##isto
ру
96
zot
mɛn
org
ଦନ
poder
conce
person
ተቋ
states
##мы
materia
##ራሲ
##mala
tshe
iyadoo
##aji
suke
buu
suc
rwa
اله
utekele
respon
##wor
agi
villa
yaki
74
nish
##ያዊ
##କରମ
provincia
akitoa
##list
diri
ibe
muh
##qin
kele
nyama
doorashada
shugaba
##teen
exem
##onso
##guliwa
tul
па
ue
verander
moshi
licha
sos
##ald
##zie
##wasi
75
madai
ଲୋକ
##undo
crit
human
bati
ми
##iewe
##moo
religi
telev
##andra
kutaka
##ገው
እንደሆነ
oni
kamanda
pwani
kamar
##32
lahat
ବା
anc
መግለ
##shwa
##kes
bofya
##ገሪ
sty
waq
dois
ሳይሆን
furaha
exist
caal
baarlama
##رق
ተከ
##ffie
dinge
ድረስ
estados
##87
cia
##vita
zar
love
##indra
rɔ
tour
kra
bahati
inaweza
would
##tado
swali
və
pesso
jɛ
##اض
james
##forma
##fanyia
##وع
ihany
pai
muhim
kuelekea
iru
nah
ସରକାର
አር
keess
islam
##ولة
khi
baraka
mtandaoni
blogu
unga
##buu
mitandao
##lum
କରୋନା
በወ
kikubwa
iga
haw
##irobi
muno
##ns
watan
yaka
gia
lw
partic
gat
##rum
chel
kutafuta
suo
rushwa
franca
##об
##puka
kushirikiana
አድ
##iras
пере
አገልግ
lui
2003
##чен
##amosi
tlha
ስብ
የሚል
where
anaweza
zum
mawazo
zimba
utekelezaji
##jar
አገር
##zɩ
##kufa
ann
ኤርትራ
ከሚ
elle
tras
audio
እንዲያ
الي
400
desemba
tafa
##ጆች
listen
law
##endeleza
ବରଷ
##بد
vitendo
##ern
gago
ŋɔ
كانت
##uny
mok
ଭବନେ
zwi
arsen
israeli
hafa
gemaak
ଜଲ
achi
##ୟମ
بل
desenvol
##ghari
ችግር
yeyote
##gy
##ɛlɛ
xiri
##ልን
dhac
##erde
##bya
teks
primeira
bru
##ambuzi
все
visi
##risho
##kay
trabal
kere
labara
zawadi
dɩ
keer
acti
ros
##atro
jane
##በው
agter
##yuka
guddoomi
nairobi
wasan
##lette
##jee
socda
##ington
zva
##see
hɔ
pol
ком
##lion
itoobiya
niŋ
وقد
maanda
staan
nh
##ଳା
##ነቱ
##yima
##helo
kime
255
##gamba
yenu
kike
##yesu
##فس
ngazi
##terior
sets
ተብ
sci
##karu
##يع
used
tokko
muito
እጅ
##disha
taona
በት
وفي
##chia
zita
##kwata
klein
baza
muku
##89
##ጨረ
bank
##ɓa
dus
amek
nak
##አዴ
minist
spo
ray
በደ
ସବ
haz
##ness
##vuma
bom
##berg
##yahay
found
yata
2001
ክፍል
ede
chelsea
qaad
daniel
continu
ቢሆን
##kosi
irin
xar
kiuchumi
tambien
xis
ନଜ
##rat
arsenal
##حي
design
lou
kufunga
shida
leyi
spesia
##aren
##weke
cette
##bale
##asiri
##gile
##kina
nord
shirikisho
##пу
mikopo
##ଟକ
##gawa
wamekuwa
##kany
brasile
##kamatwa
viungo
kushindwa
doc
kano
##hughu
##dow
irratti
##woord
ruge
clouds
much
##ap
saint
##esti
ଭାର
##ፋት
##were
labarai
ସଥ
##ሰባ
##зи
##polo
michael
altyd
bie
##unzi
##ፈለ
xasan
##angazwa
##ضا
kusu
##guo
አሳ
вре
principa
ciidanka
jumamosi
wacha
##lista
##doen
##osh
yak
pero
##llah
##tele
##isie
sheeg
actu
ɔn
##tad
babban
ምንም
##kik
##logy
usajili
2002
воз
##bho
##iter
ntan
xub
nkh
zangu
##wezekana
##word
##ging
##wassa
samun
deux
يت
##fanele
##iwa
እንኳ
##ums
##cre
ning
##sed
dre
epoca
##ить
си
ତେ
##irs
michuano
kuweza
hakika
##ይና
ahe
mrisho
maadili
lebo
##vido
seng
##amman
naomba
ces
aiki
##sione
##cesso
##tshi
ቃል
maombi
mitaa
kuangalia
stra
ଓଡ
profesa
lona
divers
##yoni
nav
roman
fund
##iran
lowassa
##wengu
64
##gho
mudi
yeroo
meme
##fanye
koffie
ወቅት
##вш
ሁለት
##eros
##hede
kadib
husika
import
ଦେଇ
##gol
##ligting
##waan
kupambana
67
iwo
እኛ
well
##ving
##ffe
kristu
##aree
kafa
##aransa
kɛɛ
blogs
pot
##ركة
которы
consider
ሥር
rem
kupunguza
##طل
tendo
jukwaa
ଦେଖ
mazoezi
##ule
##bye
makuu
uwo
iso
mila
##gang
aru
rest
matibabu
##onu
kple
##poli
faha
##مر
##ውል
vari
lead
ካል
related
masomo
km²
##biga
##əm
wir
saturday
##gui
lenye
nwere
haddii
##ረን
##31
shaqa
fig
##quer
wadan
reactions
##elo
##batar
corona
##ଟର
uyo
##ଗର
##ብል
##goa
kuleta
vam
navi
mwenza
##bou
##huku
انت
##wini
##zimu
##gaba
wafanyabiashara
##jumu
tii
alfa
##kumbuka
saboda
wele
##dla
##ୀର
ኢን
kuling
କରବା
ኮሚ
yɔɔ
afisa
##delinge
capa
heshima
interna
##وية
##yeza
##bone
okuti
##areo
##ريق
auch
ሲያ
ዘመን
london
respe
austra
##enyi
mug
##cimento
##ଚନା
##dhali
##وات
uzalishaji
##qii
##kra
partici
ss
mii
nyan
##kanga
rele
bef
mbere
capital
maan
malo
##veni
##ମାନେ
##ማይ
kijana
መንግስ
apenas
##حل
kufika
mtwara
##ከር
##wun
kɩ
##yal
mulu
##sip
##ou
##kane
cria
kont
##bwo
italia
bae
daima
##ደረጉ
tweet
lugar
again
zoezi
መለ
iche
##ବସ
ozo
heer
##رج
##funda
##ards
сов
fad
kuwan
noho
##وري
##ଞଜ
##yango
##kufu
makosa
##መል
##ics
jack
##ጠቃ
በም
kasta
altern
##fsiri
maru
##ብረት
##يف
86
oto
##karar
assim
##dhuria
ሌሎች
##ят
kagera
industria
##bles
second
sake
##ሃን
daraja
kipa
##من
baarlamaanka
##gola
##መረ
apro
zimbabwe
አላ
##صب
kuishi
nishati
##ورة
nae
tshwan
uliopita
አያ
##kosa
rai
وج
anni
gali
bulshada
ድማ
##ይማ
##alaha
##rito
rie
##zil
zia
ciu
ingawa
##wambia
naba
casa
ଆମ
yeke
ታሪክ
##yanya
##nam
wang
##ቻችን
nombre
kisi
udaku
zaben
##ଯୋଗ
ture
##kofu
##pana
mɛni
nuus
##ason
suu
ml
1990
mona
##wano
seun
ske
ega
እንዲህ
zenye
عند
##pɔ
koro
qayb
mosi
##jii
##86
189
kwetu
pak
##sii
##yali
cerca
sli
الار
amni
##inho
uhakika
##ራን
##husisha
##idizi
espa
bingwa
daardie
قد
##ну
munthu
okwe
sidii
upendo
france
tuka
coo
الاول
baxay
تق
quali
imekuwa
tamasha
##adda
##essaa
ያሉ
##لم
##ites
##ቤት
imo
он
babi
andre
mago
##ykanka
gor
##encias
##си
ሚኒስትር
meel
kashe
kufuatia
##ана
የግ
imana
ରାଜୟ
qeyb
rati
ally
##vind
ለው
labo
doon
##тив
ማዕ
##فت
##wula
naka
##liga
##ambazaji
##woo
##gro
uwekezaji
##leng
tex
##jabu
##kodi
##pɛ
ፖሊ
##sal
aang
juzi
kassim
seif
##wulo
##ሏል
santa
##uawa
##ዋን
##atic
ዓመታት
##ନଧ
maŋ
onu
##ቸዋል
##اه
##ሞች
##cent
maamuzi
kɔɔ
elo
waye
##lishwa
enyi
chocho
dum
ተፈ
qaaday
kɔn
##andikwa
situ
naŋ
##ሉን
ehe
mutum
paris
linalo
polis
reer
ପରସ
hariri
vaka
##tr
ninu
##alaa
naij
egter
cro
dic
##ይማኖ
በተለይ
dowlad
ufundi
ବଭ
##kanin
gona
##beka
anda
##kizi
የፖለቲካ
##engi
sede
hard
iku
uto
##vano
moont
boko
danda
gebe
##vier
##gul
##ଗଡ
fore
##ዶች
mstaafu
cb
##eth
kasashen
mito
oya
##beer
kutekeleza
kisheria
boek
majibu
tuu
ገን
gye
jengo
ric
ukiwa
kga
также
dest
jinsia
ኣይ
sant
##79
##wet
uthi
cru
##kwimu
mv
##ጥታ
esti
biy
##saka
indr
##isse
##fungwa
бе
##ball
##perat
##hiki
ekyo
وكان
pee
لت
iba
କରଛନତ
##tuma
##ዳር
kaba
rangi
kuomba
tabora
##kuwepo
japan
lai
##ሰር
ମଳ
nɨ
faz
session
##anganyiko
##vile
##ŋŋ
lori
##imama
wasaaradda
##atica
governo
nar
##cco
jiru
jaji
95
##noo
##ያኔ
##وك
##cida
aik
fle
musamman
##ccion
expand
##ghts
lapho
fet
##ines
hero
ገል
nusu
saw
hafla
umuhimu
##ison
##ሓት
during
ung
ବୋଲ
##ሱስ
እነዚህ
zam
ናብ
disp
##bhi
webs
lako
##inika
adhabu
kwagh
##teken
##lote
##atana
bira
kasoo
##ющ
uber
ujerumani
karin
##ʼe
له
indivi
##rif
##mt
taratibu
##hum
fomu
##ذلك
##kaar
##mika
##гу
##jet
vyuo
koppie
##zy
doono
##କଷା
ens
##wasili
feat
europa
##gai
juhudi
makazi
ትምህርት
independ
##ɛl
##jina
public
kisasa
##icial
fashi
lelo
##moet
##alla
ለእ
babe
mtume
##ଟରେ
nand
##mini
##kol
mz
##daiwa
##بار
##вод
premier
قبل
zingine
birnin
##hom
ይችላል
kuzuia
kamili
##kwazi
hart
yakuwa
##omet
##erɛ
በሌ
mwanafunzi
advertis
##pf
story
##buli
##ities
halisi
woord
elu
lesa
arr
አንዱ
##ements
seculo
gees
fon
ፕሬ
##ዳደር
##kura
trou
##rodu
lyo
waarop
duwan
##zga
##hamini
washington
##tube
##bla
الاس
ngoma
ንግ
ev
yusu
##пи
##kena
##oko
##ቅስ
malengo
pii
odo
##tag
##دد
##ንቀ
##lid
dilo
wowo
gida
mbowe
##rar
##elela
ora
##ать
##pra
##kaka
deegaanka
samb
##pte
##ondoka
##lus
##maajo
##onana
##ristian
##qala
baibu
song
##ator
##alam
##waka
يم
ଘଟ
##ଧାନ
kaŋ
##75
kʋ
##pir
amene
kufanyika
maadhim
work
mif
62
pata
chifukwa
##uuf
##лись
##ኘት
##dige
waarin
##ants
##ford
wakwe
##رية
kolo
##cra
63
ohun
##pig
##foto
tsara
##kokin
alham
vreemdelinge
##ፈጠ
mbinu
##lel
laas
##koni
takwimu
cil
farmaajo
aseg
mchakato
alc
regoor
mode
shin
kulo
##huhudia
##kki
##wyl
mary
miguu
maadhimisho
toa
isaga
twi
ରଖ
mobiele
lekker
inat
itu
event
##ления
##orre
ይህንን
##خص
lulu
anne
##ପଣ
##ongera
##ቃት
##vulu
hoy
ልጅ
amurka
chochote
ariko
##liz
76
##athu
soek
##ию
##ሳኔ
##عا
deter
##aki
kuche
alama
kiti
zako
tradi
territorio
pil
central
##ischen
degmada
##arajia
lafiya
##200
ontmoet
##yel
kutosha
nja
##ଶୱର
##likheid
dio
union
##hami
tou
ثم
mgeni
grupo
ሙሉ
kɑ
##nt
pə
ps2
ጠቅላይ
##gir
##ɣa
tawala
wona
shaa
agba
keessatti
tsela
##chukuliwa
angalia
##bun
##enskappe
madu
bango
nue
##ናቸው
alguns
ujumla
enga
vingine
naha
mudane
hewa
##kutano
##ett
##кт
did
##ffi
ntse
terwyl
akaunti
##gene
waliokuwa
##କେ
ምርጫ
##ungana
hed
##ungulu
wanas
##ater
binci
inligting
gil
##ales
##ለማ
##hlala
##til
cana
anders
##دي
##mos
wadanda
ulimwengu
##esso
##عية
kunye
##ሥራ
##manu
occ
ዘመ
obama
black
waya
pue
##fanyiwa
babo
yɛɛ
##jit
##ches
##uo
##ባር
##vwa
liki
##hol
cya
hol
##wera
shiga
##tolo
ithu
revie
bese
##gama
oga
waja
##hole
ዘር
##diyo
##ур
##isay
##iteit
علي
qur
##kta
gol
дру
##hem
ɣef
tɨ
оп
kuva
mifugo
##waji
##andaliwa
ар
##ром
pich
laha
ende
zilizos
spesiale
186
ማህ
know
##jwe
##voer
##ries
ይገ
camp
##ሊዮን
ebu
##gation
kide
mchana
skryf
##hina
vano
##wers
##imamizi
cui
ግብ
##حمد
##አዴግ
##ሬት
##arika
##ቃል
maafisa
##ዘር
kudu
sura
##الية
##ፈጸ
ቁጥር
sabu
##taal
mchanganyiko
ተስፋ
##bis
##zaa
maq
vitabu
outras
##wanya
comer
wid
kot
vilivyo
hina
md
government
akasema
##fre
##ares
##chit
jumanne
dhama
##76
##hoor
mtakatifu
##ды
##urn
##hini
represent
mshindi
##ንና
##ربية
inicio
nota
wari
##belo
entao
rwo
##ሎም
gera
##soratra
kawo
east
##ଦେଶ
opera
##ulwa
imet
botswana
##cies
zona
tua
kwako
makao
##haya
##sig
ezali
njengo
##dal
weli
же
ክርስቲያን
bri
wuu
onders
between
majukumu
##nie
usafiri
aɣ
yeo
wes
##khi
grandes
ومن
##تى
dere
kukabili
##wishi
kujadili
university
መብት
ମୋ
##dis
affa
mmadu
watatu
##ship
##ራቸው
pato
##حدة
##pisha
haram
kuwepo
daban
##wie
shekara
prima
##mun
##ረዋል
ziwa
vona
##blo
ukimwi
throu
2000
##kooda
##ପାର
##bira
fuu
instagram
##ured
##она
በጥ
##ካታ
አስፈ
ጋዜ
pur
##يز
##dam
act
fie
njombe
##veis
oshi
##mata
unkulunkulu
##نية
mongwe
bien
ዘንድ
##ጋል
##راء
##fikiri
##ceu
tseo
mɔgɔ
gudan
amri
се
kota
خلال
ats
ohu
caracter
ite
tent
ciya
wange
persona
span
enu
##ሞክራሲ
hawana
##mit
sale
promo
fina
##ungen
window
##nya
##jitokeza
dalla
bile
barcel
##ongozwa
سنة
##ichek
احد
##isao
61
##fara
ସୱ
##ጨረሻ
150
ମଖ
dhow
##anna
بم
pit
pequ
አሉ
##limali
##anno
##veel
acha
wamu
sudan
##бы
cd
##fr
##pian
tɔɔ
ayen
aikin
##als
##zaliwa
##giwa
shekaru
##inzi
pelos
drie
yasi
majira
የተሰ
ishi
##ቤተ
vɔ
kani
every
##በብ
##asili
satana
##uku
nguo
laca
##ኖሩ
nec
pali
##houd
walipo
content
wageni
demokrasia
##fen
##gens
##kil
##hɛ
##juda
##kpo
ከማ
studi
##tell
individu
##bos
##bie
##ናዊ
##ገራችን
lewen
lahatsoratra
kaya
አት
##ца
##emand
presidente
କଷ
wanyama
##kyn
amekuwa
ervaar
madawa
laakiin
msimamo
##cing
siyaasa
jean
##diwa
bax
##liyi
tata
minutes
##kə
balse
sla
##iman
ቅድ
heel
##kere
gus
##osema
lum
uliofanyika
##ondoa
oge
seker
##sing
##wada
lus
dopo
antes
vyema
وان
##ских
pirenena
auto
እዚ
##yii
##nen
##kapo
archive
##رض
ви
olw
##zawal
##gere
guda
##dit
gelede
vaa
##hlan
wataalamu
##يب
akina
mazuri
region
sheikh
##been
miz
ɛɛ
zitto
##deel
##фи
hazi
lor
ଏହା
sulu
bedo
yaba
በነ
##85
jiray
terra
##ሳሌ
##zacao
goboleed
kaga
kununua
##ating
lil
recon
##жи
dez
yawe
mwanaume
asegzawal
ድም
beto
##ስን
zana
اخر
##zigo
72
ngam
ዕድ
تت
##antsi
##መሰ
##say
poo
gudanar
uw
lala
##timo
nze
##ኮኖ
andi
ሊያ
bula
histor
bisa
ተቃ
##mon
setswana
##isia
pemba
##ନତର
dhaqa
##arie
##leyo
##leli
fos
##amela
kuhusiana
aqo
passa
khona
##ዛት
frequ
##taja
##voor
gbɔ
##bitisha
mgbe
atta
put
##ଦର
vila
anaa
##ረም
kiwanda
asia
ଭାରତ
eer
mark
##andisi
##kota
##cina
##ambuliaji
marafiki
nyen
##funi
importante
iisul
መደ
dy
##ongana
ግድ
##jaribu
##ይን
spel
jiachie
oka
##anyar
deuts
##вя
##boni
##gali
##anzi
kaimu
##unuzi
place
yɩ
##dɛ
both
obser
##koba
ଯୋଗ
##yim
##жа
pros
##vre
beca
##etso
2021
##ነትን
##alth
ହେବ
##enen
wasichana
rasi
kamusi
volgens
ungu
ድርጅት
situa
jalo
kyo
##woyo
##umini
sharci
ose
biso
##ungaji
##ልፍ
zaman
##bbe
especial
dankie
##gt
ପା
exe
##ании
##onder
ለሚ
bec
##hula
ibu
ubora
gbogbo
##ከራ
##افة
##ଖୟା
minis
goba
hamu
apps
##zet
tani
ፖለቲካ
##roulette
boq
iwapo
##ondoni
ተና
##itumia
የደ
niki
##xin
chatroulette
yos
##ድሞ
photo
vandag
መዝ
##شكل
ብለው
##tia
rede
##شا
wə
##anan
##boko
##ଶନ
##ariya
##ገደ
الز
kimo
##uba
##oota
cim
##fungo
##gna
nicht
utiliza
andri
##ቡብ
malipo
musi
hospital
robo
##iry
በው
୨୦
##ୀତ
hare
okuba
dika
mahitaji
barcelona
##rim
osi
mail
kitengo
latest
moa
buka
##ሳቸው
ይሆ
singa
ich
dent
iemand
skool
utendaji
##hɔ
athu
##met
##pol
ape
##yoyin
ውጤ
vad
kugira
##tou
oye
##ାହା
ɗi
##chuun
voel
##ጠት
##enster
ibrahim
##hud
tama
compu
እግዚአብሔር
programu
gewe
tisa
##ଜାର
ibada
##طا
##keer
musica
93
sud
kau
##ент
##faka
##cht
tog
##ላው
anay
kih
##fy
vwe
hano
ሁለ
የብ
##eren
##tali
grond
##araha
##lisho
ubo
##umiaji
asse
ከሆነ
##inye
##dze
vijijini
mc
ማድረግ
##tiga
araka
حتى
እንደተ
##onymo
##ፖርት
الري
bea
مح
regist
ሀገር
##enne
munhu
##କସ
##lor
##ichekesho
ninga
##fico
##vida
##maliza
##ବତ
##jy
##hasi
kuh
##gharibi
##ado
shangwe
qaranka
zilizosomwa
ans
american
days
اد
afrikaans
وق
amet
standard
miwili
kino
mabingwa
##arada
selfs
wenu
wagonjwa
انه
nes
ler
##стро
hande
##лся
ɓo
##ବାଦ
##mə
because
وهو
team
##fundisha
rating
amem
yakobo
##tz
##kole
##ingiza
እንዳይ
fim
ውድ
ዘይ
hatimaye
ombe
dog
የለም
vier
##ties
shɛ
angu
ያህል
jor
ପଡ
odi
##idh
ለተ
esco
wasiir
box
identi
بعض
جم
##dro
##би
upo
tswa
tw
rw
##fal
kamid
አገልግሎት
salamu
##فر
##atani
##embro
или
##ላዊ
##ሐፍ
yayin
ahayd
##changia
ମତୟ
iyyar
kulu
leave
1980
anno
sign
number
wami
hee
sco
kɛn
##lini
bring
nag
masoko
oldid
gbi
vali
በመሆኑ
##phen
##ራር
geld
العالم
lindi
wanaweza
majengo
አማራ
genera
sand
କଛ
opens
##ገሪቱ
##ንቋ
##jika
##pool
lug
docum
መግለጫ
መቀ
indrindra
jipya
vyote
ufugaji
undu
nei
kutokea
##tə
##kete
##riste
longo
##jun
mohammed
##pelo
socia
shaka
##uda
##uliwa
##тор
በአንድ
##layo
ulu
article
quel
kushinda
##vra
wuli
mawili
wonder
##up
fant
##maini
stud
##اح
namu
hop
teng
##це
##gə
##gine
ted
league
##waga
njalo
##الة
stem
khe
ufafan
mkakati
vinavyo
##ом
##ከብ
wenzake
sour
##ix
##ବନ
development
የሚሰ
guar
bomba
##likia
##hutu
ong
##lipa
##loof
inform
ଲାଗ
##zira
maxaa
ntu
cup
localiza
xukuumadda
current
##በትን
multi
##ileng
jong
##ገብ
##chita
kalunga
atraves
##ስታ
tags
zimene
tuhuma
watch
mav
##ador
kinondoni
last
bwo
hoteli
በማለት
kote
toda
ባህ
lii
##ury
irraa
lissu
##ishoni
misri
mwaki
kuimarisha
robert
cɛ
##bera
боль
ኃይ
vs
kitendo
cultura
huenda
rock
##ክተር
##ming
kuzingatia
اش
##dila
njema
##vio
uo
##nde
##etra
ufafanuzi
##atua
##ongozo
##ଚଚ
rese
##ета
liver
lawa
kuondoka
##55
bamu
cap
##ላክ
shafu
varios
ree
kukami
##yani
##don
pʋ
ለም
while
keessa
##cessi
naijiria
moses
##از
ሰላም
etsa
##ባይ
kulingana
kulevya
kane
##isya
kinyume
##77
ulikuwa
##elewa
gold
silaha
hevitra
unidos
##endelee
own
##idelik
##ꞌa
##نت
jɔ
flu
##dula
##rut
eky
blu
##diisa
##amee
agua
مثل
ብም
ijayo
89
##ፉት
че
kaas
##kya
gehad
##vant
##rus
ngayo
ውሳኔ
langua
73
magharibi
sodat
##sho
##jenga
lle
conser
##somaji
unter
##bita
##here
##ную
##beba
##amuziki
wowote
አጋ
mooi
vifo
##engele
##ongi
piny
job
labar
##hambi
magacaa
ይሄ
##ция
lip
ଆପଣ
jawa
180
zisi
soco
ድን
##gambo
politica
massa
cid
##yoka
redu
find
today
##ንታ
tira
##ካም
##araa
##amina
eram
አዋ
four
taron
##umie
##ାରା
##kwan
##anganyika
madaktari
owu
##ርነት
##ମା
stad
canada
kutengeneza
##porte
kpɛ
##jali
##ring
kli
##وز
መሠ
sani
record
meli
jerusalem
##bulu
pare
##fima
dias
##ଲଲ
edit
voda
ସଂଖୟା
##buri
baina
tsakanin
lun
##ପତ
ав
በኩል
finan
allaa
##gres
present
##ገቡ
##amaha
kulipa
sɩ
##emia
##tanto
michango
nʼ
bibele
igu
website
gesels
sami
trad
##ୋଜ
amniga
galay
binne
gedoen
lok
##ትም
የምን
madaxda
ijo
mex
zwe
omuntu
kumaliza
##ያዘ
head
##sta
dawla
omi
##anganya
ан
##atiwa
##shay
alha
oe
##piki
##vere
mwema
taage
bran
tangaza
calend
youtube
caso
##hand
ifi
##undomb
mong
dub
markaana
##vaka
##athe
pana
lye
simon
sena
alipokuwa
##cula
ziki
##xan
stuur
sw
yabo
للم
##lenga
##ناء
dura
galmu
ବେଳେ
በሙ
##ativo
##hila
nape
ле
gl
jang
xigeen
##ete
tag
ebyo
kujifunza
##ርቶ
##taki
تح
uzito
ጀምሮ
hlo
##ient
##طقة
##ление
ብለዋል
burundi
sea
##lau
kiungo
oda
##panda
akwai
rit
dalk
plu
duas
##lyn
##erte
##став
wanat
kuny
afunguka
##saday
kupokea
##masi
kang
yah
##eks
kada
chiuta
##ными
stor
##embo
galmudug
geita
##itisha
akh
କରଥଲେ
ጉባ
##hamas
sidebar
##ensi
wira
buku
etre
wii
verse
ни
bok
##undombinu
tipo
hia
raak
ewe
gem
item
moes
##ୟକ
bb
reeds
bol
aun
thusa
kukabiliana
##laba
му
##lər
acu
##angazaji
meno
##ystay
##ስና
linga
##logie
##ኑን
ଅଧକ
##geli
toerana
speel
ଲକଷ
##col
ambako
mikutano
##anin
aci
ይገባ
##ዓለም
ibyo
math
rug
bama
##ovao
amina
uweze
lol
zvi
ችግ
kudumu
##tie
##uses
mola
##jira
upe
የምት
being
pf
##kpɔ
nave
makonda
jaa
shirye
sheek
እንተ
##ፈር
kusababisha
##laahi
pichani
##lei
##ነጋ
##fuatilia
rin
kak
country
oun
zile
##ender
##unka
##ቂያ
baf
በህ
opsies
##gur
ruvuma
aum
gihe
tanto
abubu
uchambuzi
mava
jako
morena
podem
##icoes
##ତେ
maandalizi
የጥ
xvi
اول
lag
##chaa
disemba
caafima
##سية
uth
since
pano
##bw
yuko
بت
ozi
##ቦት
administr
ይዘ
lao
venster
tatta
##ney
maroela
zezi
kuye
daarvan
##lood
aber
##tada
##88
##antar
##ils
##ደራ
wai
congo
kuonyesha
lolote
dze
edward
##enna
igre
voices
ስለዚህ
leeyahay
liverpool
miundombinu
##von
solom
ley
plas
england
በታ
korea
eh
algu
mmu
##omina
jumatatu
sak
toek
##ቻቸው
ojo
tete
ɓɛ
##atoka
temperat
ony
##ned
vind
1994
wy
##kunda
##entemente
express
ди
naga
madiwani
##pishwa
besig
mvua
##video
piki
##ሰቡ
musul
##يك
##ых
##ጠቀም
##amay
##manuel
##toaji
##boa
mimba
izinto
lets
##onse
بد
##ссии
##pere
bada
ଜଲଲା
##kene
##istic
##kamu
1998
test
eso
intan
militar
siwo
apc
talla
##ются
centre
ସାମ
umwa
nene
ହେଉ
lowo
tari
##gne
##onymous
##ନନ
hela
1970
washiriki
lot
ner
##ጋት
possui
none
musu
torno
አሰ
##льз
kuacha
taf
##ାଜ
mikono
midi
يق
በሚል
movie
mek
97
##lard
##ot
logo
kukaa
ubunge
nooit
chine
tye
ያለውን
kod
wajibu
##whe
bako
##keli
praat
##isini
letu
እድ
##lizika
wanga
naho
ŋga
ку
ሁሉም
##sou
##94
hoor
##cad
katoliki
rufaa
park
kuandika
sey
akisa
uy
##ጡት
zambia
##ኒቨ
##tuu
liter
rasilimali
##lah
kambe
kilom
##mat
probeer
##ወቅ
vene
bixi
ଆଉ
##itude
##ደረግ
mwishoni
ନାହ
polo
##chimba
##ጎች
##volg
hot
##lished
##vatra
##pira
brand
abda
rut
tsarin
##rek
ngesi
eienskappe
##لب
##ريك
umur
غير
##ጊዜ
tsn
##ah
kuno
okanye
yawan
kubanga
1960
ነፃ
##бе
anch
##ined
##gasy
moontlik
qaba
very
saak
christian
bhi
dhambi
##mentos
mabe
##khona
indlela
phili
##େର
ox
sanad
##iram
##gta
##ብን
120
##gie
sano
ይሆናል
##itar
dele
anao
fita
##alɛ
niks
##ستخ
sham
mazu
kusimamia
##kasa
lile
equ
##dina
##ynaa
የመንግ
kwanini
sob
sekgoa
young
kukosa
major
##ለውን
##yib
yankin
egbe
##sə
nzu
##lier
##том
ባን
##ŋe
##lango
frank
kwaku
##jita
vibaya
uitge
ମାନ
##onk
କେନଦର
xafi
natuur
##katar
##ርሱ
##ገነ
##jɛ
askofu
labda
biri
ciudad
##gers
mno
bani
##tivo
official
muhammad
utoaji
ratiba
yidhi
የሀ
##fungu
##leko
kutsi
dae
usimamizi
##angaa
emu
dana
##gundua
##face
sous
##tsho
##ghan
anto
##colo
##ples
ገንዘብ
##phan
##ville
##ଳରେ
usta
ganin
تع
vodacom
volta
المع
1995
##rick
አማ
##kamata
ኃይል
ahadi
bɨ
uwan
lyk
##haal
sanda
foo
hoop
ici
ବହ
##kopɔn
cutar
ilo
andriaman
othman
mashine
##tumika
fli
hadithi
alɔ
##ୋଷ
emmanuel
ngoba
##ቀረ
alio
##llon
swan
fait
ሰዓት
ghe
ogh
sind
iliyopo
##utia
ቡድን
##ян
ትር
##bangi
tamko
kwangu
##isani
daawo
##wɛɛ
##ايل
argent
vel
##atta
##umwe
በብ
##رف
ኃላፊ
##መት
##work
kichwa
የሆኑ
##ثير
##eter
##pfu
##uman
нов
jay
deci
arewa
version
rei
gare
##ራው
bilaa
mbio
jire
old
terr
segunda
nung
##iding
##ите
academ
estre
malu
##ነግ
##ግኘት
አዳ
thata
essa
##ithu
inves
##сту
испо
toy
hakan
መንፈ
through
waji
ଭା
በሁ
##ተኞች
bintu
##halifu
та
bandari
##ልና
##የው
saab
yeso
##icia
68
vriende
maya
600
ej
halafu
aysan
kilo
cine
##ids
##dien
disco
##taba
ወጣ
janeiro
##poro
##beed
contribu
yupo
##inas
ولا
##pisho
martin
ɗo
wito
sei
hoose
pointi
caption
##baad
nucle
pye
takri
ሕዝ
##shukuru
farko
kika
##jadala
mwam
maandamano
##ancia
uji
በሕ
ero
zilizopo
haba
kutangaza
deri
mɛɛ
inyi
mbao
hasta
##urika
##لف
evan
watendaji
##kpe
three
عبد
##endera
prom
afi
اف
##virus
mpan
exper
##dun
##ganda
88
zonke
jibu
##livu
77
binti
##isela
cres
kono
ሰባት
hoog
##vera
kabi
ontvang
##itions
xaqii
wasaaraha
fito
xoog
kiislamu
mashirika
##kou
durch
point
##ያት
ዝር
igihe
መሆን
dont
bou
indo
jahr
##alin
heli
##gada
መሪ
##yuda
ସଚନା
አቅ
##zali
novo
##ruct
banna
tsu
jirani
##dya
ସମସତ
وع
##bt
distribu
##hid
ଶରୀ
webc
ubingwa
saka
##dea
gae
ሃገ
##bru
##rom
##ʋa
##ለጠ
bja
muuse
sex
wathi
kung
##ارك
ଥବା
مس
xarunta
bangi
ufisadi
pande
##fay
ogu
thomas
ዝግ
##ገኘው
paka
##eka
ор
sui
##ቅና
##arta
##bozi
tuki
184
txi
##pani
beskik
walla
lewer
pessoas
መብራ
##hie
ምክር
##isme
revolu
##ረጋገ
lic
kabili
##kuzi
##imam
gio
пра
recent
##ком
##atii
subst
bwan
##ansa
puo
kamish
fya
ଓଡଶ
የተለያዩ
jehovha
minister
##huu
##ungan
nsa
webcam
##ጋራ
##rista
##ድም
dhiba
ruwa
##cito
##erya
turki
semina
ilu
caasi
##walo
##ŋi
##lelwa
##zalendo
fala
##esabu
pay
pict
ଦେଶ
##hamba
press
wingi
sijui
##heli
ensi
aadan
fashion
sheekh
##zir
julius
madara
##ኛውም
##ʔa
kurudi
koon
direct
78
والت
##amana
##yed
##unya
##schat
##loop
chara
rose
antonio
##ንቲ
እንኳን
ufaransa
tiro
hisia
taima
##nem
tinha
mchango
##ାଏ
##ହନ
ndɔ
ukwa
##ashoo
umsebenzi
fen
##raai
benj
##ታደ
enqu
vere
##korwa
waislamu
##tseng
modo
##entaar
##fela
haina
##лько
nono
zur
нап
ajabu
69
sma
በግ
whatschat
dhaawa
##ба
##ondi
##arabu
##wale
sheegtay
naan
vertel
##ከፍ
milit
ተሰ
##kaan
beso
ushahidi
storie
##ଟଭ
mfanya
lele
በኢ
tai
были
##hul
##ጥሮ
ጥቅም
matumaini
##gila
كت
muf
ace
appro
nodig
utumishi
8c
classi
କାରଯୟ
##andro
doonaan
መጥ
ɔɔ
##kup
ተገ
##pima
barabar
ከምዝ
lady
##rado
ଜଣେ
miji
##anze
ዘለ
maslahi
መድረ
signific
ଉପରେ
ايضا
እጅግ
##zika
cod
##wag
modus
нача
woorde
##gina
raad
cri
lank
የሌ
abiria
##teur
сто
##eres
ለማስ
##سط
##yisa
gwamnati
##леи
dhanka
affairs
kaap
gebeur
xildhibaan
##ጋፍ
ambi
##pie
##press
##ordo
syria
howe
##tta
##madu
##ሳተ
tanana
##shen
kooxda
questo
##صف
associ
nado
##cam
##በቃ
##ደርግ
diens
ይሁን
##ላችሁ
nasa
##የሱስ
##ዋታ
ዓይነት
zeova
ኢትዮጵያዊ
universi
lay
##fee
##kire
ovo
##liska
tm
says
አለመ
isaanii
democr
рабо
kham
leb
bahari
kurasa
mbola
dil
before
##ଙକା
1991
realiza
ubwo
##ጠይ
79
kommentaar
##utu
##hale
barna
varias
##att
##зыва
kuuza
tɛɛ
##lizo
##kisi
vipi
##fuɛ
ባይ
kuzungumza
liefde
##ulos
##erig
kuanzisha
nende
bɩ
kuondoa
moka
исто
ات
##hughulikia
የኦሮ
አንዳ
ለምን
guy
##ietjie
##itii
rayu
vh
##اريخ
north
##itika
mkewe
##pasi
mapya
povo
dya
sabon
କୋ
تش
يع
##para
да
ew
jal
##ብት
##ኮኖሚ
still
chɛ
##imwe
##ମତ
marco
##erwa
##ፈት
bakin
##fas
##keb
reser
lingua
##ርስቶ
viti
##ናው
itakayo
nyaa
cour
##lembe
makubali
##aladda
явля
##дар
ronal
было
##tive
daba
##less
##ʼo
##ነገ
የተባ
##ŋu
92
##جة
##kuliwa
bidi
##mina
zube
aqu
wou
vict
aɖe
ንም
blogger
mazao
##dian
##silisha
##sam
kabaka
##ɔm
muth
##mand
yid
waba
##guesia
yal
مو
hora
richard
teve
የለ
tilma
harusi
##ቅስቃ
imper
education
##oneka
kubadi
##fil
sauran
##sɩ
mfupi
makubaliano
jiti
##ደረገው
zoo
njo
sikiliza
viol
mitatu
130
mzima
abana
taw
##weli
kukuza
##лее
اج
##ምጃ
ets
በርካታ
dang
ስን
requ
barabarani
mda
تن
85
fari
##ጠቅ
##esaka
##عات
##kileyo
nanga
kupanda
portugal
wadogo
##iray
##ingana
emo
waxayna
##fumu
gac
##pto
kukutana
process
##kubaliana
propos
isagoo
##bri
##keni
jamani
kamba
yaye
ଭବନେଶୱର
late
kongo
nadat
ndenge
gener
ukun
yange
xildhiba
light
garo
##jir
##zoni
##ои
christus
mjumbe
mbona
##ሰቦች
بان
aria
mundia
injili
fadhi
campo
##ery
hofu
##ନସ
paises
guddiga
##ита
champi
mga
wanam
port
##elfde
metro
##orr
koku
kendo
compet
wato
baahan
vava
myaka
##wakilishi
##self
##bot
##wiri
mondo
##dui
##ቆጣ
бу
##gati
ተናግ
tia
የራ
##dooda
lokhu
nitori
gaari
mtazamo
veral
##khan
የዘ
##кра
пу
kuwo
nation
ngom
mɩ
areas
##ቅስቃሴ
وهي
avi
##telo
isan
matsayin
##zida
##imbaji
qala
child
ghana
dieselfde
execu
muddo
##yamba
sɔɔ
vul
##listi
##onea
change
ትን
walivyo
##ɣi
gudaha
lini
kpaa
##estina
leur
እንግ
motor
qaban
##fikisha
##fici
kupewa
gt
moot
##bini
##pelekea
think
##iten
pep
doonaa
сре
##руп
steeds
nilikuwa
##ambulisho
tʋ
waje
tota
##лось
tsaro
profes
##bam
tamba
neman
ፍርድ
##kaji
полу
ocu
nɛn
muhimbili
##lede
natural
##hamiaji
mobile
ukaguzi
ntha
##ቸዉ
ngwen
fifa
##ካል
время
emir
writ
##uela
molao
uvuvi
kuwaas
particular
festi
##cala
baibolo
akawa
nabad
##fundo
sambamba
##بع
##ences
dhinac
አባላት
ସଥାନ
tend
dare
##бли
ولك
መብራቶች
enge
kwuru
bybel
##wig
##ከለ
##wete
##رح
wuxu
kusikiliza
gou
##gogo
menos
mtihani
ith
nzo
exer
##ህአዴግ
kagame
blad
waliyo
nenda
##fafanua
1997
leon
kumbi
##phy
##acha
introdu
##sela
##sk
##zit
##enze
utakuwa
undani
imwe
garga
maxamu
##key
##يلة
##ባዊ
##ɖu
mshambuliaji
##ስር
##piti
airtel
##atshe
##beeld
barani
muy
malagasy
moya
ainsi
mavazi
##ses
kowa
gone
dhamana
##lling
fic
##ጭት
##loni
##irie
indien
necess
articles
w0
ayay
hadal
##chaguliwa
makamp
lem
cle
jitihada
##edu
wawa
ngumu
##ሄድ
መሰረት
watakao
##gezo
freguesia
##cci
toro
##ዛሬ
money
hip
የነበሩ
##jas
ମେ
zwa
በፍ
##ilwe
yə
ሲል
##twe
##ekana
ito
tigo
kuchangia
##chezwa
cika
haha
dalili
jumatano
atakuwa
million
##ደን
gidan
##stra
vino
ngenxa
##num
##qua
bietjie
conqu
##etolewa
alfajiri
zaa
einer
##buga
ጉዳዮች
##arar
##ችው
mareykanka
##ାଡ
concer
mwingi
##ላጊ
akpa
eniyan
namo
hoof
##roni
eru
joog
образ
lua
madhara
##leza
doorashoo
labari
muthu
byi
##ሁኑ
johannes
୧୦
isiyo
##ishin
kiume
beteken
white
##pelekwa
##dou
##herya
##ଲଲୀ
1996
##karibisha
upya
priva
##zimika
##atief
wys
mkali
cewar
wolo
##вои
##اك
diff
bola
##anni
sovie
##but
yama
upatikana
##ungufu
##yinza
epa
1992
verske
sija
የባ
wei
##onn
daŋ
tuko
ramadhani
##ዮም
kutambua
##kataa
##cili
ajo
seria
harge
##hab
##pinga
lino
kuwapa
##ononi
yohana
organis
wenz
##ሰን
##sm
ቋንቋ
##ረድ
iw
ଆକର
ብሔ
adeeg
##ርሲ
##dhe
extra
##saak
اخ
ukawa
##teer
oos
wau
wanaj
brazil
##ዳንት
##ዘጋጀ
lisi
mim
incre
eles
cola
adamu
##ቅድ
opge
bog
superi
mutan
##tlhe
hakimu
ግንኙ
عدد
##ୀନ
igreja
hwe
hɔn
አቀፍ
decada
##vuze
mazishi
australia
enquanto
##ଟେ
isaan
##ትር
##ቀጥ
health
gwo
##tur
upatikanaji
##inisha
chumba
chuma
##ظم
##zuka
##diya
kwaye
model
##lezi
anima
##лась
##ችንን
tanganyika
ord
##hibe
safu
##зна
vyan
##قط
kae
kulinda
fus
bud
goli
tonga
duka
##cks
##ባብ
ambu
ujao
ତେବେ
todas
soft
ବଲ
makampuni
baby
qul
##ambulisha
##ወሓት
مدينة
##inji
peu
hanyar
pdp
ون
##ଚନ
buil
denomina
bekend
##وى
niku
ilala
ହଜାର
##pam
##ርያም
##53
tsama
yakhe
##fupi
##uye
wakim
nyɩ
ndɛ
chache
boa
abraham
ବସ
fɛɛ
resta
كب
afe
##pilo
kufuata
##ша
dedi
##رد
iphe
mety
masharti
зна
kwes
##sions
besluit
lego
however
alhamisi
morte
##isaka
କରଛ
sempre
ጥሩ
##حر
tamaa
gua
comuni
kasu
joshua
wagombea
tanzani
koni
bɑ
##ቀመ
ବଜେ
maca
muene
##ብረተ
##ском
misha
مست
kufun
እንቅስቃሴ
espan
به
##امة
kuendeleza
satan
degli
wanasema
##band
followers
yerusalemu
woku
##yy
nua
zisizo
hogga
timote
uju
##kutwa
donald
pita
waweze
irra
author
wase
ngem
rev
bibli
ment
kupita
kimoja
artikel
computer
##letsa
town
##buru
##ска
resid
wati
hukumu
rena
otutu
##efu
##dilika
##oyo
guddoomiyaha
samar
fila
##jengwa
##от
##esheni
service
nder
##vem
tone
ይመስ
reco
tale
kubo
##ግና
##52
nnyo
muhiim
isso
##cie
##ши
##bate
##shinda
##wisha
transl
##lak
gwan
muuq
ganac
مد
conver
frances
ode
nur
izin
##hinta
##nye
jezu
##ሮም
radi
daktari
akar
ontho
##lemavu
abas
##ቻል
bewe
ngono
nsu
##diens
##tement
peut
##ambira
nic
andriamanitra
onts
sojo
ولكن
##ያው
wanaag
##ская
bho
rata
##qhu
rond
##imbiliya
sommer
##гда
##96
##mwa
kate
fah
##vou
akisema
kort
##athiri
##pm
dagaalka
##fanana
mawe
##mai
фи
tabbatar
maxamuud
dul
##hye
iii
##ዛዝ
rukwa
##esto
##tet
hinkwa
##ማን
adama
hoos
please
vijiji
lahay
vbe
ብርሃን
majadiliano
bany
##geza
##dc
##wakilisha
accord
uum
tic
anci
ovi
የል
##aks
መነ
##ብራ
regu
nafuu
ndoto
wetin
verge
solu
##kurasa
##ምንት
##wood
##pole
sanar
kuthi
##kesa
##ଡା
fomba
special
##chaft
franco
maalin
niile
unajua
##nay
##cific
cono
agric
ዋጋ
##لاث
##кои
language
mgogoro
samaki
sya
niba
##asheria
soomaalida
##83
cant
##ctive
##annoo
aussi
##inos
##cus
mafi
yohane
##laho
##onina
chur
ስት
khukh
geskie
ልብ
could
abandi
iria
civil
ruu
##asaidia
mastaa
##kken
##በራዊ
cabdul
nyaka
##kwembu
##wart
##пе
luu
bayana
deta
##wenza
mchungaji
##read
##bility
jk
firenena
##ይማኖት
##pom
##asiriamali
economia
dɔn
aqoon
800
nzambe
sambu
shafin
joao
##endlela
##kot
##ያዝ
onthou
tanesco
свя
##ማርኛ
jaaka
kuvu
##ሥት
matunda
##ster
ndivyo
mikakati
mvu
##ጀል
##ቋል
##cta
##hera
##yihiin
ба
enzi
karaa
propr
umun
##рои
вер
wawakilishi
bande
##araan
dogo
polisie
desc
##angano
##يش
##kui
anan
xir
mapa
##lands
filo
##undwa
msaidizi
##werp
##erali
##yis
bima
##ሜን
kes
##kose
yace
##ital
nc
##ከሰ
##hatra
им
##ensa
ingia
known
mura
geneem
kre
krist
اع
depar
rome
##ንተ
aibu
yamu
porto
misaada
##baro
የገ
weerar
sout
lara
##ufa
yakho
##hoaka
tydens
##ሄር
##dimo
dhexe
##ambulizi
kora
pinda
mussa
##род
##zindua
muga
ivyo
እንዳለ
muitos
vikao
ପାର
ቤቱ
kudhibiti
zubeiry
ପରୀ
mkononi
nut
##liwe
##lh
##ሳዊ
##bhu
##ambiwa
##dey
garin
mzazi
##unifu
family
##paji
onderste
##əŋ
ꞌba
была
##baini
##mio
care
komp
beho
##zvo
yave
##wus
tecn
amen
##joro
##ondra
modern
ለዚህ
zima
numa
nalo
font
mashu
##ଷଠ
mamp
diba
dhahabu
እንድ
warbi
##ደርጉ
campe
##zha
##jam
##تها
##وة
hoek
woko
mundial
##endekezo
alicho
##kundu
musta
##arias
ɓi
angi
umar
##ова
eba
rya
اص
aliongeza
##unci
kanga
sever
cond
nala
ville
jkt
reviewed
ዘሎ
wakala
##ogo
principalmente
سب
dip
##ደጋ
kand
dheer
verstaan
kt
fem
##ambula
regte
famp
##his
kasance
vijim
vale
##ዲህ
dhinaca
eet
municipal
shekarar
verbind
wordpress
rc
devido
bangwe
ይችላሉ
deli
meto
##leme
##urugu
loop
reken
87
አለበት
##ይይት
##stel
##wuli
dhis
اكثر
##ምላ
including
shirin
##umana
ମୋଟ
blogspot
##keng
taji
مج
فان
103
##ዝር
original
unguja
mbwa
##ሳል
ሲሉ
zɛ
lesi
jua
##ithe
କହଛନତ
##fuma
##genzi
vijimambo
ପଲ
##zanga
ହୋଇଛ
federal
mfalme
##неи
##zala
oce
pasa
ilipo
harakati
##ዕራ
eje
##gestel
##jima
mans
lul
ego
ababa
##elezwa
happy
utili
##asta
##gri
stato
hwa
maxkama
##غير
##ାଦ
##tero
основ
geli
mwakilishi
##pola
sene
ሃገር
በተጨማሪ
condu
corre
abasi
kiro
##dle
extre
ରହଛ
##ቋም
##itr
wakhe
py
##ission
##loor
phala
##ሮችን
##ints
maki
zavatra
ቤቶች
called
##aga
inni
##ስራ
nngwe
##sas
arag
fond
በራ
##woon
kupinga
mig
yella
ጉባኤ
##esar
##ତରେ
##vele
##isee
##କରେ
spir
ˈˈ
gama
##лав
##ችሉ
huja
مش
##ርክ
ପଜ
##xay
ଆକରାନତ
makamba
kgotsa
##କଷର
kipya
atoa
nazo
afrikan
##endwa
omul
##ሻሻ
тер
##anaya
##46
baku
fif
##hutubia
##yuta
##kn
##issan
itse
waxbar
against
mage
##ሊዝ
woon
iliyofanyika
##ଥାଏ
geval
ntch
style
yis
enti
ayaan
##isii
##ارات
cii
vingi
makambo
galbeed
koe
##wika
##vimento
##atsa
ziada
internacional
obj
inten
ɔwɔ
uzi
hanga
ነቲ
##ነስ
አስተዳደር
##lismo
ያልተ
##kumb
mhandisi
##phila
yeel
dhax
1993
kutani
obra
inaan
россии
kufungua
ianao
neema
dambee
ogo
phi
ଆରମ
##rany
dawladda
saraaki
##waad
##uzulu
ተዋ
funda
zilizopita
celu
anatin
##mbizi
wastani
##رم
فيها
##anee
##inam
እም
##tacao
##hre
kuso
mfumu
yehovha
nshi
source
##ɛmɛ
##ibuka
በበ
##onene
dhar
በሀ
ድጋፍ
drc
alors
mmi
hoje
autres
##ላን
##urage
##jen
ahmed
bong
##soa
pom
diyaara
republic
wurin
##landu
donde
lewens
##ዎን
ilaal
##ወስ
aanu
##saba
mst
ተብሎ
evolu
##hitra
##pale
tawa
mpanao
##letea
kupigwa
lexi
##nar
xala
wixii
pul
jump
##umikia
##pti
وح
anali
##ጣል
##wwan
tiketi
asɛm
kupoteza
kidi
road
tashi
tol
nigba
ሀገ
xigeenka
costa
##cacao
rehefa
##eeya
ተማሪ
##ondoo
##eras
##ርግ
##tando
visit
algumas
##ሁንም
##رات
##hora
በቅር
effe
##ነሱ
##ቡን
##tante
condi
alaa
ከዚያ
those
wac
ujehova
##95
ametoa
forum
ngozi
##kla
##atuma
##anos
ango
##frika
250
xikwembu
##ኽእ
meya
famili
##tida
davidi
yele
##itokea
ninge
keessaa
##uriwa
##luka
pelu
##andle
nau
ተግባር
##iu
commer
reino
##qul
oyi
plane
##zɛ
##fied
ያሳ
##ርስቶስ
yone
##dering
sɔn
የመጀመሪያ
samuel
deus
sika
##ଣଣ
##usho
seen
##vee
shafukan
##kabidhiwa
ashi
wararka
maliasili
##ورية
anth
git
kuyo
##waar
##kalunga
viwango
blan
nab
መመ
##wuma
ክት
مق
xx
##ጠራ
etc
ጨዋታ
appe
jukumu
sino
kubu
##ሎጂ
يمكن
iliy
company
##kima
bau
##enes
anal
urambazaji
##orial
exemplo
##mann
wakili
squ
##hisa
niwa
representa
zoku
فت
##sey
taari
##thing
aam
ግለ
ሚሊዮን
ଆରମଭ
mambu
##fit
##wukwo
mny
##vum
##kita
##କାଶ
cyane
kweni
uke
##بات
##лы
##horo
##alo
##100
navigation
ndlela
wanahabari
##ركز
kase
##aniya
произ
familie
##cur
##dishwa
##kasi
agosto
##жд
society
uongo
cole
nɔɔ
##nga
##put
brasileiro
##hitajika
suma
##yang
slegs
abit
##nun
sn
##adan
ደን
##osefu
##ଥମ
ngati
nawo
xisbiga
support
abdallah
tundu
pod
##vavy
##dert
verder
##ଚାର
waɗ
ɖɩ
##osho
ll
##engeti
ondersteun
sms
lowu
ivi
ltd
##kiriza
بح
unapo
##komo
alto
mosa
##ган
okh
ኢትዮጵያውያን
##tiki
nisy
##nah
больш
አጥ
tis
ket
##ay
ruo
pdf
dɔɔ
tafadhali
nahan
##kkel
መሆ
jis
capita
rod
atua
име
wanapo
friend
ва
የኮ
##له
another
ዩኒቨ
abuja
mbegu
##mp
comune
uur
##tand
##eta
vola
bhe
ያሉት
cen
cumar
impa
ነጻ
##ipa
afu
qarax
##banye
taasi
##uele
katu
okwu
ଗୋଟ
mexico
vezes
pont
rashin
##ija
tax
wama
##hayo
##peli
kl
sugan
##icamente
kant
mahad
distrito
contem
##ሠራ
haija
mise
##шен
htt
kongamano
##gement
##unganisha
dua
category
##به
athari
ማሳ
phil
##lilo
##yile
##ʋn
##kamilika
mpit
##unza
commons
የሚለው
##chana
qodo
dhaca
ishara
phu
qal
##tana
kudai
kamfan
alta
advent
madarakani
##ilig
использ
##anzishwa
ለውጥ
##pios
እዚህ
محمد
##uruki
##fon
qabtay
jaco
##fidi
kuzaliwa
##disa
nool
key
leta
doorashooyinka
isaya
muso
##cela
##lule
##ሃት
warbaa
exten
##chan
##isheni
##fikiria
partido
okutu
okhu
baŋ
muma
በአዲስ
##icion
foot
##መለከ
tito
##jenge
##letjies
##jos
americ
baki
sku
##imiento
tru
werden
##gize
kpu
ft
soli
hebu
caus
##лек
##ରୋଧ
azu
lasa
ndetse
କଲେ
##harakati
##ai
rhe
howl
##anolo
الاست
##luu
##jile
##ника
##hira
وك
##inin
small
##ቹን
##atokana
nawu
##ganya
qabu
dentro
yala
nell
kwana
mumu
meet
somo
በሙሉ
##funze
mapambano
saabsan
##loma
ማኅ
vehi
tay
taga
##ሶች
##ተት
##hoes
አሸ
bonyeza
##esis
komb
arm
##ስቴ
وف
mitano
አሜሪካ
##ከላከ
addu
mɛi
madaraka
##ungs
##sien
ለማድረግ
saudi
vula
uc
##ilar
ታላ
##lina
##zzo
inavyo
##ondr
##giri
coronavirus
owe
##pania
fine
##naha
apar
bont
##gado
wanasiasa
republica
network
migogoro
vyakula
መልኩ
oha
لي
naz
egy
afaan
##ddu
bondia
##وان
nemi
##letse
##сте
beter
waali
vero
eco
##jadili
cis
##ላቸውን
##yaki
sufi
##koma
##ସର
kazini
niye
ሺህ
krag
##вет
ବଦଧ
##tuka
ntlha
##nda
##wego
##verse
##େଲ
biyya
common
einde
techno
##nea
harkokin
essere
maw
##huuri
mban
staat
##ስብ
##pond
ɖa
hawezi
##uswa
##isye
kwu
kutembelea
kizazi
ulemavu
##hudhuria
minder
mute
##gbu
load
##ሙን
book
##zvi
dari
##ገት
amar
sang
nazi
##82
አለው
##fula
embora
kuro
አፍሪካ
sif
##bina
mwanadamu
redio
##ايية
##baba
arte
##ሙያ
zanga
vituko
mashtaka
አፍ
##ambaa
##ጠብ
##مال
nij
baro
control
raho
encontra
በረ
##anayo
تو
##lamiko
eliza
##гла
colo
አይነት
experi
nth
ስል
##urg
##zaka
suluhu
##oshiriki
tongana
paro
okut
arga
continue
##kezwa
##ሯል
rak
alitoa
የውጭ
population
bayar
ገበ
ପହ
kutumika
##ርሲቲ
አሁንም
qoys
maalim
makan
kupa
144
pedro
##orun
ningi
##зд
ተጨማሪ
##kʉ
##jara
##طي
ሕግ
ይሰ
##атель
desenvolvimento
urusi
hong
hang
##heen
washindi
elfu
ext
##mento
vig
##bene
principais
babil
ontwi
taha
vurugu
##66
የነበረው
##wisa
keenya
##graphi
sakama
mbing
##ይታ
early
wuxuuna
moi
emer
akaba
##ские
lors
reci
##iseera
need
bude
##ውሞ
##ʼu
ይህም
السل
##ارس
machapisho
studio
serengeti
saar
##usam
ንጉ
##ቀል
beskikbaar
gape
kukata
waxaad
kru
fotoana
##erto
##ml
ufan
ps130
ገብ
jiro
##vulana
اث
acordo
ମଧୟରେ
imewekwa
##ское
##chagua
መም
unavyo
አደጋ
ntango
mart
##ላሽ
mnamo
##81
ix
##zgi
##urwa
##amma
##andar
past
muluku
nkpo
masaa
##cionais
dint
wafuasi
services
presente
##koms
malalamiko
##ambila
cuando
nyinaa
police
gwamnan
##umbua
apare
wakubwa
sadde
##ነበር
guri
dita
##غة
##ui
##gum
colon
tuku
noti
##utse
##ጠል
ichi
##kwu
calendar
rema
toekoms
##ዚሁ
swala
expres
##ወር
##mail
##medi
isugu
doel
##kunde
##ላር
##ଆର
mema
##plan
##atima
##ituma
wird
عمل
##fra
##ለኝ
lado
temeke
xilka
##лич
##rict
mtima
ndə
##onyesho
wia
ପରବର
mwami
ଲେ
ନରବା
አስተያ
##ጠኛ
##سلام
##kang
franc
##mana
candi
diferentes
century
##roso
##forme
soni
views
mae
##entra
mulimu
##gend
##ining
##በታል
1950
##urta
በማድረግ
ገለ
outro
responsa
kero
jur
##tua
hama
baali
ferro
gedag
card
oficial
##asaa
nungungulu
እውን
maziwa
dauki
wasomaji
whe
##mag
agricult
dhalin
##lya
ትልቅ
ŋkɛ
##uluka
##wenda
jamhuuri
##ابة
nwe
وس
ଚା
المح
##сов
kɔnɔ
banaa
gano
shan
sheegeen
isiraeli
corres
mwanga
zɔ
diyi
fata
##anaka
imara
handel
bukoba
##atili
kete
samia
manyan
##itin
sannan
single
##hura
##humu
##db
meesha
nkhani
##zom
mwanamuziki
##gizaji
##mir
га
empa
##ими
##hip
causa
ነዉ
የሰው
hawaku
abali
##soo
aje
dhashay
mwari
prot
council
kikundi
##isoma
##foɔ
gegee
البل
##ቃሚ
center
##دام
bose
##iko
utakao
##وعة
oud
##ناك
enɛ
mstari
tabi
##ische
nature
jiraan
##berto
##yem
ufa
##onom
##ላማዊ
kivu
ଏବେ
phakathi
##kelezwa
oeste
kamata
koonfur
safar
ps020
dhammaan
information
should
gul
##лан
jeova
##ensie
wina
##amiwa
festival
wapiga
##vate
ልጆች
ihu
##امل
##ществ
basu
kimya
maonyesho
их
secur
ephe
друг
heshiis
##የን
କଟକ
##pora
##zzi
##pli
gospel
መሠረት
موس
quar
hɛn
##ଙକର
##ክለ
ገጽ
oder
riki
##kalu
abubuwan
milele
##anzisha
##ency
##ዘን
##ضع
المج
vim
##tafuta
boy
ogwu
yaliy
iyada
horumar
##fol
##iye
መጽሐፍ
quanto
ፖሊስ
skry
beki
ወንድ
artis
programa
misiri
jela
makali
akit
kufungwa
mahoji
osu
##መለስ
quad
##choche
##hui
##anuel
songwe
sumu
rid
##indani
የተለ
ireny
alli
contr
kaku
inasema
##eruhi
besoek
cun
##ዳጅ
##дин
enig
wadda
ግንኙነት
malee
sule
##lolo
varie
የሃ
##limiana
eshi
usafi
##fata
ତାର
##рова
software
waxyaa
dimo
akiongea
##gge
six
jaama
bishi
##ቀም
policy
busa
dhaawac
##gno
##wende
mede
##ʼi
##cky
ronaldo
envir
##ቂት
bonke
mwanda
mjadala
kuandaa
##лож
result
vyao
##uss
አካል
gaad
secret
tawe
xaa
alternatief
تحت
vandu
visa
##ike
##zɔ
##sala
##petra
ofisini
##ୟର
kipe
nnyin
deni
abuba
الجن
##ଗରେ
ባል
umepa
tafsiri
##stand
shindano
rou
chineke
##joo
yeesu
##ха
tsohon
gekom
tuba
mahojiano
##yanga
kamishna
abaana
lak
አህ
icyo
qaran
tusa
banga
الال
bl
##kare
##ungula
ucio
mla
tarde
##yaga
teoria
##dho
akis
kito
##ନତା
مص
alis
##tste
##يمة
ils
xilli
##toota
mkapa
##бран
right
karume
geword
##vado
onwe
prov
estava
pierre
በል
jour
የሚገኙ
ଅର
lev
amat
unc
##dood
ultimo
atiri
##phone
sue
ngwe
gang
መሳ
##yila
xeer
##ptember
##baga
exam
mekaar
mbeni
yang
gla
akat
titu
atle
##thetho
##vala
wasiwasi
##wenu
prec
##ву
caalamka
msu
voorval
##49
##semble
##pangwa
gesien
ica
نفس
መድ
ngumi
fikra
##bbo
##yiwa
##ጠሩ
##lusi
##ኾነ
kulikuwa
sens
instrum
dhigay
gomme
qoraal
series
##wenga
walba
የፌ
gya
birth
ድርጅቶች
لان
nyakati
##ilwa
عم
слу
##መለከተ
መልካም
gehoor
700
boe
estao
abanye
ወገ
interes
##sikiliza
ɔmɛ
##hlaba
##عتبر
rekodi
bincike
ଆଇ
##atre
##51
##tsh
nwu
nba
الرا
nile
lif
laki
##pta
##vali
##ካባቢ
bydra
##سبب
##ksie
##mond
kadha
##teriormente
joto
eint
wanavyo
##maya
ରପ
##ገናኛ
##maka
##nel
اغ
82
tempor
mishahara
##inha
hl
##sf
tere
ስለሆነ
ቀደም
misingi
kumpa
##fanikisha
ɗe
baha
pembe
##bei
##بية
##fili
msichana
kalenda
##jakana
titi
##pher
የፍ
##ferred
##beth
dowlada
verd
nyin
##istoria
kaf
ଘର
sran
tiri
trata
##eder
fino
vho
##jadiliano
passou
##ggio
etait
##zera
##uzwa
satria
##eshindwa
##wasa
вои
##ners
tawi
ወጥ
sebe
mass
##dali
depart
hamwe
##zine
sna
mipaka
##rah
cou
gyi
loro
chann
##ምህር
##cit
##erno
##kool
pictures
##phandle
large
gudoomi
##jis
siyaas
##mao
##hamasisha
eas
##anguka
louis
kimi
publish
uteuzi
havia
##dzo
plant
iin
የሞ
intel
iŋ
vime
mabaya
embar
ସେହ
በተለያዩ
anataka
bolela
##wone
remo
##ጠቃላይ
ፍላ
nadhani
production
አድርጎ
የኤ
skom
feli
##fadhili
##щен
ግል
kufanikiwa
paku
##itre
ስርዓት
النا
moe
አክ
##ቆም
yasiyo
germ
sada
didi
bestaan
saaray
relati
magan
አፈ
avek
osh
uwanjani
##estre
depu
ርዕ
гра
pya
##тическ
tusi
otros
cn
ከነ
କରନତ
hazina
##ደግ
1989
francisco
##pand
ከሰ
##ظام
mayor
kʉ
dou
waumini
እርምጃ
lezi
rue
kuendesha
##bly
##dahay
ଅନୟ
chen
##ବେଳେ
##puru
##laza
bron
victoria
110
manga
unge
estas
ምል
yoh
##قية
nego
##kant
nyonso
members
##dile
abril
ተናግረዋል
kini
pays
abaa
##bilidade
maundu
hargeysa
issa
peke
##ስተኛ
nwan
##inyaka
##zt
alit
tornou
##yobozi
##ውሮ
dilay
midoo
##цы
kuit
##anci
меж
history
wanaagsan
women
biixi
faru
ନକ
monte
creative
tbc
##anca
##xaad
vinthu
uzoefu
##dayo
metal
acco
hoga
##phia
##ነትና
##କାରୀ
ፈቃ
niya
compr
joe
aarde
##ନର
niko
halkaas
##genda
kompyuta
kupe
##ፍን
alɛ
##rico
esse
soku
fleva
nyaraka
##ardes
onderwys
itv
estabele
ሓደ
ግም
klo
uwezekano
##enie
##vic
##chos
marufuku
##xile
anka
cic
##ትል
gaaray
##جد
ବଡ
عليه
lewis
yakwe
vulu
salum
##athirika
##eman
german
##welo
##gye
olim
##jesha
dass
##سلم
##gari
kuenda
muitas
mine
sepetu
ସହତ
##tsy
senti
##vina
sufiani
aspe
sɛn
kwikala
sanna
gadi
mlima
oti
mour
feta
jare
##side
cra
wapenzi
##طر
##tajwa
ଟଙକା
different
rund
huwezi
##kunga
##ppo
attribu
##еиств
##brit
kome
aak
መው
magana
imyaka
muchi
manana
##ctos
naona
skommel
##fung
##يني
##haribu
##bl
##zes
yay
vaku
rights
avuga
##ides
ସେକସ
energia
ରାଜୟରେ
wasaare
songea
swin
vaovao
##solu
foundation
kuth
##hloko
للا
##ୟମନତରୀ
mbinguni
clin
##amiento
ሆነው
ଚହନ
##etta
hakuwa
##enle
##iden
gevolg
rekening
##ht
##ጉም
##yoyi
portugu
лю
##ربي
##ordin
##kuna
tamu
##ተና
ክን
each
##اث
##zeni
nivel
medio
вла
1999
##elwe
ଏଥ
##kino
ቢሆንም
##sten
uhai
verwys
##elezea
njeng
##koop
ኮሚቴ
እምነት
xana
##heer
wachache
japo
##ደረሰ
kusoo
ማስተ
nanao
kinana
apresenta
##athmini
seja
##kabiliwa
ከወ
laaste
kukwa
ishir
##ardo
sche
##zamwa
proprio
karia
##lado
##jaar
miili
letsatsi
ubalozi
##veu
##adas
ይልቅ
kafin
##ومة
የቆ
pula
order
ଉତ
prag
##cli
mateo
ବଶ
##ahidi
wis
father
##ባታ
##pues
bhu
سل
balan
vichekesho
ଜନ
amirka
##gizo
vroue
escrit
atakaye
##itio
kunga
##orian
##mak
##useen
መጠን
ይገባል
eton
ngaa
beni
densi
መታ
kulanka
ወረ
##chimbaji
sakamakon
wut
khilaa
##କଙକ
dhim
pea
muj
noqon
##وار
83
genoeg
##siya
mboka
tue
ପରଶ
##ethi
normal
warbaahinta
ጨምሮ
##semaji
seis
يوم
kaduna
объ
##ieleza
fred
##73
napenda
luku
chem
edo
##amaki
##giye
##khale
ustawi
food
##oes
##rich
vun
ngum
##khon
##45
المس
despues
ish
pois
processo
ያላቸው
geluk
##99
junto
##enca
leni
shetani
##gore
gab
##bido
обла
##wangu
hers
jac
simi
ପକଷର
##potea
conte
bosi
##ብኝ
##ንካ
##wandi
waayo
dawu
##isaidia
##dudu
market
##pers
hatrany
##jji
መፍት
አንዳንድ
##fwe
malaika
dani
କୋଟ
buga
reading
##ieurs
##dur
bant
1914
mutahaba
ነጥ
vich
##pigano
limited
##bedo
##ppi
magumu
booliska
cual
mush
ipp
##ረተ
##wom
ዶላር
##tv
ngele
cheka
msiba
warar
sanya
obwa
wandu
ishirini
ନରବାଚନ
##ከታ
heri
##нен
мож
ngalo
##enger
bubu
اق
##godi
agamba
##wapo
اما
igihugu
cyangwa
المست
kuongoza
bano
kennis
daarom
##zas
##raine
##ovo
чис
cus
mapigano
ነበረ
apesar
aju
##tionary
meza
lalana
zari
featured
##zile
##view
##qaal
##ክምና
##pila
trek
joh
einem
tweede
agha
filoso
##yaal
##ሱም
pikipiki
igba
hasi
meio
##krani
waliin
አመት
##nɩ
##umivu
##ሳን
kuzo
bill
russia
##ɨn
##skap
የካ
hapana
ushirika
njani
msha
##ጀት
ସା
##ross
ମାର
amis
nax
tokony
fisi
ଦଇ
سن
##vili
##ote
ahayn
##бря
mteja
ande
hof
##حو
##tamente
haji
##72
alimwi
##onato
የአማራ
##yatta
##enos
##fuka
puede
ମନ
anapo
mahi
molemo
soki
##fahami
##mil
##yum
publico
allaah
መተ
##preek
140
କାମ
quatro
natura
lema
##naan
##yalo
##ые
ወያኔ
reso
existe
язы
##woorde
mutanen
yeni
wawekezaji
sime
المص
କରବାକ
ikpe
omwana
vriend
ukuya
verso
nico
##ping
mbɔ
ፕሬዚ
##ግባር
porem
babilon
bim
##dima
ፕሮግራ
egalement
citta
ري
##atura
##dhamu
vyake
unk
##koro
asema
boro
gemeenskap
##ከላከያ
mapendekezo
uwazi
oon
##جه
ipa
ezekie
##zibwa
evid
##ifu
wʋ
bied
##hlobo
abinda
member
ପରଯୟ
##amoyo
##jisi
##قات
##lole
##ник
mwinyi
nay
##ናወ
71
##terep
matatu
boqor
lilikuwa
kuamua
ين
##ጥም
matla
kenyatta
ହେଲେ
##nando
sac
##kataba
shukrani
igbo
mitihani
##inle
##ራዊት
mlungu
proprie
matendo
momento
maioria
became
##geze
ዙሪያ
francais
##jeni
##dini
probleem
wataka
zom
##kill
##shu
ofisa
kaw
abam
##ውና
inyu
shoo
##ushe
##vement
buri
##jery
sɣ
exce
waarde
groo
umn
አልተ
##ደል
እውነ
producao
melo
##انيا
kutimiza
mbə
##pile
dew
##ሮና
##shaba
kwaa
dui
##gale
##lazimika
kaal
applic
##cem
hasara
##kawa
gay
କରଥବା
ombi
verloor
##ге
categories
##edha
##fte
##gura
tradition
bund
njaa
zitaka
shamba
##arro
##kusu
yit
ከሌ
yun
##kona
munene
##hano
obras
##tokana
makofi
##tam
ଅଭଯୋଗ
##iba
tip
wanataka
tshwanetse
adag
hawaja
##ieme
##gou
amewataka
##ଟା
والتي
rua
speletjies
portugues
##vada
##hlangan
episo
##ŋga
swart
origem
baadae
date
kwasa
diɛ
manne
kera
morago
##ɔnu
ubunifu
khan
moei
##utti
afaka
sugar
oluwa
biyo
##byo
##dowga
tema
##thani
carlos
##nada
##tjie
##orno
በሌላ
##reg
##tereplies
##tte
makar
kuphela
gasar
##хо
tos
dhawaa
questa
بها
##kwazo
udu
##ርባ
kiingereza
##kels
##ziko
halali
bede
elim
##bring
batla
አስፈላጊ
nez
based
ነዋ
##ፎች
eve
wakh
autor
meeste
sile
codi
ነገሮች
##yes
amince
tupu
vai
amal
yaha
bendi
##gidi
dheera
volk
##tron
agre
##ገበ
##atico
ትግራይ
##ፈን
wonke
##ጣሪ
ሰን
##denis
##iraa
kiwanja
iro
##mbia
##ايات
##ጠበቅ
hannu
imperio
xix
##amila
ኢየሱስ
لكن
seven
mhan
##neem
##kyo
wapinzani
gik
одна
##eshimu
الض
мар
confer
osho
##pwe
##atse
uzazi
oromo
##ryf
ɗum
##pera
nenge
never
##miɛn
##ryd
nesi
unataka
anonymous
ፍላጎ
sanga
informa
political
tid
حد
кра
oria
##ባሪ
infan
according
iwu
kuonekana
##dwe
deu
ପହଞଚ
death
##kaf
corpor
rig
##ሳሳይ
aqalka
##ishwe
##kaba
zen
ବୟା
published
المد
brown
##بت
##vidade
miri
##ራይ
##tshe
##kalo
የጎ
##ይረስ
##زة
госу
##kewa
الات
neza
woa
swit
العربية
onse
messa
##unn
##imwa
##rig
##gewing
ninye
ife
gidi
##khali
zone
##ческои
chombo
fay
##زا
kukusanya
jenerali
fani
santo
##uty
persone
watakuwa
rate
##ери
gaban
kuwania
ଚହନଟ
##fis
wav
malunde
chaku
kutem
cultural
ngon
##ambaza
manao
oghene
termin
##hobora
discus
importantes
leka
virusi
المتحدة
##cyo
##kung
##ራም
ପରଥମ
##xima
bare
ହୋଇଥବା
locali
##etto
gudda
اح
ዶክተር
##yehova
##ቅረብ
##ماء
ኢትዮጵያን
argentina
##ድሮ
##ንቀሳ
କରାଯାଇଛ
eyin
mwaku
ግዜ
siyaasi
##ጠፋ
##pesa
must
publica
waza
##mii
hur
##ଳକ
ohi
ሰነ
##про
tunaweza
aze
والا
ጥሪ
##ገኛ
##fɔ
uliopo
##dida
##ushwa
xuseen
gege
millard
legis
##ግም
##posto
##bə
1988
mauli
##sein
ውጭ
##ଣସ
##iem
ufunguzi
ଗୋଟଏ
doll
##wai
poi
manda
##ጠየ
ejo
baal
##amala
uze
chief
endapo
kamwe
onyan
fren
note
green
xal
asha
puis
##nas
wavulana
hasira
bond
##bano
ውን
##ማል
loading
fanele
##ampa
trava
ውይይት
muru
##vies
evao
##wino
##imbu
fai
shaqo
qors
kamera
##reste
malamu
##ased
କନତ
puzz
##ŋɛ
wavuti
istic
baay
##kɔn
kuwasaidia
ves
##ዋሚ
leedahay
##hitimu
##amehe
regional
##ichu
##ŋg
zenu
ଜାଣ
wizi
##umbuzi
koning
##xɔ
##anso
##рия
hoekom
trat
events
nano
verskyn
##onye
anim
##ናገር
سي
woy
##yukan
gede
uje
conne
primo
اخرى
##deletereplies
##оло
አስታው
mikataba
tsona
akwukwo
goob
##ንጫ
##ଭା
##xmaan
የቅ
##ynu
akisalimiana
ɓɛɛ
##amuu
around
##tooyada
akutana
lande
fano
ubungo
بشكل
##hout
geba
kipi
waana
eth
##wero
kash
##ующ
መብራት
uhalifu
##ናቸውን
ፍቅር
shalay
##dido
القرن
profess
фор
##news
supp
##kende
##ቀስ
iliyokuwa
##ضل
mabasi
##ኩት
hamad
##рен
alin
##cidade
##row
nkwa
##غم
##ways
ተደር
sidaas
naswona
##fɛ
kahama
ଭାବେ
ኦሮ
##ለህ
ond
##cias
କରାଯାଇ
እንደሚያ
##ହେ
toto
advert
watumiaji
##ставля
1985
##ସା
##ፖር
afir
пол
##ሃል
ଗତ
##chapishwa
unat
descri
powered
dev
yahova
xik
##isajili
##unika
يتم
##ambazi
hunda
##cando
siyaasadeed
izo
upas
ስብሰባ
mbala
shiriki
mzungu
inawezekana
xafiiska
kayan
arma
endele
القد
ትውል
##tema
uun
tɔm
baga
lokaci
sema
fire
mwenzake
##wina
የአዲስ
dall
short
##65
ପୋଲ
anɔ
##itolea
##ገንዘብ
دا
##omea
kurejea
maada
nyika
##ሰሩ
##buku
между
kupanga
##oratra
qaab
kawai
farany
##71
государ
##kedin
conhecido
ትኩ
kulik
##zis
faro
##yona
##liko
kaan
ଏସ
buryo
meng
verseker
##wapa
የዓለም
mase
ዝም
bolo
cinco
kukamatwa
##shiriki
stori
technology
belangri
einen
##maba
ପଜଟଭ
broad
##bib
veel
##ደርስ
mingine
##ists
trabalho
stories
##рии
anthony
depuis
hil
##سبة
feela
##mus
kutolewa
##arsi
##fali
digital
ፍት
entanto
ବନଦ
##bariki
##ହାର
pengine
ቀዳ
##angani
##େଷ
##umbula
##tezi
hans
succ
##ስቴር
عشر
ትዕ
##каз
nood
ndɨ
##дер
##стра
maande
xubnaha
onyo
taagan
fama
##shaha
ବଦ
##48
yimid
##kwisha
waaqay
anayo
ሊሆን
##øø
##ccm
##سن
##enshi
qe
fez
##ହତ
##ጅት
uturuki
diyaar
##pite
በመስ
geniet
##vd
sɛɛ
##ሙት
ଦଆ
luis
କରମ
ነጋ
umeta
##karin
vinni
መንገ
kuwasili
busara
obje
edwin
muundo
##ዲዮ
አንተ
##elli
mafundisho
haramu
челов
misi
##kumbi
ubwa
tx
dhaqan
ngan
vorm
yir
laz
hea
##manya
kuyi
стра
church
##deɛ
ଲେଖ
##pigia
የፓ
espano
mandela
рус
atlan
##husiwa
ଟକା
masuu
##zeko
verskeie
##kurugenzi
منها
##ща
ብል
qas
##inima
ebintu
በመቶ
rwot
##anywa
91
desig
##ɛa
##dhaan
kiko
##dios
wanayo
wenyeji
##link
mese
##vely
##geb
##pate
ମଖୟମନତରୀ
verde
boni
tinga
qaatay
bub
##adha
kuamini
##endana
got
##ደኛ
##ilige
okw
##iga
##laga
##amilifu
በጎ
kahle
action
zava
bakhe
dingwe
##يان
##lale
maon
##oshe
boss
##стем
##ller
جن
##قب
المم
jag
##bongo
ବୟକତ
##tika
afar
пе
##cript
##kwenza
magazine
род
faragha
vyuma
regering
bandhi
weeks
ngwenyi
##عود
hatr
akifanya
##ulula
ማለ
nataka
##gando
##sana
##moe
msemaji
##elang
niaba
##emwa
decl
##kamba
low
maɣ
##vale
dano
level
akɔ
ስሜ
hung
##ssa
##ଲୋ
roa
ath
omun
ithuta
concel
##صبح
inas
associa
##ichezo
fii
##atokea
##keeda
##imin
nihi
##liso
abba
1964
justi
ବଭାଗ
haal
##fari
ମାମ
##chin
afghan
##tung
yonke
nmb
##gido
##ችልም
##yeni
gena
ев
ktk
wabo
##enea
kuom
##ቾች
##quia
##اصة
wiil
mind
##gilia
##rɩ
81
sabab
tera
geral
chris
sugbon
community
1984
##mm
##etseng
##рет
unico
##61
##fikishwa
##ክርስቲ
##beri
habia
vati
##iniki
##ቀበ
##yako
sona
##hame
beno
haala
كم
##ረበ
mule
wamb
##onyi
ochi
hə
lobo
##iyo
smz
##98
mean
##fka
viene
ouers
الاخ
baebele
##weru
ସମୟରେ
recei
ስልጣን
##quu
neende
##cca
nɑ
##unar
sary
ruta
##lal
susu
##arudi
الملك
nipo
yene
##አት
##lf
sans
oromi
##elelo
nima
force
kuzalisha
eci
##чно
##kood
የለው
code
awura
environ
bakwa
##inua
conven
##elaha
zamu
repor
fru
bɔɔ
##amas
gacanta
ପରଧାନ
kujit
manif
##andiko
why
##mela
loc
##viana
hid
yere
##imes
dhaab
##شت
##deleterepliesre
##pigaji
##чение
iil
تص
##km
##yit
oppos
##pesi
более
ይላል
several
##israeli
shina
kupatikana
ufanisi
geeri
fye
fel
mpambano
##67
garuu
##ረጥ
messi
mfulu
##tawa
##kweni
##male
##bazi
dhulka
##ክኖ
ውጤት
##nimada
##92
##wanre
kabwe
iq
##anika
zaka
cato
##wiye
የትግራይ
zipo
loyi
hund
##42
maumivu
##ooyi
##ଗତ
wild
guerre
nki
wakimbizi
ପଲସ
##bah
eja
antwoord
channel
##لاح
dm
fase
1986
mudan
##ስቲ
maelekezo
abubakar
kuongezeka
tecno
okul
gbaa
television
aband
##kishe
metros
wazo
fid
tsha
ui
kabila
##ከተማ
##pping
##hathu
##itaa
##кон
##ply
ring
##mani
хо
##guru
prox
wakristo
luna
##ман
groep
##itali
ጣቢያ
jackson
##dib
##atus
uwu
##ስማ
##bid
kwamb
##sini
##hyɛ
omonene
benjamin
imu
##ጋሚ
##basamu
leseni
interi
##wesha
mael
ቅር
##himi
posi
bood
malawi
##hakik
ዜጎች
important
qaramada
##ishiwa
##aries
##irada
rar
naby
vandaka
##ataan
upasuaji
yima
omegle
dezembro
letter
##eruhiwa
feed
##bɑ
hindi
karanta
በዘ
##ፈፀ
pɔɔ
##isile
densidade
arabia
##pri
##ذه
##raag
##range
anas
##brity
haita
##شي
##пер
##aad
yeova
дол
ove
##jiunga
አቅር
tafi
କୌ
##presa
ገልጸ
stop
vyanzo
##andamana
##puko
olorun
sumba
libr
##kono
##yaku
##visa
ico
estrut
wakam
teti
give
vikuu
vipindi
##arhi
gum
በሽ
klik
onyankopɔn
ads
المدينة
maofisa
significa
##loli
##zimba
##llen
##ched
##tuig
banaadir
##choki
baye
##yir
sali
isin
hesabu
maat
ସେମାନଙକ
integra
yerusalem
##dhɛ
forte
##ctic
chim
##sheng
mfululizo
##فل
##بن
##ستخدم
wul
qofka
wane
rasa
moti
iman
##ଦନ
mlango
vyf
##ኩም
amun
##имо
yataka
tle
اسم
yalikuwa
perfor
##inou
assist
jes
nijeriya
leef
yaya
##haran
esca
ntle
nse
##ጠን
ዓላማ
##vanhu
kene
walim
imesema
kans
##wenyo
ngat
##esaya
graag
sosia
skep
akk
##yɛɛ
1945
ink
husa
##komeza
mwanasheria
following
##wiya
тем
ames
በማስ
tsare
##кры
hays
bole
muhammadu
##зв
للت
arqu
office
jamhuuriyadda
circ
##atada
##ମକ
jarida
##برا
##enden
nal
##upe
المو
field
yie
wapya
ወል
kuita
##anzia
ተቋማት
shara
##ሰት
##cker
disso
በሆነ
መሬት
tiene
ይታወ
resist
##phakathi
aanvaar
ukosefu
aleman
leaders
##tados
wawo
security
##hifadhiwa
duidelik
mele
groß
##elekea
bebe
akken
grupos
الاج
##fh
систем
##ዳል
lɔn
leti
bonna
tout
##kɩ
fact
monga
##62
##cidos
kusikia
##orin
quais
nche
##lilia
case
lege
ሱዳን
##sit
shiri
eliya
bane
ଗଣ
nus
oho
maner
kutatua
hukun
##diid
##ବଳ
kotu
upigaji
emanuel
kori
luke
tswe
##hubiri
zargin
rɛ
##ተኛው
ege
ነይ
inji
kibiashara
positi
similar
قام
ገና
1930
##miye
እስካ
koop
##ritra
lingu
##କାଲ
neni
لك
##kutu
##عمال
kwasababu
##name
biara
zabe
##isuu
##loa
aanay
170
ነበሩ
##boka
##boro
bukatar
perezida
##ɛli
##atori
unahitaji
achu
wose
uha
##loba
##rii
يكون
##eraha
aunque
ህግ
##diana
trano
kipato
##tom
imam
obbo
##tile
##راي
ante
british
endelea
kuchapisha
influencia
verskill
mike
ujuzi
helay
theo
ingan
wadannan
##arehe
udhibiti
##رس
geloof
jord
dadkii
lela
##zele
lear
kuua
##hur
omus
ondersoek
##abwe
izahay
inama
kake
beesha
superior
##vuta
##lichen
pati
##zina
vader
##zation
tayi
##hind
often
##тель
ଓଡଶା
bendera
##wak
rum
##dhari
ሊቀ
conjun
socday
mtangazaji
kuze
##اة
##ንደር
##seer
kifungo
##kusa
##ଶବର
kashi
asani
buite
ካለ
tji
kapena
iyaga
kwenu
nsan
kuongea
ስለሚ
##banda
close
##fite
thanolo
ኣለ
##lalami
الدول
gabr
##itori
##biza
xid
160
indray
الاسلام
##bibu
puzzle
مجم
funk
zuma
majari
ବଭନନ
##aw
kigeni
отно
ije
ngoka
voer
##ରରେ
advertisements
##uren
secolo
##adhimisha
ଦଆଯ
kibao
dimi
العديد
##lalo
yez
##hwɛ
kubera
ее
##على
umetazamwa
alma
ሃገራት
sese
##امعة
verlede
ziyar
##jifunza
keŋ
maambu
##vɔ
##በረሰብ
##tɩ
echi
especies
##pendi
hei
##ማቸው
uncateg
metho
pap
##ارية
የምር
##numz
melhor
near
kujibu
tj
yili
kena
volle
premiere
ଯବ
dastu
##pitia
mikoani
пи
jedhu
##ባንያ
kuingi
nny
hussein
ይቻ
ክር
umepakuliwa
absolu
milhoes
primera
ନଆଦ
cris
caalami
ovu
город
abak
##hisha
##sive
file
dhaliny
##lani
fand
watter
kidemo
##chas
##43
ከሁ
gusa
nsh
##kelela
##ንግድ
الاد
muslim
padre
kugombea
##ଯକତ
##kond
laf
bindi
siyasa
nindi
ቀናት
ohwo
terre
يد
gekry
ofa
##inea
##dole
##ያል
تج
##yange
##fid
kunywa
##ude
endla
print
##jiliwa
##ır
jirto
##angira
table
##liti
##лии
xab
shoka
##kasya
ሚኒስቴር
##weyn
##ናይ
##عرف
soro
nzapa
feto
##non
##ዳት
rə
1800
##tein
slide
micro
tube
##arimu
taku
ଭଲ
grace
##gwo
##idie
ving
dirisa
##ун
##pc
ndipu
sila
lefatshe
##ାଟ
dhaga
maelfu
##atas
vema
afɔ
المنا
vyo
##وجد
yuu
рас
bibiliya
##ينية
fueron
##68
politics
tradu
##ፈራ
maduka
##ሊያ
herin
gacan
##ень
##ቢት
በዓል
awurade
##isisa
##соб
monna
##isemi
##geuka
##jiyay
kuila
mulong
cabdullaahi
##indlela
nabi
ahmad
science
##come
muti
gho
##yibhe
ocorre
until
##kebisho
marina
##hao
college
ነኝ
dand
dhaqaalaha
ନଆଦଲଲୀ
ተከት
##пис
##iland
ubur
ልማት
midowga
##roo
engine
kulala
waxaanu
lue
##qaan
ube
пар
##kiro
majeshi
##ሕሪ
turkiga
فيه
ocupa
##itie
empres
eche
bʋ
label
##ከፋ
##ieke
hill
balaa
inno
##كس
##cwele
mitambo
##room
vio
radhi
##ከናወ
gbɔn
cidades
##onomi
bontsha
ያደር
ደር
libya
sukari
travel
ابن
ሃይ
##wish
zaina
annees
ilha
kyɛ
##91
geskryf
##ጠረ
oscar
okuva
flo
diwani
afirka
windows
sili
concelho
kooban
lub
organiza
##theo
lhe
##dule
naamini
##ታን
##ବଲ
##harani
chao
shine
nava
ሕይወት
##ଭାବ
children
does
poten
избран
albert
##pun
movimento
eintlik
##ashindwa
##gopa
kutokuwa
filho
##kyerɛ
muke
huruma
aal
started
##isim
##phelo
ifyo
agizo
enwe
allo
gobi
##choka
ezing
henry
##ዓዊ
beach
##atos
using
##47
##wama
##الات
ቡድ
##ጣሚ
expe
nouvel
##ጋዊ
weh
##ኽእል
##bue
##ranga
##itsi
kanti
##viri
dereva
oz
rab
##ନକ
##keta
esh
akpo
meri
mourinho
##стве
ɛbɛ
##ongezi
ଜୀ
ultim
ying
1982
elia
##пы
##inayo
mwakye
##wata
ongezeko
idea
##diola
ବଢ
taliyaha
##quel
dyi
##amai
##shindwa
rooble
upate
sakata
siglo
ଦୱ
##stre
بالم
verskillende
uchi
ምላሽ
leri
##endeshaji
##hong
mix
##vuka
является
soms
kord
dove
1979
erken
kutenda
##gey
dhamaan
ባለሙያ
dhana
##lung
##ଯୟା
##umin
الاخر
mapo
fasa
እንዳል
njengoba
bust
xalay
amor
ps090
##tiin
ɔda
geleent
##ambulio
##ateur
kristi
##kumbus
የአፍሪካ
##ୋରଟ
ambo
aondo
marekebisho
nanu
rang
##qiniso
##induliwa
##veau
##cwa
አባል
bix
abɔ
##lity
yɛrɛ
tahariri
الانت
1975
levi
israyeli
кар
mkopo
##ክኖሎጂ
ilani
##ፍራ
tez
##velo
dawo
urembo
##inado
velo
bate
clube
ይገኛል
britan
khwa
##ub
##hiyo
##etokea
mwakyembe
بدا
nakala
ingles
tah
ikin
unene
https
caafimaadka
reis
##fle
photos
enya
titulo
rashid
wakurugenzi
french
ikwa
##set
teni
betro
kɛnɛ
haween
mena
aero
marie
##ጥጥር
omusa
urur
ጦርነት
wɛɛ
venne
ɲan
##ዓል
inaad
lipumba
provo
tower
yed
beek
gblɔ
##ате
ሰማ
tanzanian
##вед
##ficacao
##ዎም
ngaphandle
ሰጥ
inona
цент
##yili
labarin
saga
ይዞ
maas
usio
يا
manufaa
bc
bayani
ከባ
uchuku
namoota
results
##areen
yanaweza
kokarin
##ctu
##kuva
##itana
niemand
تلك
kanumba
fell
##ାରଣ
##felo
mauzo
ଆର
##koli
primer
vao
mwenge
##budu
ukuaji
jf
##mea
pris
##kalini
ghə
##େଇ
##atiin
##ridge
##ɛr
tattoo
wik
dega
1987
upa
ይቻላል
jeedi
##طن
kanu
diversos
##طق
deca
jeremia
ትግል
lede
leeyihiin
lafa
##rey
role
pau
##ይኑ
yab
secondo
cry
##ኦም
asiye
##ልስ
bingi
ቀጥ
tilmaamay
omwe
##inana
منذ
depend
among
##lʋ
certain
acel
##ticos
navo
bestuur
hwɛ
##fahamika
tang
በቁ
operesheni
##gom
afariki
##hambili
ቢሮ
##وح
##ሞት
##цион
buy
kingine
##lawo
watuhumiwa
pamba
mmɔ
bladsy
kukamilisha
ଧର
proto
voalo
##ضم
поли
የሁ
athi
ultima
##зу
kalu
##adaan
histori
taageera
dhowr
moenie
الول
##kumbusha
##uto
sɔrɔ
kuwat
##kings
baas
noa
##adores
wɔɔ
yapo
##athan
##ategemea
wanajeshi
xɔ
##islam
plusieurs
##estra
##sar
##gbɛ
daarna
dalalka
perten
##nyi
1983
mosusu
diversas
1977
selo
لها
##ንፈ
первы
sluit
kayi
kaomin
የአሜሪካ
offer
##kwas
pelas
shia
wakawa
nada
zinthu
minw
outra
bayibuli
meso
ewo
##frica
hatramin
##ስትና
waree
sifuri
warsha
example
simbo
##shiri
mui
fundam
##jari
କୌଣସ
occu
aikata
dewji
##ላችን
abuo
oors
1976
##mark
የኦሮሞ
هناك
только
مم
clima
mabo
games
umekuwa
##dumu
cw
##geko
heb
አብይ
kumwa
geskiedenis
##63
##puli
elizabeth
##ଠାର
maye
nthawi
wind
##lona
wene
መዋ
##jinta
ሥርዓት
mbara
ବଶୱ
bern
others
jiho
##ነቱን
bashi
nomu
ogun
##nii
rand
tija
shauri
##tiisa
ትክ
bob
atam
##kate
##ሳቸውን
zoova
fonte
gwi
##lata
##mers
manz
ŋi
kanaan
kyau
119
player
umwana
qualquer
##edy
platnumz
yemen
##kuza
corpo
##вест
akha
valor
superfic
island
zang
kudin
klas
##yɛn
maonesho
الاولى
بر
##heni
prefe
zabo
##هل
avwanre
መልስ
##qda
coast
doko
nida
servi
##heids
lau
abandu
kukabidhi
##plek
obw
ያስፈል
bisha
raba
##enje
العام
##фор
##haribi
ቀር
leli
само
በተመለከተ
mino
##kle
julho
ха
##atukio
##lv
conjunto
kond
##hlabeni
ମହଳା
mashambulizi
itikadi
wanafanya
##tʋ
ukubwa
##ኗል
vikundi
imeandikwa
ambae
##sante
uwepo
feder
በአሁኑ
indon
fitia
##kupa
##ከበር
utulivu
##tswa
ngwaga
mbar
##weyo
yihowa
##ያንዳን
baz
##gress
awards
appar
afghanistan
desarro
##eshay
onga
half
አዲ
##mira
night
ብሔራዊ
dauda
##кан
riadha
serikalini
##ده
эти
dhinta
ኣሎ
መንግስቲ
less
sweden
lav
##verso
uchapasi
فقد
ዩኒቨርሲቲ
ጥረት
omar
##ማዊ
yasa
የዚህ
##pano
##fisha
##embre
determin
##iswahili
categoria
sr
##ଗନ
botlho
በተለይም
longa
zem
##wilo
rabbi
ኤፍ
##jikuta
##umbele
seine
##wena
ngaba
atualmente
##lako
101
##ሪቃ
bego
##entar
obodo
##isolo
عندما
ବାହ
##chite
birthday
прав
tshia
በግል
without
kuchagua
##landa
binere
አማካ
ደቂ
ጥቃት
##gɔn
bwino
ହେବା
ufo
kyi
mukuru
##ongoro
##କଲ
maggi
##ପଡ
gban
##ያቸው
partie
kinga
ibha
##ŋɔ
##нии
yira
afhang
musiek
##irika
##ክልሉ
лет
ተራ
propria
tsaya
voort
celebrity
##ኖረው
kufuatilia
##inio
##ummaan
jedhan
research
wester
##yini
regtig
##ନରେ
fronte
##geer
ahly
mifuko
1920
shaqaalaha
kahawa
belie
##ams
gis
##циаль
##fasha
wadi
୧୧
lacag
105
እርስ
##ମବର
##bazo
betaal
isipokuwa
eran
kueleza
##bero
##ɖa
ପଟ
##େଷଟ
##wazi
##rwa
##atto
goome
ebya
monum
##weela
kufanele
##cono
1974
arrin
rot
##ŋŋa
waars
##dak
getu
qulqul
kgosi
የቤተ
##shika
ጽሑ
ብዬ
##esien
##ቡነ
dhaafay
##ae
##inee
##ambuliwa
mizigo
ደብ
##xam
##embelea
##hande
##nit
##bedi
interior
goomegle
##ጫወ
##بلغ
saini
bela
ስድ
##jiandaa
##رى
##nc
##chuuf
ndele
atao
wr
traba
##isticas
project
pua
##iraan
excl
miasa
ክርስቶስ
##huwa
qi
ukatili
##bian
kweniso
##kesha
##ምባ
୧୯
kuw
##ɔwo
##ɓi
ht
##وه
አምላክ
##kankulunkulu
title
mtibwa
sameeyay
mung
zambi
japon
##торы
мат
kumbuka
beha
##enaar
##ሳስ
xildhibaanada
##ddo
biro
##41
kubi
የአንድ
##gelope
football
pouco
mite
nase
##yiko
endelevu
valent
города
##ባሉ
##اسم
msamaha
##paal
##rel
##በኛ
ɛlɛ
##mabadiliko
##ambir
magereza
الحد
legal
giri
##бу
##mua
kozi
labaad
##ሻለ
afgelope
##ምላኽ
በይ
ስደ
##fera
encu
woni
maamu
bydrae
humu
##ɨɨ
##wine
##лом
afge
በቅ
ghafla
##ባለው
##ديدة
##ɖi
##umbwa
##ŋgu
hojj
rage
ህይወት
vera
##liteit
talk
construcao
##tiva
inges
universidade
ujesu
kɔrɔ
##افظ
kamfanin
boi
ክርስቲያ
##ବାସ
rika
pakistan
##faan
agbe
relacao
##jue
365
okumu
kansa
gazet
ice
mɛlɛ
1967
dhawaan
ahwo
mganga
##jipanga
ahan
juan
##mige
ghan
##waya
##issi
ሕገ
##oroka
ወታደ
kao
አድራ
ድርጊ
yisa
ለመስ
yawo
##قدم
##ጋቸው
##umen
rah
huna
##hosa
jiran
ater
##eden
##dates
##lares
tattauna
inaendelea
##بط
yatoa
sengwe
وز
##endeshwa
##ଦା
ethi
##katra
##reira
##ቁት
masar
##وسط
dug
##onin
نادي
flor
##pambana
android
сле
يح
يج
gri
ଯାଇ
dhacday
##zel
##ଶଚ
mees
faili
tamisemi
fik
stil
kankulunkulu
goboleedyada
##والي
favor
##amata
##sebenza
##imer
eƒe
propor
nikiwa
watoa
bamb
salma
##rice
vista
эле
xun
##ጣን
tien
yami
ଚାଲ
kampala
##sis
success
1973
##uzito
##ወዳ
##زل
##endeka
presi
kiya
##ጣቸው
ଅସ
tiem
kuruka
##lemani
አካላት
peace
kijeshi
aas
##мени
hadharani
muba
jirin
##law
talo
##oromo
mess
2557
##hene
##ndipo
##ኳይ
wahusika
##kozi
раи
##istica
began
daarop
iss
halkan
ପରବାର
однако
ଅବ
##ically
mha
##zila
##ايي
ngendlela
##irin
##biso
proba
##iseho
seli
##vhi
##иеи
##onj
abar
aongoza
الجم
washa
forme
river
progres
##pin
##banza
##ሳሰ
sane
rubu
##ቡር
##engenezwa
##vacao
sky
##ɛma
##فع
yayo
##huba
sadi
nxa
ସାହ
altho
##ɖɔ
አመራ
##konzi
linkedin
እቶም
alieleza
anz
nelle
court
የቀድሞ
##sikia
lɩ
setem
limo
austria
ወንጀል
##клю
contre
isticma
وش
ሚዲያ
kiji
certa
publishers
idade
yavuze
##ativas
autori
vilevile
nssf
cambi
miliyan
obedo
hojii
##ereva
imali
vom
pubbli
nla
kuam
##ଦାନ
gim
##tete
ግንቦት
manokana
##yake
siyaasadda
noch
interpre
##yasema
ufalme
##ɛna
##loot
wazalendo
##handa
ill
within
dade
iyagoo
gewoon
ohe
##tumiwa
maambukizi
escol
##vation
##board
##wend
wanaa
jubba
garoonka
##ଦଦେଶ
paulu
tuwe
kgona
##አዊ
##ziswa
emva
kukagua
##tap
##ያይ
##piwa
virtu
##itswe
##ambra
tumb
although
##راق
koox
ugbo
oom
##قاط
##iseer
suku
sikukuu
okukala
##enaa
biya
fada
##indet
##atoo
##varo
wakwa
kumalizika
##جلس
ла
kuunda
##ursos
nali
nno
pemb
##gni
mudzi
kasuwan
qatar
mismo
kumele
maio
nafsi
##ହର
##beera
1940
morwa
gad
##اته
bagamoyo
ак
##het
##ዕሊ
proc
##راض
##tooda
duba
##ايا
dead
military
baibulo
##asies
##чения
##foko
##enzo
teh
الذين
kro
ujauzito
##ческих
uandishi
##حية
##khola
bum
##pungua
##amment
inakuwa
kac
hadhi
kansi
bac
##zesa
##ጮች
ପଦ
ciidan
fitar
##ላላ
##ଳପ
odun
body
likiwa
material
ልክ
belo
mbonde
socc
choo
mond
##goni
##рон
wurden
##ወጡ
yahu
##liche
vut
weka
ଛାତର
##engeli
hosi
outu
ŋma
ଯେଉ
##gezi
boere
##som
nisi
kwaba
majimbo
##box
gonne
##forums
##ится
102
##ቸኳይ
1961
##rique
##صول
##ambile
uchukuzi
gii
chamado
yaanza
papel
##daaya
miyo
ayin
oil
##zat
በዓለም
mpam
oly
ayyukan
መቶ
##ppy
bap
vele
luz
##اليا
toko
କଥା
neg
##ୟାର
thus
##ongela
##limisha
ewu
ପରମ
sonde
kupo
ସମପର
bish
porque
##hirisha
type
##olog
##ତକ
መለስ
ponto
##gida
##loed
hannun
العل
pobla
##тер
nakwa
langa
ማዕከል
flash
##ament
ilyo
refle
##ishiriki
##ним
iliyotolewa
termo
alm
ɖɛ
matayo
##ያዙ
##diri
##فق
besonder
##رون
nasionale
ኩባንያ
##ለቱ
##cados
استخ
sulla
ademas
nipa
kob
beat
buk
sine
##amboni
##fication
zis
front
##ነበ
##beu
##hasibu
halin
##ଲମ
issu
kateg
byonna
trois
kifungu
grootste
hulp
##sado
##date
wajawa
saleh
የመስ
состо
babaandu
nnauye
khandi
ጉዳት
berlin
##44
successi
эк
yada
##guma
ungi
taɣ
joy
belangrik
vii
expos
outubro
##gasi
protest
##ired
1978
bende
##lishana
##lt
ngama
emplo
populacional
##eda
##entale
direk
bustani
kann
gram
mulher
##ርመን
annan
уча
##cim
room
anwo
kushika
hope
nasara
##tura
##xaafa
baibul
ngakho
##pur
ምዕራ
mentre
impos
millar
sanadkii
onlang
##usia
boda
maɣef
karne
kola
##ଥୟ
##temal
ururka
##umiza
bayanai
departement
send
##يرا
##furahia
wajawazito
califor
ତାରଖ
ento
pete
kupwa
##zhi
fute
akihutubia
okwo
api
##phela
wot
uche
alf
gelo
include
##kore
setembro
##ወጥ
taariikh
مما
##kezi
##kizwa
##kerm
##fikiwa
jogo
##lelezi
maradhi
°c
bite
##ingile
nɔn
سا
onda
##ذي
khat
conso
heeltemal
najua
forex
upungufu
hall
##onao
primeiros
shuleni
жи
mog
##ኞቹ
maulid
сер
nyɛɛ
hes
ки
##ଶର
cio
okwi
ሦስት
manase
##field
##anzwe
uits
nr
xiriir
##ombozi
##onzi
alina
selon
jamiiforums
tsena
##isebenzi
pɛɛ
portuguesa
gaskiya
recu
pakuti
seni
rim
##ارج
##ቦችን
በድ
hankali
bisho
##osai
numeros
yesse
lung
##ብረተሰብ
bakari
##jang
ngoko
geografia
pari
በክ
##ским
##mid
wode
##kwara
መፍ
##ሌክት
labor
desco
ବୟବ
##ɓɓe
mabondia
kiraia
adaha
kuvi
sterk
verwag
mys
##kumba
##ቢይ
jacob
##kre
አንቀ
details
street
kufanikisha
chenye
##aloni
رييس
##ቦም
##ене
комп
##oney
##osababisha
akaa
##ኮች
##oti
##ንነት
##hata
vipaji
##erie
atual
baan
manunuzi
ramad
espir
##በሩት
argum
##wey
bush
kami
##ኪና
asante
የሆነው
##ступ
traff
celebr
##ሞክራሲያዊ
##oresho
kukubali
##emt
ምእ
spre
ŋai
waha
##omboka
faah
mzigo
sic
الرييس
noqday
cabe
ልም
##bron
atas
mario
##kko
intii
##gaza
##ников
##waza
##heri
##zane
maadaama
##ሎችን
ɗu
tutu
##iruo
kidemokrasia
##ତମ
evange
ге
noord
eeyan
##amij
##ାଉଛ
##иту
xanu
##luk
nidhamu
##93
pindi
ምድ
##feta
መሥ
قال
##بك
christo
psy
barbaa
jabu
monde
##phiyaa
እውነት
kushi
ney
በሃ
ther
انها
uendeshaji
##riny
##cont
##ቶቹ
коро
minute
##ସେ
ست
tembo
interpr
bik
##wekea
exclusi
##soes
njira
akizungumzia
##ዱት
vyenye
keen
##ለፍ
millardayo
call
##ራሽ
##galo
##alan
mdau
middel
спо
karolo
ଘଟଣା
##yad
alizo
druk
350
አምባ
ወጣቶች
clim
##ደብ
ହେଉଛ
орган
mida
ثلاث
сред
exc
##ዳታ
1968
quase
pop
груп
helo
##dɩ
kuvunja
aans
nigo
neu
sugu
تكون
bais
ଦଳ
##psa
##bura
steeti
strateg
farao
eeg
##osoma
acɛ
simiyu
ukwe
boli
cag
1972
magacaabay
ahy
##kristu
ኳስ
ekit
dibadda
الامريك
##ambara
takribani
##karun
shaqada
pend
##ello
primary
##рован
derro
##mavu
kujali
##media
منطقة
malla
copa
kukhala
unam
left
##tarajiwa
booq
የሙ
proces
mwongozo
ናት
caf
تد
##nimo
khali
terms
ugen
neba
ufumbuzi
##ታወቀ
##ently
ଲୋକଙକ
##busu
hadhara
ନଜର
ipinle
vamwe
cm
##ature
деиств
yenyewe
ushindani
##pg
##moni
##ପରେ
##tiwa
##ነዚህ
tosa
##ggaam
nake
nale
awoo
##antwana
lenda
##tics
nuru
##fta
taya
mtuhumiwa
destru
gobierno
teb
casi
##щи
ମାମଲା
dab
حول
gute
rufe
##ଏସ
invest
##ዎችና
etat
ps110
pejy
inver
##ثم
##amajadiliano
demon
##run
ŋun
##قى
fort
kwene
ior
ankho
genn
slo
laab
##frey
እራ
##imum
funcion
deutsche
##hamisha
##fiwa
ervar
bwi
uniao
##fatsa
##kiko
##fii
thuto
jiri
##ooka
library
inaug
ହେଲା
amisom
lega
##asihi
##hemba
ባንክ
dikwe
mifumo
skoon
ድል
##ondola
##vidades
##tara
##ɓo
lefat
የመንግስት
elekt
ባለፈው
watano
##eraele
##ପାଳ
##voel
##mati
118
neb
jifunze
اض
##ନେକ
prys
##lande
##ayi
ሳምንት
mponina
akiba
maur
exis
##dual
jere
##dic
vichwa
##kryk
##itila
jiwe
mwathani
kumt
mshahara
misitu
fora
##vbo
##ମନତରୀ
asasi
##linta
ሂደት
fee
ይሆን
sojojin
tsho
##itan
tasnia
##doda
በ19
جميع
anavyo
dak
oj
ଏପର
expan
hani
nyim
##ገባው
esto
wakali
soccer
lomb
bishii
##ዱን
ህዝቢ
فر
shows
oudo
କାରଣ
##bono
saulo
##atala
##haribifu
መሪዎች
koti
##рь
naira
ለምሳሌ
##øg
nansha
objeti
##ddi
##fike
elezo
1981
kaliya
bita
posteriormente
kipekee
consegu
##orwa
##gong
maua
dhaqanka
arrinta
gabatar
pembeni
period
baara
##cios
##toire
mgonjwa
addis
##cte
##week
##طو
ହର
hemel
##fk
##ታማ
viet
altri
##ପାରେ
khasa
ting
lishe
kuchi
jud
waqooyi
karat
vla
nik
##luwa
ነፍ
አንድነት
1962
idhaa
የሆ
perman
mrembo
zilikuwa
##etoka
proj
##firishaji
##antan
nyoka
ukraine
hour
ዓይ
##ended
##yaŋ
lep
particu
##መና
##cente
##ሬታ
konke
kuepuka
##የም
uite
##ፈረ
unla
##ither
በዚህም
avu
abun
kuelewa
hase
muca
сч
##yuu
##jojo
porta
том
ammaanka
matan
temperatura
steve
ayey
dhintay
የስራ
junho
kupeleka
rasha
##illa
##trek
##zyo
lahayn
##intho
waxbarashada
##ceda
##ንብ
##ulizwa
maaso
seno
##سان
iha
ଅଞଚ
babbar
##ዝም
mula
##isek
oju
cyo
casino
izu
ኢህአዴግ
wos
дан
##zunguka
##ገም
novembro
pretoria
eur
##حاد
##ена
yanar
kicha
israa
comecou
asafo
ገልጸዋል
ହୋଇଥଲା
kpi
badda
zitakazo
walisema
##anten
starehe
фран
##geka
##fel
amas
sumbawanga
##واق
##ishio
اذا
nisa
kibina
owan
##ared
rey
mub
##kilia
mtaani
diere
mtindo
ግንባታ
##ческого
qorshe
1919
alalan
taani
##iswe
boodskap
##صة
oi
romano
##ethu
dastuurka
dados
##tswe
feit
##ድና
sheegaya
sommige
schu
mwanas
uyehova
##awe
##ካት
##ፍና
ድረ
piri
goa
##eroon
##guna
color
kilichopo
voalohany
gau
baaqay
##logo
የሥራ
smart
##dae
prince
cell
kisu
okhala
herstel
መግ
##ጤና
##ረጋግ
##zimisha
##kuku
ይፋ
consequ
kwallon
tarayya
##cato
yaala
##ቡት
##ኸውን
##badilika
text
calo
##dhia
##halisi
##lip
rudishwa
yusuf
likes
comum
ndoo
kubadilisha
ngayi
equipe
##aneo
besef
indu
##cendo
##tsu
የሚለውን
ቃለ
abasa
exi
ቢያ
##zado
##zona
ሆኖም
lami
##jye
jem
የፀ
ps050
##ቀዋል
seko
mukonda
quest
uuna
imbere
skie
klis
gudun
ɛnɛ
asook
muuqaal
##kandi
የሚመ
dikwels
мно
bomo
##ାୟକ
mumewe
uusan
እያለ
ок
kanaa
##دية
##gaha
ብሄ
kigali
##arsa
nyɔŋ
##eye
mʉ
##yibheli
isha
milli
##teka
dvd
የክ
prati
salim
ruhanga
centra
toleo
quale
##chila
kuhudhuria
wareeg
boys
##deleterepliesrepl
##eses
##pak
biblu
##umma
##ገዛ
##holi
wanaoishi
mwo
dhaw
##bany
deeg
##kem
##fati
tunawa
permane
##lɔn
though
tetesi
dole
cɛn
##yak
##ጦር
ɛsɔ
noko
commission
nine
ፊት
wakho
##ongezea
imir
##rem
##قر
##elana
alidai
##ፈልጉ
##يين
phan
##лн
ጥር
gehe
##سين
karak
ngal
##ыи
jiya
##ነን
alifanya
maima
guddi
##yota
##weri
gard
rss
терри
##kses
mukwa
##gwu
staa
profession
tula
esie
harin
##ampe
ሃሳብ
الكت
lena
ሌላው
poco
ukuta
uhu
##ନୀ
dubu
##ጥን
neo
struct
amefariki
atene
wem
premio
estab
cargo
የሰብ
yeri
##duli
##arse
kukamilika
##aroor
##yiinta
waqti
gina
##ught
##toe
##rye
ngome
##aruka
steven
መጋ
anafanya
afhangend
##uraa
derni
assa
##ଦୀ
##yə
##ሰጥ
jirta
##vava
utabiri
##ህና
makumi
##vwe
##entou
dhati
nabii
vanaf
የኦ
along
waak
akati
keena
##belled
mtumishi
##adaa
kimu
izra
lame
jembe
behoort
tili
##gether
የግል
perse
mafa
1969
uislamu
beslis
kupima
113
##llada
dharura
midoobay
ǃna
kite
##bied
soort
filme
zing
esper
##реде
ogw
kiroho
utajiri
nena
##enz
fidia
ምክንያቱም
yesi
ebo
##ሱት
omwami
##kilo
lasoo
wole
fantas
dhismaha
wakiwemo
##handel
nolos
ukut
jalqa
ɓay
##muu
##ايد
seer
##ውስ
cristi
yuru
ମାସ
ନା
##سك
maskini
papo
ngɔ
fiye
core
neer
prev
##زم
campa
dona
୧୨
##insa
mitindo
escola
mavu
##istes
brother
##mando
ደም
##esete
sabuwar
cancel
uzima
havi
estos
##onyana
saddex
advertise
gely
kilis
насе
##insu
##waardes
##ungelo
##andikisha
mwendo
1963
mmiliki
##ርን
forces
minisit
riria
ked
butu
##hobo
##iseben
olwo
tima
##endea
taʼ
lokho
ሰለ
##kimbia
##ሰበ
anawa
dhul
pesqu
واحد
zanz
fahamu
caasimadda
##ତୟା
##спе
ду
lio
##khul
гер
empresa
መንፈስ
جز
ስነ
mhariri
maud
mbʋ
بط
dziko
sax
liko
kuzindua
ense
##antso
##chiwa
##ongeze
embargo
ስላ
matsal
ishima
بع
fosse
##geni
##ፊያ
dispos
##konzya
daray
##fai
ciidamo
elkeen
##ଷଟର
barnaamij
##woor
##ዘይ
##ከፍተኛ
unlabelled
poto
##kɨ
manje
##cac
rana
назв
##enis
##arii
የዋ
መልዕ
እዮም
##embu
televisheni
##tula
##vut
##cine
dific
mish
jisajili
gale
الاش
##dus
association
##huis
##perk
##гии
heilige
nanso
##jio
royal
verant
mesma
ኣምላኽ
experim
match
hav
##liswa
mratibu
##cor
relation
unayo
##ଣୀ
mou
ପରଯୟନତ
maats
##pai
##juma
ethiopian
##ential
السيا
##tl
ଆପଣଙକ
fupi
jubbaland
##ishani
авто
toma
##ቧል
login
##angilia
blue
uwi
leina
##lingan
politico
которыи
aꞌ
##tala
##ɩyɛ
##hof
##gies
##issance
зан
aproxi
##ремен
ፕሮግራም
culture
##arekani
jwø
##وقع
laka
##ଠାରେ
##atumia
##lipwa
##isione
##umvi
space
beg
##down
##zinto
vert
mkwa
##erta
hanya
##oreshwa
ሴቶች
##ቁር
avant
tell
wapata
aantu
huma
##ينا
majeruhi
determina
halkaasi
##1m
rundunar
##kelwa
##bom
##pang
##gemaak
rapp
spesi
አዋጅ
ገብረ
##yos
##alad
እንደነበር
##jibika
tlaa
paulus
##ambili
##usay
##irho
attra
frente
##ኪያ
simple
madaxtooyada
saratani
##listas
turai
mɑ
неко
suleiman
comunica
tans
idin
mulki
##ቀቅ
##arious
estilo
jusqu
##onel
damar
##ɣu
kole
አህመድ
ninyi
kiwon
islamarka
inicial
##сы
##ndo
##ateeka
##reto
##gag
hamb
##vutio
مصر
maandiko
images
dalana
منت
egu
futebol
cover
gihugu
uho
مل
##ስቶ
##rina
##ዉን
caracteristicas
diret
held
##lug
##manyi
status
##laŋ
boer
##ካሄድ
gbu
tire
କୋଭ
наход
##lian
madeni
vatu
iddi
##ከፈ
በቅርቡ
ትግ
ርእ
yatima
kuwasilisha
superficie
##وقت
ihien
zata
ጦር
##witi
hafi
amazon
ayɛ
ተመል
##kaaga
guer
##ወሃት
##funika
bjalo
##weereza
ope
##pus
##jamii
devi
الثاني
amur
strong
##endre
##cular
unica
kaddib
##ondrana
##dek
##cadda
mitaani
hio
ሚኒስትሩ
ମଖୟ
##orana
betrokke
би
activ
ayna
zainab
##yiin
wiktionary
kwabo
tasa
##wwa
ተከትሎ
expl
vice
##ଆଇ
fazer
quant
complex
considerado
poro
##ulka
уда
raja
bav
tuwa
abiy
العمل
##يخ
##ɔk
зем
##dilifu
warra
maiores
yil
ntchito
##هما
##kubalika
dail
ifya
natao
##ጋሪ
semi
##ywe
matem
tamwa
##peel
##babishwa
##በላ
kihistoria
tɛn
mashamba
መጣ
five
terce
kijijini
ulwa
osa
##geta
##kwani
exa
##zuu
##basi
አራት
##uki
jagor
مخت
popote
##jesu
gedagte
##ስም
ተጠቃሚ
hauna
##ˈˈ
kuwekeza
እንደማይ
##uko
##ysaa
mfa
##ingira
##dighi
##ାଇକ
ባለው
اكت
kuchita
የተቀ
mehr
tantara
##attu
kyerɛ
abr
intera
mushi
##polis
እስካሁን
##dr
መላ
##wol
##aly
bandi
kenn
ଅନେକ
gwamna
##жения
akimkabidhi
iskajojo
mfanyabiashara
##ودة
colla
matam
извест
kuunga
##ርማ
hiv
##liyay
jehowa
nyie
empire
አስተያየት
mikon
##ዕባ
1971
restaur
baana
horo
##atolewa
laku
mse
##fakari
##onekano
ps030
yamb
buit
countries
umi
##pakia
edwɛ
kaominina
fof
niwe
ivo
ngolo
bakka
##madamente
economic
##yere
phela
##ልቁ
majaribio
##belela
aana
##ጓል
##grafica
elimtaa
##ifanya
kariakoo
azimio
##jengea
mwake
kuibuka
communic
electron
tumelo
gabata
uefa
shahada
position
ପେ
ዳር
##vestig
##цию
wamiliki
tuk
wenzao
##ዘጋጅ
master
hub
pakua
chumbani
kujitokeza
##ضة
##ረዳት
chom
ian
##yayya
wɩ
mitazamo
mikasika
##udo
emhlabeni
##ବାହ
ተጫ
##ارب
wese
ngokuba
saul
jechuun
##жден
thir
##ርቶዶ
wɑ
dingi
zvino
zve
together
vahoaka
nato
##deeda
##usion
warm
veilig
ଜାର
##ately
##ɩnɩ
osolo
##ью
##ficha
##graphy
hale
corte
especialmente
meji
gesond
chuki
##2m
##riga
ወረዳ
mpekuzi
muswada
##arabati
ይላሉ
maktaba
autre
##ynews
ntoko
vang
menor
الاص
##tings
୨୦୧
uvccm
jogos
##breek
##elele
ଭବନେଶବର
aanlyn
agenda
##nɔ
sitta
መልእ
hekima
ihwo
jicho
size
administra
##zizi
##orot
##ombela
wano
alka
##letso
aari
voo
##gemene
kuanzishwa
fits
##thanda
የሚቆ
##ambote
##riz
amaa
dhamira
utata
vand
##lando
##aten
alimu
##ref
gini
sadaka
##ريط
kulipwa
amana
aconte
##ɖɛ
mgomo
በዋ
##бер
##ያያዘ
start
##chaf
separ
patrick
ସସଥ
rapi
imaara
##yara
fika
shaffi
imetolewa
hatuna
ihr
они
longe
መኖ
##yom
punto
ents
haf
uvi
##aniiru
ekya
chit
earth
goboleedka
##ደገ
##قال
gaadiid
##leer
##yira
fanam
የተወሰ
paci
##стран
ijoba
buti
##gundu
tona
kilele
imba
mwoyo
##ሁፍ
arbe
zə
hadii
ଭାବ
mzunguko
apart
lir
##khosi
private
records
gesin
##leya
irene
##tumwa
asɔ
ጉዞ
tous
##ao
kwambiri
فل
stam
doonto
##سات
xoos
ramadhan
вод
mpenza
##atz
кре
buna
fiican
chall
bakeng
caafimaad
advertisement
ଚଳ
nwon
odu
##lı
keep
luister
museveni
mission
namoonni
propa
##didi
##angala
##zada
##chukulia
hirsha
##lize
##ህንነት
gide
##lidade
masuuliyi
900
rag
azali
1948
ፕሮጀ
lwan
##sya
beta
italiano
ulipo
hospitalini
otras
spring
##amɔ
الشم
sady
alianza
##лет
##اش
##kien
##liana
bɔt
##hando
vitambulisho
##iam
ደጋ
الحك
livro
##zuela
##በለ
##жение
##eriwa
posta
ለሁ
##entras
inse
##ሬሽን
neut
bepaal
teken
oki
##zem
shaqee
stephen
##ረታዊ
cik
acce
##inyu
professor
##анд
disa
##льно
##looyinka
ፕሬዚዳንት
uharibifu
district
##ября
አግ
ስምምነት
##dere
##asion
##каза
turan
division
kangi
وخ
kutja
kutuma
##ዝና
ማስታወ
pasaka
indonesia
uɣ
personal
verkies
##ongola
kutetea
##ደረጉት
natuurlik
atmos
ganacsiga
tahadhari
nwi
##ሸነ
sound
##hlale
wafugaji
welcome
tahaka
shirya
angalau
veri
yahya
liggaam
lɛn
##yid
pac
mojawapo
algemene
##3m
ለወ
##waro
kuvaa
origine
بسبب
##itet
budi
muni
##jiyo
check
##yene
##ቲት
meses
##irana
ompo
##ficio
monitor
hori
запа
conhecida
hongera
ማእ
ngani
መራ
##onta
sirri
iney
##ingy
вели
##ombole
visiwani
gazety
balu
##cip
vigumu
##sus
ଘୋଷ
hanno
dailynews
##ପଟ
##hakikishia
lehibe
lord
##ቃወ
kechi
##cane
በዚያ
moz
oomb
ifuata
##ዩን
california
dien
energy
##patiwa
ብዛ
##amen
maandishi
intaneti
xidhi
seba
milan
toi
inapo
##pulo
berg
##ложен
обо
sukses
anke
##very
urahisi
xili
manyara
zeit
##iza
gaza
где
##fuko
اليوم
ያው
##hooda
ለህ
##diin
mukulu
fox
volks
daai
terras
##ገራቸው
ኣብቲ
ተቃውሞ
которые
urban
##hena
qabsoo
konn
finance
##voir
amei
mudimu
lokola
ଚକତ
olwa
ukum
mpangi
##ingila
##ciais
بي
ezo
mulandu
dhage
zikiwa
##enses
##doa
ኣፍ
amepata
existem
##وال
በባ
የንግድ
##ጭር
المغ
አብዛ
nebuka
capt
ወዳ
##ffa
##lili
daida
dinkin
aali
ବୟବସ
aynu
##stru
##ନାୟକ
trop
##ነታቸው
kotun
##isila
kwama
confir
115
##inan
dubb
##hut
umas
##pee
spirit
kipigo
##vyom
ଙକ
##amt
ଡାକ
##geria
##ʉʉ
##inke
victor
##ስሊ
commit
editor
station
cheki
የጋራ
ints
##lines
oxford
jawaa
##pres
##kub
machozi
mahala
gossip
ghi
##paki
rero
طريق
sici
hie
##views
##сли
confli
##eɣ
##ጋይ
mamili
ubochi
proper
##ስትሪ
ukongwa
##gabo
former
amaanyi
ምድር
ты
##wule
amea
mkongwe
few
dipo
koye
##bres
##lls
##yangu
##сси
walemavu
ddala
##aroma
##aminifu
ለኢትዮጵያ
eedee
##ياء
translate
biyar
tattalin
##haraha
davida
ବଧ
ባለስ
ደቡብ
naannoo
##ዲት
kifedha
kuuma
mhaka
kintu
vuli
glad
##علم
viny
guule
##futwa
mwele
hamba
##bolu
mesi
engel
##erikali
ordem
xaaladda
##pona
shii
ଫେର
##bule
zir
nike
##ويت
##toni
arday
ፈቃድ
soon
አገሮች
register
fira
kuga
##hiny
seera
kulikoni
1966
##nge
epl
ps240
peri
isika
yurub
አቡነ
ተማሪዎች
aproximadamente
kumwambia
miisa
shaqe
ଘରେ
##iseka
##vens
maraykanka
kilich
kujaribu
##giese
kune
seso
ትውልድ
ትኩረት
yehoba
stadium
sequ
oco
mafoto
##gao
saur
ጌታ
kumsa
##ከላከል
ipu
continua
ତମ
stream
##lunga
otashi
##tahili
laza
ampa
##pil
##lɛɛ
estim
##ənə
gros
mushara
clar
ጋዜጣ
quim
algunos
##ቅረ
bule
yand
##ଲାର
xukun
elementos
saxaafa
##ondere
##ስተር
wamesema
1965
tathmini
faire
ምንድ
iꞌ
##kimbi
kubona
##ابات
ଗରାମ
tsɔ
##በራ
cinema
##ସନ
imple
ekwa
##amentos
addition
kwla
##anzibari
##طف
booda
tiŋ
langs
albamu
##uit
batal
magac
stap
##ታትን
##ୋଡ
##rison
fiara
ɲanmiɛn
ነን
##unyi
oromiyaa
##penzi
##df
ክብር
munga
barre
الحرب
እግር
##ንቅ
##arɛ
##fidianana
ዳይ
##onisa
nyik
eerder
maze
holo
possivel
kevitra
mej
defini
##yɛli
##راك
aveva
mbaa
madar
aller
peli
debe
incluindo
ruwan
##caram
ambos
lider
ወጣት
существ
refor
correspond
teach
dɛɛ
tunda
cogo
kitime
wenzetu
ግብር
ቆይ
fiesta
aure
muv
sophia
kopa
maajabu
reu
sere
tsɔɔ
parlam
noqo
gabriel
jiraa
idee
nyamu
esem
latin
tumbo
thing
##amelo
commune
ти
እንታይ
engen
regime
reconhe
lwen
nyina
##hojiwa
##jɔ
legit
mune
plaaslike
dort
##tiese
ote
ləm
መጻ
##ыва
geralmente
nahi
ନରଦଦେଶ
##liyo
##aniif
tava
mlo
mageuzi
anko
##wita
raya
ninche
##yl
##kabaka
ዕለት
comedy
ግጭት
##ክርስቲያን
magoli
##ↄn
spiel
ብለን
ଝଅ
ଜୀବନ
xas
zasu
cabdira
ngap
finfin
##pted
##ለመ
nilipo
##orized
verskaf
notamment
кла
##kei
wakat
ŋut
ps060
lango
counter
nyongeza
##lishe
##firisha
##yiri
##neen
industrial
ተገቢ
لد
rho
##ddwa
hamp
##erson
kire
bualu
##ክሮ
godimo
##phezu
adza
salva
ለብ
##uns
##kanusha
обще
gemeente
ክስ
illaa
nari
##େଳ
ngor
##oruba
سم
тре
##ነር
ተጋ
chiku
kisiwa
prepar
kwakhe
dibe
sedert
##jala
nelson
vitengo
አየር
shambulio
comercio
kutakuwa
slaap
ingi
emis
performan
marko
baridi
bair
##geng
mosadi
##chte
archives
##vs
lahaayeen
estes
kɛlɛ
widget
ኢዩ
cheti
##lige
kubadili
kidini
ማርያም
ይታ
କଂ
integr
በኦሮ
##bilo
##ንቃ
nywele
##waha
poly
##unji
##funguliwa
которо
фе
kiga
##isin
chia
efi
impro
yav
yiwen
ˈo
phuthe
chetu
##bey
##wisi
##saam
والع
gasa
jue
##ፖሊ
sotto
guddoomiye
ngesikhathi
##5m
ngwana
hacia
racing
gira
iyu
##khula
ار
##dado
xuquu
##woro
##zinye
##цу
mars
አመራር
woho
hamisi
##hes
xubno
nkarhi
##ከታተ
waasi
##qubo
##pari
##hema
lipo
dawlad
ଉଦ
ଲଗ
слов
inam
##wut
##cir
ufumu
##ዳም
##zibu
eris
ጥበቃ
оста
kufanyiwa
students
##oma
##wim
ምክትል
##ዋት
##usuf
የህዝብ
nomb
##hlangano
naxa
##ياة
tiempo
gand
##yɔɔ
gaara
የሚታ
##ине
voord
fepetra
vet
lemo
##لكة
##ье
አቅም
##4m
ይቅር
በሚያ
mp3
umus
vua
##በትም
escre
pawulo
ndaga
##iner
waarom
##hasa
dambeeyay
##itabo
ulivyo
mulkin
ସୋ
koli
wanadamu
##ናገሩ
የትምህርት
waco
eren
ummy
##раль
##ጀመረ
##teua
##atika
##ኖም
ester
eks
vigezo
##ŋndo
chako
##ቻቸውን
ɛyɛ
omgewing
አውሮ
nations
kuke
ezekiel
mbadala
##ሳሰብ
##lewe
##andraisana
speak
በወቅ
lago
sekret
hudu
##cee
##doon
besit
ሰራ
ufodu
italiana
##gaga
##viti
inj
##mut
##ଭଳ
occid
##aux
##ሰድ
jireen
jordan
##emiya
zika
##porto
always
##zange
##orte
##koko
kwar
##umbika
##ାଇବା
sl
##ከረ
enjo
wayar
kuwasiliana
ndali
jeso
##life
##itoka
##при
xiriirka
ፍላጎት
antiga
yor
##يدة
wood
##itee
##اما
ବଷ
libera
ଥାନା
montre
##amiza
urefu
neyi
##vet
dhig
molto
saingy
pakati
##liks
conclu
##orn
wazanzibari
verdu
ƙas
##tai
##kuri
save
##kamban
encore
soveel
yiwu
##swa
የተነሳ
angola
gaarka
##ules
better
idojin
udha
##eneza
nyii
##ካይ
kokoa
##febru
vid
##atore
kingdom
genoem
##phat
baaba
uchafu
##suku
pedi
века
##zungu
እዋን
attu
problem
alii
kusha
kpahen
##jumla
director
esit
cnn
ንብረት
yɑ
usafirishaji
того
mbon
mshi
permit
asan
substitu
неско
##ତୟ
##ጥረት
##hembe
verhoud
mashi
aand
orin
vitoria
bundes
gane
sole
punde
vɛ
uvua
kumwe
imechapishwa
russ
nehe
germany
##lɨ
apple
rehema
abha
##yʋ
mootummaa
jerusalema
molimo
universiteit
ŋaa
compon
##କରମଣ
##və
##امج
##duku
чем
стро
##tsty
maudhui
really
##hazi
##lvania
##bainisha
hui
ለማግኘት
geweet
respecti
hawl
jona
##zə
relig
ibo
penn
aliwataka
tseba
kuhamasisha
##esty
install
##shirikisha
ongo
mulimo
things
malaria
yeeshe
##iles
##sebenzisa
application
oomblik
ዕው
adventure
boye
nanyi
camera
##ዳቤ
geleentheid
karaan
##ወለ
mwanahalisi
ɖi
wambura
##fina
##ticas
romana
difaa
اليه
jirgin
dokar
oore
##haria
##kenaar
##osoa
kipo
tunga
mabomu
##tegemea
mikononi
1918
khal
በጉ
criacao
ଖବର
bey
##dies
##ongezwa
madereva
kadhalika
##ቆጣጠር
kikamilifu
edzi
##ାସନ
##miya
pens
##али
tsaye
management
groter
##ishana
nwtsty
geeriyoo
problemas
اخت
##vira
pongezi
bɔn
kalena
##polon
ክብ
ejer
##انون
##lesia
waxba
possible
##september
mwom
kabo
might
ewa
##rimonio
diversi
etats
المش
ndin
##enyo
ጥናት
inaonekana
yamma
stan
specia
dong
ምሁ
psal
##rahman
##lanzi
ابو
መልክ
##طور
##ስቱ
##ଭର
cienti
nɩɩ
advan
vinnig
nnipa
##ening
##unywa
##cimiento
##potiwa
##ظر
kobo
##କଷେ
##ገዋል
##ፈና
የቻ
aien
##ቀርብ
tontolo
bloed
taaluma
carru
##laat
afanya
hidro
vyeti
leban
isikhathi
##onthe
##str
tallaa
markaas
ዝሓ
##fita
##elde
##keke
##pendekeza
phone
##lhan
abitanti
##yas
compa
##digheid
##тора
xisbi
##ገማ
##dooyinka
##የሁ
411
ክፍለ
##gawe
eha
kukua
access
لو
ikawa
forca
takarar
называ
usawa
takriban
broadcas
##sian
##تما
የምና
ervaring
##iser
##hoka
##yandi
chil
rh
constant
##isam
andra
seguinte
##subiri
chapa
##ዚቃ
ramani
seit
##зо
kija
nowa
##zui
alexand
##dol
ps100
አምስት
groei
##isas
ପଣ
beeld
ବଧାନ
##alɛm
stesso
##mele
##klik
compan
panga
kikazi
ସତର
##irwe
##umilia
##lism
clos
deo
##କରଣ
##ɛt
addan
castel
apata
kusan
vehivavy
nong
##onyo
gudoomiyaha
##idde
##ambie
mutindu
paz
##قتص
ifa
voordat
yonso
የሽ
##osos
##جر
ଏହାର
lezo
##cken
ଭାଇ
##chs
##واء
abaturage
xad
##тии
##6m
የዕ
##laai
kalo
##ishika
послед
alipata
nju
warembo
ନରମ
##ያቂ
tamb
##ghede
kosala
##isɛ
otto
କୋଭଡ
tumi
##kig
raw
112
##plaas
sira
zahera
swanetse
بالت
epe
##dil
ɓə
совет
##ኞችን
vraag
عليها
livre
ruma
preced
mogo
##irani
fato
ଏହାକ
##kanyo
##lae
virus
philoso
cheap
##ɔi
##пера
አስተዳ
##ارت
incor
yaga
soit
saldhi
sharciga
atletico
faritra
carol
##коло
cust
cosi
tupo
##esie
reno
##jing
##خب
##adam
##ካባቢው
##hlweni
cruz
bulu
raila
##вор
rasimu
ଯଦ
cilmi
##ого
##wia
##furahi
##iling
##yyar
ministan
chiesa
##endu
##hudumia
return
##سر
kaza
cere
##pies
kanya
##wire
hey
##ጠቅላይ
ରୋଗ
##giisa
mbimbiliya
kwesi
masana
##ети
##راف
##ashiria
iim
army
european
##koromo
pɑ
donne
قل
##ራሉ
##wl
ilaali
اذ
##vare
korosho
amate
abale
hatia
##phara
baibo
اكبر
##kulya
vent
##ଣଡା
yase
yobu
##uwe
educacao
andrew
sigui
##pris
##arono
gehou
politika
##amenti
ubaguzi
##ped
zaŋ
xog
caru
malam
ማር
yuma
##uya
ተሳ
kelele
oktober
##gbɔ
ditsh
##linge
question
qaarkood
junior
fro
ሰፊ
##በኞች
##kwetu
ንግግር
ለማሳ
ilivyokuwa
kuhi
fyo
##الت
##ዊት
sector
pope
##engwe
##jiya
mahar
siwezi
mkpa
itaendelea
vikosi
kuse
##yiza
##edda
chap
vea
kubaini
nzila
linha
መሳሪያ
okukola
lagos
ችግሮች
kigamboni
pↄ
ወዘ
тра
##pper
stats
##ንጉ
##7f
መግባ
gɛɛ
unesco
##يون
##hoe
saude
##ଭେ
عدة
kuhamia
##ət
foreign
scha
chai
empre
bophelo
dhaqaale
zab
nange
ዋንጫ
mats
bue
maganga
yaliyofanyika
jaan
##zelo
##joen
##andarasi
comuna
ማግኘት
ወገን
kufura
cristo
hayu
kibi
##лем
makko
##tasari
prova
sept
##ነቶች
##ፋል
##jiza
ପାଣ
haiku
corr
وذلك
gebo
1958
##мож
ከው
##iriri
bloot
shaffih
kilomita
western
dingwa
nara
muhimman
mondia
pamwe
roya
##حدث
##vai
mɨ
coordin
saraakiisha
1939
##chochea
##jum
##inni
storia
inafanya
kuachana
##blief
##february
ذات
ጤና
bba
##uree
jas
##isele
##kebisha
##estas
ию
እኮ
##adaiwa
account
ଚାଷ
ruk
##ቱት
ген
mwanzoni
tart
اور
##kule
sik
ngapi
##ጀመር
report
##reich
kees
gewoonlik
lista
ብዝ
diyaaradaha
solomon
alisisitiza
idem
##ambatana
cabo
baahi
##vany
shabe
##طان
wadanka
kabiji
##visi
agaasi
##anas
participa
##କାଳ
гу
sote
sold
veta
##lita
##ror
##weti
የፕ
ቅዱ
##пре
shacab
moeilik
ማሕ
ኢኮኖሚ
##መለከት
probleme
waarheid
kuchunguza
trade
moon
##dziwa
ከኢትዮጵያ
ɔyɛ
lani
##inii
##essie
keng
##raad
uthixo
annu
aplica
##icou
magazet
##6f
የሚችል
##ክብ
kutembea
sadar
нау
maiti
##menta
##hitriny
dogter
##inwa
beheer
anajua
ziri
mwanachama
kuwataka
buo
goma
##ኔት
##ceen
lent
##ደራል
aminy
ayu
ibn
ስሜት
распо
kisutu
##ውሮፓ
##ƒo
##choma
guinea
##ባቸውን
dif
caalamiga
moyoni
ኦሮሞ
membros
chr
diese
##jitahidi
jabuuti
##ጣው
chis
تاريخ
wataalam
given
ତର
emen
##ኝም
ithe
predi
resultado
##الث
##alimu
tree
tett
beibele
##yadii
genesis
##ises
##eshinda
ሴት
##all
gate
##9f
saha
towe
##نى
movies
mela
سكان
##ስተካ
አማርኛ
tabasamu
ሰላማዊ
##عدة
ofe
faraja
କଲା
##osas
የሚፈ
ግንባር
naas
bake
yaliyotokea
##jumuisha
لن
projeto
##ሓፍ
aliwahi
አረ
الفت
warbixin
balo
direito
okan
##omp
koy
ibara
##ɛŋ
pragtige
interpret
ወለ
amhar
nnes
መድረክ
miŋ
##bang
ankehitriny
umwi
mombasa
##ሎስ
ball
taŋ
tame
شركة
tradicional
saan
sannad
kukho
habar
##ዳሴ
ፓርቲዎች
veld
##стов
kulmiye
ተነ
tembelea
ejem
vikwazo
verantwoorde
##pore
quella
ሰር
questi
pool
##zisi
##char
taimaka
فا
##ɛnu
sababta
##ጣይ
kaunti
bura
duto
ታሪካ
majani
cɔ
points
اهم
ያላ
##bach
poblacion
##ደጋጋሚ
пет
mabili
minne
carat
организ
ቫይረስ
ilpu
ገሊ
ود
##kolojia
##enoor
dawudi
xoogga
storm
medie
##usta
##emane
suite
alter
stati
wend
kgone
mjam
citi
atcl
flora
ଥଲା
camara
cet
ununuzi
updates
hatte
disponi
chagua
ଯାହା
##wulu
##geno
280
asseblief
alia
leyin
alcuni
##feti
sid
ukanda
tlase
hanao
erns
tung
cabdiraxmaan
jonathan
ፕሬዝ
become
munsi
magi
faran
التج
komanso
1954
ዞን
ekwu
classe
መዝሙ
reen
hits
ብዛዕባ
ifika
magn
boeke
ସଥାନୀୟ
##tɨ
rob
cote
##راد
መነሻ
mjamzito
pand
ବୟବହାର
abany
##xoo
እተ
sistemas
ፖለቲካዊ
leste
ታላቅ
##inews
epi
ize
estadual
mukanda
arum
mende
mboga
nandritra
##git
temps
##hood
##sionele
tub
turu
##uc
##lungi
tpl
eig
hambi
voorwaardes
ବରୋଧ
hold
swo
gole
uene
##hwo
kapab
الوط
##eling
bazali
##hoko
smith
gouver
ahaayeen
cala
municipios
uthe
##ልቃ
little
moni
abaka
##ину
ଦେଶରେ
magazetini
قدم
##kers
maxkamadda
jiova
mgumu
controle
##bango
ገቢ
##8f
##katwa
የጠ
shom
##udia
иск
happiness
kanjani
##heshimu
##sanyaji
##faranga
ደስ
##شف
жиз
combat
dhawee
##kelewa
##cteri
annee
##tique
ବଧାନସ
diana
yuusuf
fare
##butu
କଲ
amang
حوالي
nefa
##циона
କରବେ
##ዴራል
bini
rapid
##ፈጠረ
hispania
##punt
ውጪ
xiy
wok
ndaa
autom
bazi
toepas
electric
rasu
inganta
muzi
musical
kitanzania
##xesha
##ابل
##more
1630
ayotv
attribution
kpan
##standi
##ambue
высо
shugabannin
bz
islamarkaana
wenga
contempor
##ርም
##woko
##7m
mediter
swes
##rosoft
##kumbwa
ምርመራ
الاف
sidaa
spain
masiku
##веден
##ظهر
##ኣብ
leurs
futsi
pc
##ريد
##ərə
##uer
wakenya
1944
caasimada
mete
##вал
##itima
ɲa
nwoke
##fri
كتاب
beskou
##ችሁን
##дии
dijo
##ଂସ
donc
cause
mientras
tompo
jii
magaca
alemanha
mist
febro
amharic
uuliyi
##hono
ibintu
ልዕሊ
##bole
quindi
sad
serra
##yewhe
ምዃ
##kungu
##veram
katavi
deste
manuel
febroary
ከኣ
bayern
envol
دول
conquista
الموس
تب
flores
horumarinta
##ገረ
##anyu
ahia
##ithia
yatakayo
##vika
##ቋቋም
##endere
##ip
block
##ambani
atiku
ପଟଟ
kuhifadhi
wayo
aweze
avan
casos
ଘୋଷଣା
##ୟାନ
##lees
##дет
joga
nuur
##mande
films
lager
dauka
##ବଶ
maabara
sucesso
senegal
##слов
##غل
magaa
depos
##gely
hotels
##yre
##hlabat
##okoa
isto
claim
draai
ወራት
ନବ
##yɩ
##daad
fab
##ኛውን
bajo
##toon
##gest
usambazaji
##hare
##ଏମ
##ابع
uhamiaji
ɓaa
##back
##zuku
##4f
##anyo
ታሪ
lakhe
gaalka
try
leha
ykn
mwamu
##gonga
yaliyomo
##ensu
የመን
##jiriwa
##zweni
ruvu
lap
samy
intaas
mdee
maagizo
anamu
pien
economica
በቀጥታ
kubeba
yoa
bilal
dol
ምርጥ
##vati
##koto
##kitisha
##amer
شخص
ያስተ
oorspr
legisl
afrikaners
dede
##уют
oog
##ገሩ
##imana
ninka
fayya
##indawo
አስተዋ
jiunge
ducu
kibali
##sent
omwoyo
dividi
fikamban
vidio
daro
##tog
zanzinews
vama
osha
ዕድል
##ከረም
chamada
acho
formas
##цев
##8m
##يلي
qaado
yahwe
lula
##ଦଧାର
waliopo
##amwa
##ья
##giliaji
inapatikana
ouer
desem
ነጥብ
baat
erano
tallace
raisi
የቴ
የሥ
xin
##osy
##kkeling
hususan
makusu
garoo
madarasa
##hambu
##edka
pambano
##lete
##beru
##ادية
##ረር
##volle
contacts
##tangu
ansi
emyaka
##singi
vipimo
discussion
rwe
##ፈቀ
ሶስት
##angalie
kushuka
##фе
balla
karshen
##hiisa
kɔl
##ଜଣ
tiko
##vore
##wanyo
marin
nahodha
ŋina
##ashiga
восто
##рит
naya
##omela
wadaa
##станов
amwe
huba
ተከታ
study
corner
designed
furono
##itado
ዳይሬ
bika
bashir
ammoo
mwenendo
umaarufu
##ieli
##ʔɛ
magaalaa
ከበ
##сно
##wola
##ым
neste
የተመ
ту
mpanja
ndilo
horum
dukkan
##itegemea
ፈተና
konin
vrees
##ሟል
##lou
ማስረጃ
##fish
sse
penal
##ነበሩ
nous
የድ
walaa
تس
hakkin
constitution
amazwi
##tage
zaburi
mey
zwo
чере
##jes
##enig
##ካሄደ
ମନତରୀ
refu
##toor
ምግብ
##መጡ
interno
##asoma
ଅଫ
ukwenza
came
##kwalaho
##dum
iraq
##vutia
##wenguni
pint
thoma
##lego
ukusanyaji
ashe
bloggers
oorlog
toos
##katu
forums
##ረጋገጥ
dello
የበላይ
mizengo
##ሌት
wanazo
skrif
regioes
yani
mbeli
lied
##usani
seguito
kuns
chile
ସରକାରଙକ
dyond
##مو
mafisadi
##ከባ
##kae
##кого
yesaya
wanapaswa
colum
nunca
##umeli
kuzungumzia
##ንዱ
በእርግ
riri
pueden
address
kuokoa
pis
tajiri
financial
##okwu
##wanela
##chika
arts
##ጿል
verskil
mall
الاك
ନାମ
##3f
microsoft
mbela
##longo
##kuka
yize
took
uham
##ppa
አስመ
##ጥፋት
dabar
umaskini
##ደንት
xaalada
petero
##hya
##itaanka
availa
ifu
##oracao
vwa
teatro
sekere
##ashe
kikati
ident
verdade
fanya
пери
chino
##lua
##روف
further
kic
##pem
tika
##roniki
estrutura
makasi
wait
qaada
##ାଯାଇଛ
##ባባይ
mecan
coas
cf
usd
це
election
ɲɛ
abinci
kufuma
anun
gevra
christe
alleen
##ላሴ
ماي
##org
wus
witu
##iki
kategorie
يش
ern
الجز
edwɛkɛ
лу
batun
##وص
##bulo
##waru
isam
ጥያቄዎች
guur
canal
##skrif
maad
keke
tipos
##зе
فقط
tudi
እናም
##qina
##yoya
##kwama
رو
##kinga
bernard
##cila
charu
ଗରଫ
namni
ziko
##ምፒ
##ziya
keeni
zya
##pendwa
##1f
ntangu
##thy
##ቤቱ
##fuhr
tumu
##eland
umwagiliaji
##vert
doorasho
የድር
ቴክኖሎጂ
ନକଟରେ
##angam
##vila
horay
rodri
##wur
##vara
qabto
##ቋቋ
jizos
##ዘው
gods
dəw
##wt
##ውጣት
1956
የመጨረሻ
يست
##2f
##nal
##лин
##lisation
simples
lebaka
##ଫଳ
aangesien
##arini
##kagua
jeeda
kats
chafu
inglat
ወዘተ
heart
ዘርፍ
ከስ
vika
volume
bilis
mwamba
ቻይና
##uring
እታ
kiele
baibol
philip
ofi
поз
wagwoord
nataon
በቂ
mayo
##wheyewhe
##ynayo
ulimwenguni
akimu
ଆମେ
##yanja
karatu
principe
ታው
ደረ
kibona
##umila
1943
этого
homem
##ligen
##lokho
##xiinta
##قم
haatan
କଂଗରେ
ପଟଟନାୟକ
##хов
nzito
##ደሰ
##ግዳ
okus
hijery
toes
rajabu
ebiri
jr
fees
##quele
##mari
wuta
##ческие
alhaji
navors
согла
numer
ህገ
wodi
campeonato
ache
##engu
geeste
mwelekeo
awan
finalmente
ipi
##chiti
##peta
wanatakiwa
drama
mateu
tile
##ነኛ
tsar
ŋulu
bohlo
siin
manuf
الفرن
በተጨማሪም
##ካን
##liste
recebeu
ፍር
inglaterra
##wige
echo
tp
entret
fisica
##komana
واست
##zye
ente
naani
ocid
ufi
ngeri
jini
rugby
##ሳቢ
gebied
alay
##dhiri
опреде
awood
stata
yeb
##kanu
dhima
ውሃ
phys
estan
gevoel
##yibhile
zaza
##intes
quanti
brasileira
somaliya
besi
bayo
##ooza
transport
conditions
##koka
##caan
karshe
##kelele
##isies
ги
arun
ቴሌ
vito
ହୋଇଛନତ
huwe
lafi
takukuru
yag
avait
##yata
##washukuru
##umbwi
gerezani
##wenge
matakwa
jiwheyewhe
##lli
yeli
erg
ባህል
grie
enny
goobta
moment
##ገለጸ
##gudu
muhtasari
roi
глав
##ጣጫ
mace
ስታ
##هة
##تد
tariki
ପୋଲସ
##etɔ
klɔ
##ŋnda
confi
biko
ngowi
hane
ign
kuwapo
munisi
tau
anɛ
icy
mbuzi
tutta
tand
представ
##ulira
gukor
bereik
akipokea
139
ተቃዋሚ
beer
ମାଲ
ملي
ሲኖ
albino
noem
gedig
##ством
##inyo
##راج
wum
true
##naam
thinkers
##ilini
##ident
##erskool
##طار
##ዎት
abus
እንዲሆን
boxing
##vunia
##bilee
kufahamu
ficou
##fune
peru
mudzimu
podo
ብሏል
##blad
##ashin
##bva
ajenda
obulamu
ପଲା
##ሴቶች
biz
##ituku
akiwemo
##yet
##vwo
##enaars
ልጆ
sawir
شي
bushe
transfor
nezi
mukh
##punguza
once
##ଙଗଲ
##вать
##cles
zwis
solar
ብርሃ
verwy
miaraka
ubuzima
vinginevyo
##rando
ogba
##tey
suur
azindua
nzoni
ତାଙକର
gegen
kartaa
dut
kuonesha
وكانت
##veta
mayi
1330
nangu
greg
##зда
maam
fevere
gɔn
akiele
matsalar
hobane
kuvutia
sint
##kong
mtaalamu
beskryf
fevereiro
tac
premium
kijinsia
##fois
##jetos
abdulrahman
##ንካራ
ጥላ
poss
taman
##letwa
##lizacao
##puo
tunataka
mamia
##baye
future
አካባቢዎች
santos
heen
devo
sameeyo
ተሸ
estar
##teuliwa
kunu
kgolo
nandi
##rote
teenoor
باسم
msafara
mitu
##ysi
yaada
kukala
##yeri
##ପତତ
volana
##homa
viatu
ŋg
diinta
##фа
этом
fois
ክህ
gukora
сы
kanisani
##ንግስት
fhe
tunaomba
может
partes
ማንም
aliyem
ትንሽ
##esion
perce
##onaa
##kuldig
кри
nacho
##رجة
##مبر
skrywer
karere
imetoa
##deer
##ርቶዶክስ
kigwanga
##basa
lɨ
ባለቤት
nsɛm
##kwepa
##erehekea
gɛt
dna
ଦେଲେ
##lieg
الحم
##вит
ଭଡ
ክፍሎች
##5f
المنطقة
afs
erga
##коно
document
gadiola
season
##cidas
когда
ጭምር
ciyaar
boti
fei
dzo
ግና
kely
tja
##mund
##funguka
##haaf
famo
часть
mabapi
nyengu
guyyaa
hadalka
importancia
ከላይ
globu
##ጅም
juis
xaafa
unit
##yamu
abala
ଜଣା
gabo
dunida
ꞌdi
##zv
ሞት
##osu
minas
mashaka
ሚሊ
atum
verby
ngaashi
##ودي
olon
##زب
ଦେଇଛନତ
##ମର
##teriores
##hehe
ruri
1959
##ሷል
mostra
jaana
##hoga
weke
##fanyike
##рт
##ንስት
tew
thin
sulke
##orri
indawo
እስኪ
diplo
##indaba
ualimu
gudi
declar
hoeveel
politie
phambi
books
##ቀን
kishindo
##ያንዳንዱ
##طب
entr
concent
መዓል
vakan
ትርጉም
##dl
sesotho
##wings
wanapata
imes
##ንጋ
either
crdb
kimapenzi
tlhela
##ganaji
nukun
አድርገው
adduunka
ጥበብ
##rə
ekapolon
morocco
##lioni
##geneem
ubangi
johnson
togo
carta
isaia
upelelezi
diray
relaciona
ଆୟ
##ጻሚ
ନୟମ
ተግባራዊ
##beng
espanha
evit
የሚሉ
##стан
ministro
license
##usse
##wezekani
perfe
anta
##epe
##وبا
##itain
reuni
hawe
##лод
##elede
##ngo
zito
##ስቸኳይ
okpo
ጥቂት
treni
okum
monar
zɨ
zinga
atthu
negli
##oron
natur
##ଥବାର
mado
reak
ngokuthi
veni
yaad
الدين
ዝነበረ
transfer
kwaajili
eventu
ጉድ
tekno
##akɛ
maafa
look
##ାଇନ
interesse
francia
yakabidhiwa
shika
ingiri
sʋ
sag
##bainika
maty
##عرض
fʋ
##vuli
inici
##reen
abalala
skole
ምኽ
binciken
علم
comunidade
አልነበረ
##wiizi
koso
wuri
##ятель
##wuu
##gae
##ጥነት
duro
maishani
nyɔŋmɔ
kashfa
habeen
የበለጠ
particol
rano
ŋolo
##ongoji
##betsi
sete
##inaya
treat
ommy
##ampha
ancora
det
politieke
bilao
##well
ад
##ማሌ
works
ଡାକତର
##suka
مجموعة
##ስፒ
##erstand
egwu
ଗରତର
ensino
viwili
mutwe
toute
beli
##glia
gima
abbaa
##isirayeli
mugabe
yia
mwaha
viba
ganaa
እሱ
##ሕቲ
nyanja
kando
ଷଟ
ned
waxyaabaha
vhathu
parque
##cement
##كو
deˈ
raundi
hundi
tumaini
dorp
trust
##thwa
##raawiizi
vala
kav
dollar
መክ
miya
##един
baad
vem
inicia
እንደም
kɔlɔ
carbon
kiarabu
syn
##شرة
nok
mataima
shaida
akuj
##ностью
khar
ushuru
hose
##chel
nimu
ଆଦ
vyumba
##дом
cibi
suoi
quem
##kpɛ
bitu
moku
sins
##ኒያ
nº
waarvan
dise
ndugai
natal
##tsɛ
inawa
celui
mgodi
bɛna
gavana
winter
##ينة
bidii
tantaran
definiti
##ሊክ
lima
kufuneka
platform
staats
tungu
makwa
msajili
icho
##vule
ndje
cape
adui
hole
dace
omukama
viunga
institute
fuer
kuadhimisha
ዝርዝር
posho
josef
maboresho
fres
formacao
ukus
guardian
еще
feno
ቀላል
በኮ
መሣ
##eleng
##sylvania
maboko
sarafu
ዋናው
kuifanya
assemble
##israele
turi
##ጀም
zakhe
sosai
akai
##ችለው
nema
##ateli
somet
uiteinde
አንዳን
በታች
tugul
الولايات
allow
hono
##ሸት
wansi
programme
christelike
waaji
loi
kwila
##ظمة
baja
1946
##ርና
atembelea
vivi
johannesburg
lucas
tsal
##wiki
gbon
##ungwe
debut
zok
لح
##wantsho
ble
provid
الوقت
kuungana
saidi
bakho
الدولة
doma
horta
сем
##deg
maalinta
##liziyo
##jje
mateso
katuni
##oriana
କୋର
vrae
##baadi
##khuluma
pli
index
##amat
rahotan
##9m
አራ
ଥଲେ
##рев
shawar
afin
efula
##karibia
tate
went
ከታ
hagati
baah
congres
mwao
ileng
##gtig
##ଘଟ
solomoni
##መጥ
##eding
loba
verkeer
1957
sowat
yaal
kizi
inkas
tea
uana
uncategorized
lasi
mets
##imbeli
fio
##haala
row
sae
inaonyesha
አለም
antigo
ɩn
##dawa
##mekaar
loli
kumekuwa
1941
##doonka
dawid
zid
jingine
##መለካ
makadi
written
عب
መስጠት
seuns
waswahili
silva
##وض
##kyk
##bn
ደብዳቤ
##maayo
ministry
##haus
##فن
##ники
##kashi
ድሕሪ
akuko
instituto
verduidelik
bomu
kone
tumba
##yie
##زية
kaaps
ତଥା
boosi
##home
##logical
benshi
banyere
##зов
ሥልጣን
расп
maray
##husa
kipaumbele
resaka
##ሩም
bamo
nueva
ubi
##чил
nio
ghwa
samo
haikuwa
الارض
##تين
haga
የለውም
nyankopɔn
kucita
##khalelo
##hanati
garaa
حين
haweenka
ହସ
glas
0300
##yina
dirisha
apre
ahna
##فاع
እያሉ
mongo
zwei
weerarka
wadhamini
##ንጎ
##عليم
አመራሮች
##safa
##dec
imem
panjakana
##በዋል
ይኖር
некоторы
llama
##ota
kamano
enor
тех
aanka
##erobo
gerus
hawawezi
lamba
pene
kwezi
##gusa
matiko
##atho
dieser
የሕዝብ
hond
donn
khamis
baban
##መቱ
##ying
##ands
sinema
yiwa
##انب
uelewa
pamene
laye
ଭର
politique
производ
umntu
##ଆରେ
##atumika
والذي
brief
##sui
##ଦଧା
mathayo
omb
atti
##ində
##beke
##lacao
##praak
nayi
2022
እርሱ
abdi
yono
##тур
francois
وبعد
##entais
mux
nges
wɔde
separa
ولد
##boho
части
empresas
engu
alaka
likizo
وص
##wasilishwa
facili
ifikapo
systems
##itoriani
walizo
##ናገሩት
##gate
##ufaisha
asali
ekibi
wuce
ሠራ
jous
kuchu
##ାଧାରଣ
mercado
aumento
##kwasha
illa
julio
gaalkacyo
mabi
##lywood
##тории
##лекс
infe
##ାତରା
##yizi
##orios
##еты
##kusi
enigste
##imea
kumo
##loca
dhahiri
##لاف
permet
ପାଖ
1947
circa
zuru
##ፉን
መሆናቸውን
##engenezaji
exercito
baria
የሶ
mabalozi
vak
migu
kamukta
ən
byge
foro
tya
##baada
kusimama
መረጃዎች
mait
##ومات
culus
gue
уни
riba
wamesha
karka
አይችልም
sociedade
mzo
bundu
kget
##yuni
ሊግ
anye
kuimba
##usaidia
mup
matawi
##ልጣናት
##itakiwa
##dodo
##iky
asaa
##tical
jouself
mchanga
##uga
invol
##thur
##енно
available
ontwikkel
resi
ପରୀକଷା
образов
litaka
consul
كبير
ምንጭ
dugu
debido
faini
ተባ
##stan
##stell
waad
transporte
living
lwaki
##hm
kaburi
##ጠቀሙ
##ganyo
xviii
الشرق
ያን
##poz
##fungia
##funde
##መዋል
##hulum
avoir
create
mzalendo
baadi
mahe
ngol
nday
mfanyakazi
dhib
doorasha
##ልኝ
በስተ
estr
##لفة
##galay
##ମବ
##kamano
والح
dauke
wafa
кор
pain
ସକଲ
ହାତ
tulikuwa
yusufu
nobe
##graf
isaac
##tuk
porte
taswira
##ାପତ
تقع
##omvi
##ulize
gras
werklik
golden
kibonajoro
nossa
cud
terror
naxari
finale
wek
##elan
ኢሉ
fudu
አልፎ
opini
##khana
##جلي
ନୟ
bakan
##ضاء
tsotlhe
##umane
##wul
##emmo
##fet
mikanda
##ichapa
sust
##ାଶ
mutima
##шения
cee
choro
wide
kolon
##atafuta
##ider
muto
element
posse
tais
onana
mbote
mikasa
##500
##unds
ugaidi
seb
አጋጣሚ
ማንኛውም
haiwezi
nad
saxii
##uriko
seke
actual
nokuba
baydha
price
mwakani
altitude
nich
nyamenle
ግልጽ
##hə
ወገኖች
ምህ
zahanati
##koe
ومع
wula
eeu
majambazi
yaaba
usado
costru
##got
##onan
##hlelo
##giya
የተሻለ
кро
##ତନତର
mahindi
weens
hebre
abel
wawu
regular
coach
አድራሻ
##eshsha
##sɛn
effet
fimbo
##uska
ኢና
kugundua
frant
amefanya
##kynlik
##ዳሪ
##isen
tolo
دون
##сса
leso
##ነጋገር
moord
jude
ଖେଳ
##loos
mnr
temporada
##tore
እት
##قه
##ሃብ
kumona
##onces
odinga
период
##жда
ትምህር
bekom
ባለመ
tiva
reng
##pad
idris
dela
dese
ሆኗል
rikicin
1953
##asani
pooki
khay
ebira
britain
ɛsɛ
##лез
##dei
inferi
ይኖ
lamarin
##huli
luta
ssa
##aniana
igo
nʋ
nthi
##lico
##dik
yanke
hadlaya
waliochaguliwa
kelen
وقت
reeks
mwanya
schi
cours
خط
mwimbaji
kn
espana
ተመሳሳይ
diz
ይፈ
поя
ከባድ
muha
making
klaar
##ባበ
##ነበረው
nuevo
deal
akiri
##derland
freeman
burger
##esele
asof
issue
mutabani
walioshiriki
gyihova
dula
sexu
hawapo
##teraka
fini
haholo
##imani
mort
##iriya
ህይወ
ከይ
##temente
kulya
##ብሪካ
##ሞን
ይዘት
##ልማት
##ረቡ
nove
የፈ
##uten
العم
ugavi
الاخرى
umuryango
allaahu
##ficado
maemo
##haribika
neku
ps010
ምናል
yɔrɔ
##سمى
niguo
##eries
beeg
ndicho
khuu
##kimu
marais
welle
johane
talaka
zinaweza
histoire
106
dheeraad
вто
በመሆን
municipa
termino
tsia
свои
moins
mahabusu
##ለያየ
##leedka
##elho
lyn
##zyi
##shike
yessefk
asen
ፖሊሲ
ግምገማ
##ativos
поэ
coloni
riga
myanda
belangrike
1949
##gei
gaga
bui
የወን
lefatsheng
##janu
festa
##tol
ضد
##antany
aard
ዘገባ
ይኸ
##uula
siti
##ፈልግ
ря
##sio
visiwa
isaka
##deleterepliesreplyan
kutoku
##ዳቸው
shiry
откры
angeles
taorian
##ительно
##wesi
orden
##diki
sesi
disi
##wanu
makadirio
ming
##дь
mayar
##arawe
ዝግጅት
umasi
##ጠበቀ
engels
yett
ብት
##hona
nago
immo
xiisa
jade
##ادر
qaraxa
seconda
gevind
religion
galo
##maki
kimsingi
##nyuma
rondom
seiner
3a
komba
የጤና
##gare
##orado
ɛzɩ
gest
fudh
samaria
icons
##ካሄደው
janga
##ጋና
##atum
##ጊዜው
pennsylvania
##rian
##wɔn
kinder
##лении
##bok
ɔl
verk
matakin
##enni
##bilita
##bonelo
crista
performance
##mawa
فه
bibliote
##yska
##ሁት
yesus
ትና
heka
yehofa
አላቸው
impe
fron
ለመፍ
##kondig
kuchukuliwa
##time
simolo
tababar
inki
doa
##meen
away
##ፊዎች
##heiro
ሰልፍ
1938
freed
##endet
klu
quello
##dt
##yig
مسا
##ስቡ
posto
stuk
creation
##льта
##husishwa
ngana
exemple
##зя
gle
##ass
kaufela
zii
nkan
wanaendelea
ntlo
governem
xusay
dondoo
wasiirada
hoto
اعت
##uray
##onsi
ummar
ጋዜጠኛ
aare
sone
ntani
sogan
109
artes
wakifuatilia
ሜትር
##ɠaa
zaku
mtunzi
مركز
gedeel
modelo
laur
አንደ
pena
##tut
guddaa
hatuwezi
##iriki
tagay
makanisa
##ማማ
##ପାଇ
##unia
daniele
##urende
vrede
karakter
መቼ
የሚገባ
##umuni
ଭାରତୀୟ
ɓee
miskien
sung
##zua
احدى
много
kuwezesha
tae
unis
dhab
yenna
##جا
lingine
##dihii
##kanda
ndʋ
##gaal
immedi
sima
specific
rural
##ከቱ
mbwana
ultimos
norway
ለመቀ
tlhal
colonia
##badilishwa
##daro
##loe
##vani
стал
celle
##tanisha
rayuwa
items
mpiga
приня
##enci
##ссле
construction
መፍትሄ
ନମ
##harana
##grond
##vuna
iphone
##стре
##انت
ሳይንስ
##dzɔ
boqol
ጳጳ
##phezulu
##andukanye
nijar
leyo
##ደሩ
##вич
scienti
##ዩት
consist
masikini
##ompa
nri
##cke
наи
##tronom
##kuat
##masia
kk
##mou
arimaha
liboso
ଆଶ
madogo
евро
imeanza
kaapstad
##xaha
joined
jedhe
likame
hlan
##zisha
##puu
ፕሮፌ
ምናልባት
omary
marc
##giro
##bɛn
bage
ଅଭନେ
dank
eins
kaak
mwenyeji
kutunza
quil
elisa
matasa
пло
kuwawezesha
##انا
mifupa
131
jamus
ور
cuba
joyce
preser
laun
tsebe
servicos
xwe
##etsi
warri
dsm
##induka
##ishinda
пос
ŋuti
computa
##hepo
بق
mafuriko
##athon
##ାୟତ
wish
obula
tɔk
##шение
boom
genade
##ጠኝ
osoo
ከት
mɔgɔw
munda
##ቅርብ
##elong
##lir
##зан
diffic
##ዥን
mashitaka
geys
oltre
ibraa
##ለዋ
##hapu
bobo
поч
coin
через
##zou
##haibuni
##umziko
groupe
ହତୟା
kiserikali
дву
##halo
##хи
animal
kukataa
цер
##wuni
ወይስ
azungumza
suppor
##zeli
ochichi
አገራት
ughaibuni
supre
перво
чер
eras
##ует
##ላለን
agbo
##andry
تل
ouro
##maji
wamet
##andleni
##bɩ
##вил
wajasiriamali
العلم
ଚେ
kwamitin
##ረቱ
somente
komo
queen
استخدام
krismasi
wanu
teil
##rast
##pts
ран
aff
aliki
መመሪያ
##zun
##yse
##вая
nobel
perd
##gharimu
##aton
keni
##zinduliwa
macal
jwtz
sioni
dulu
##camento
ያለበት
ngə
estable
gobolada
sentido
ମସ
##piel
##konzo
ସଙଗ
ሲኖዶ
##በልጥ
##kania
uvumi
##ତରରେ
bastante
fenom
ଶେଷ
manji
##ethe
lazaro
evi
mifano
sno
مك
especia
dubai
waaqayyo
cristiano
ولم
squad
ገፅ
litta
ባለፉት
ganacs
ଜଲା
##анием
##isch
optre
html
146
studios
##chwa
cameroon
ꞌꞌ
##zul
##ለጥ
move
universit
ያስፈልጋል
##eu
ngoi
waddan
##ziwe
##cciones
byvoor
##wania
acqu
ilim
##itishwa
pasipo
kpahe
##lemi
##cow
ተጨ
kushuhudia
arab
jooga
dø
##hitsy
release
три
automo
##ናይት
##اضي
ኮሚሽን
ሚና
apu
proses
xaaji
genero
vermo
sise
ጠይ
bapt
ambiente
damba
##wako
kigezo
работа
##nement
onto
##fute
ይባ
influence
##باراة
alexander
##iembre
##kure
muonekano
ኖሮ
alas
kismaayo
track
##ɛɛn
dalkaasi
amos
1955
ተቋም
ጠንካራ
mien
horee
distin
elas
mwigulu
125
jid
ነይሩ
akani
##fə
resto
##ብቅ
ehi
##eseka
dimen
##tetea
##сты
baabu
rates
##mʋ
sok
mondiale
sorg
##erage
ବୋ
independencia
ለሕ
daukar
የመንግሥት
aco
በጋራ
koninkryk
##dzwa
akkasu
mokili
##usao
##шего
wenzangu
fele
истори
ኢትዮ
diplom
ikh
kutazama
##qond
wadada
##ongesa
atimi
password
altura
sasany
existencia
naomi
habarileo
sensa
friends
свое
##чнои
መጽሓፍ
rre
በመሆኑም
mra
##ለኛል
dete
##finta
##leiding
##hilahy
ummata
ሰራዊት
##qinisek
##ንቴ
chaka
pratica
mega
vigogo
rios
makusudi
kapi
egbu
divisao
##isal
hind
quien
خل
ابي
interess
inspir
walitti
ruim
##ሆንም
corri
ଯୋଜ
##ema
##logico
equival
##etera
##نع
በበኩ
##pum
kinyi
utukufu
eritre
kibaha
##ደርገው
##ላንድ
having
عبر
obho
christopher
аль
##volɛ
wafungwa
momo
isma
biyy
eyen
ramo
ସମୟ
lod
zara
##wea
##lobo
gestuur
ଟର
##ቀርቡ
mamilioni
cari
##ሪት
wantu
##bisi
gine
##tat
##ብዛ
cone
୨୪
фа
mathata
##oc
ትክክለ
##ombwa
homens
##рук
pada
coastal
yeeshay
ጥቅ
ዘመቻ
yoruba
caan
##ራንስ
koka
##pete
##yerɛ
##tosha
wae
fast
inabidi
##bishwa
የሆዋ
guru
##gcina
ସେମାନେ
tsaron
range
miliki
ganny
##ተኝነት
bhanga
##tific
kah
##change
agaasimaha
bhan
##rier
chir
hisani
ghasia
##inayaa
##omelo
ማድረ
kugu
ከዚያም
forcas
##atela
##umisha
##ческии
ንግድ
zhɛ
##ящ
terme
udongo
inatoa
##emekana
reste
dhal
уже
##اية
crescimento
zuri
beskerm
basata
ዮሐ
produzi
yaalla
bilow
መኖር
pessoa
##ritos
የወያኔ
opsie
##ጹም
atribu
حق
nahazo
lashe
chanjo
ery
wila
oluvan
babiloni
##dija
niri
##ikara
venezuela
የዛሬ
kilu
swinene
которых
የጦር
tati
##عمل
##widi
##yda
##kishwa
ብሔር
бра
kujiandaa
##umbuliwa
##inikizo
kimwe
##kamer
##ቶቻችን
##ଟୋ
##weyne
kiy
bono
bero
##boda
ይገል
leen
ከህ
##ገዝ
##vuru
የተቃ
##keit
gaas
memoria
gestel
tutti
byvoorbeeld
ሰዎችን
xuma
hydro
ଆକରାନତଙକ
shariif
madaxa
matara
##ombana
##ኃን
##arian
##rɔn
kwesiri
##ዝቡ
##belle
##тои
wieder
укра
##yai
ujio
maɓɓe
dimba
posicao
mgbo
##isiraeli
ልማ
gelukkig
barbaach
##ትርያ
##itwe
bakor
revolution
##endela
labib
##gambi
##likse
kuamkia
##tene
takatifu
various
yennu
deebi
kuolewa
##vyosema
objetivo
khou
qiya
##ombelo
##lweni
##ଥରେ
mashahidi
uzuri
espaco
##cla
hinga
impres
amesha
##ffaa
esau
botlhokwa
umakini
dyn
##ዳማ
campi
##jour
##ካሪ
rein
yanayi
onbe
##toonni
istaa
capit
147
nino
እናንተ
indic
costitu
##الح
otro
ባሕ
ɛhye
gebou
ବଜେପ
ହୋଇଯ
ମନଦର
አዲሱ
##kyi
nkoromo
inkosi
gek
sca
damas
homself
kombinga
##ዴታ
1936
##imulia
watakiwa
hususani
hamo
мет
##ላቀ
##orige
##itek
bayibolu
##urnal
jiki
ukombozi
##endes
adawa
kidevu
wn
##መም
ebola
##pitisha
third
##сследов
##iselo
##ፈልጋ
bewys
##рабо
kilio
sakat
##imisha
##ichezea
##jju
##ዋቂ
yavo
ruux
tuis
barra
##galka
ribe
دي
vantu
##ୋଳ
explor
texas
faritr
simulizi
##ዳይ
uraia
mowa
##rer
tshɛ
scene
fernando
mahu
ଦେବ
agrico
lys
##jiuliza
##افظة
##fafa
recom
##isikia
tunayo
heshiiska
woman
tplf
##ufu
##voeg
homena
kern
wine
መረ
##ɩŋ
አቅጣጫ
nyambi
jaw
##ልድ
##kumo
##dora
እርግ
##zire
ivory
##ማም
##ventus
##zonia
sabato
samatta
የሚጠ
التن
يس
qaadan
alhakin
##vaha
pire
girl
campos
kumba
bahe
munich
mathe
kine
ويت
созд
sengo
##logica
##kpu
wasomi
finland
ocean
##цен
الطا
ከአንድ
aten
milyan
በወቅቱ
cooper
1952
куль
mlinzi
##gus
ithi
kushughulikia
ndza
tartan
ontwikkeling
##etas
ለሌ
tirada
uchungu
##misha
использов
hawata
ଆଗ
##chim
ስህ
በመቀ
አመታት
wethu
##ongelea
##badilisha
ବହତ
uenezi
##mais
rahoton
fundamental
##ନାହ
ତାହା
baq
desa
против
##ଘର
##ينات
ከምዘ
##مان
ugenini
changu
yethu
##urira
##anaan
##kosea
mihitsy
lɛa
##timento
aasa
eph
##kste
privacy
از
ost
vhe
fish
malezi
domo
akamu
የእግዚአብሔር
እንድት
niger
governa
##utswa
احت
##nihii
መከላከያ
##folo
utilise
الشيخ
cata
##swahili
##kwaani
ggwe
##ላለፍ
luc
xig
##лить
juna
gutu
benga
##bena
##alisa
بو
nthowa
возмож
##anyana
afrikaner
##ŋge
ngorongoro
watalii
##መሩ
##ଡର
nanti
##lingo
участ
kurejesha
yatu
##ସକ
kugbe
##zid
##اضافة
3u
##idhin
locais
sowie
rayuwar
cross
diko
##ፈጸም
около
saame
mande
tug
criado
goor
kunshi
##ichaa
ryk
anyu
##ንደ
##dhifa
የማስ
አገልግሎ
##طلق
##uudiga
##gide
drink
cikakken
kgwe
wahamiaji
mwilini
القدم
hewɔ
gereza
ukuri
decreto
mandra
spreek
##ለበት
##خذ
zimekuwa
واس
##anwa
unacho
##kiyar
miongozo
chumvi
bilisummaa
kuingiza
dabi
nits
በዚሁ
منه
ogni
##ାୟୀ
verga
wahitimu
##erika
menejim
አለማ
loma
araba
joma
##atiliaji
ngasa
ግድብ
panda
metodo
anton
agh
mue
yila
##engela
wrote
ps170
orile
medical
bv
##click
##zuni
anacho
etazonia
aŋa
deɛ
tukufu
1933
hatima
##кии
siendo
##граф
nolo
nouvelle
imewa
##ላትን
yohan
movement
##ଳର
ekpe
acom
yarje
unaona
mwin
bafu
seat
ɓeɔ
onongo
esin
essen
ilya
##vey
##wic
##biyo
##khaya
##ɔsu
ogbo
juventus
##onne
ngangu
tennis
hayupo
aloha
unaendelea
የደረ
azalaki
ዜጋ
##fees
kɔkɔ
##درسة
kujiuzulu
leboa
igama
##zaba
duru
bungi
fundo
hahulu
البح
zwischen
##once
##واع
inn
መሣሪያ
##tum
نها
##yil
ŋuna
ክለ
##ପେ
pheto
##pendekezwa
eda
##porta
##ኣት
omwene
##በባ
yeɛ
እንደገና
##ረኛ
mfe
dado
sahara
ezinye
kioso
manufar
intaa
البحر
##ሰጡ
fix
valle
leydi
double
horas
dalilin
idd
nouveau
##ସତା
ufahamu
##lb
##ием
soa
ପରଯୟା
campan
anefa
alliance
vreemde
americano
ተገል
torna
dier
conti
mkulima
discla
mucaara
biyaha
kusubiri
raggi
elections
musulmi
dje
##bwira
naw
espanol
ተጫዋ
случа
going
ከጥ
ከቀ
##tels
angel
##humayela
habari24
##haana
##iaa
aristo
اللهم
##vari
thenkoromo
kitaa
ayogera
likambo
ግለሰቦች
score
rro
##wimi
apho
##cede
tina
umukasya
##sanaa
umbali
inol
describe
verwyder
tajaa
vipo
baydhabo
senhora
kɔraawiizi
beau
kokuba
arziki
frei
economico
مرة
interven
mmuso
##gano
zik
التح
waheshimiwa
techni
##boek
dru
lɔɔ
join
##msa
##ках
##ineto
congre
doortay
лит
stri
snaaks
yimɓe
୨୫
erin
urug
##yst
disclaimer
pron
للح
kirafiki
ireland
##zinga
baso
በማን
gs
democratic
virgin
besonderhede
##hing
ገበያ
##tik
##тем
released
##هور
archite
mahaba
vanjaar
##eneke
##በሉ
##lʉ
kuitwa
born
alcan
##ksy
subje
መከራ
##ାସଥୟ
ବରଷର
ebit
coca
sandan
መኮ
አማራጭ
##gil
##ୋନ
##terio
anza
##piya
##وني
statement
##ondu
والد
##ይቲ
zvin
jacques
##ких
eric
##غي
##onali
cudurka
alema
aliko
##kuavo
mafu
##ример
exo
kapav
meru
መጨረሻ
##ቀፍ
uro
##feri
##ɛni
ଜଙଗଲ
torre
ǁkha
mɔn
##fira
##erɛɛ
ଭତରେ
عمر
aantal
unic
##وبية
116
gamma
dingwaga
##ህር
##bras
mnyika
telo
##ଚଛ
##يران
nzamb
##duka
##isayo
##pungu
zek
##arra
hena
୧୫
ପରକାଶ
##فض
vivutio
biala
##jeo
character
##entado
ps160
alipotembelea
##issa
glu
tuji
##ାତୀୟ
soja
jestina
##arovana
wezi
shawara
maber
unido
например
መና
yisi
gespre
##elles
##pped
skura
uchimbaji
ରାଜୟର
##ሊን
raza
sarkin
ilio
##kanyi
village
человек
##zere
muze
##thene
idio
ruto
bathi
circu
##kusanya
kgat
kulonga
zabuni
##ɑɑn
sameeyey
##soor
حل
algo
pequena
##zɩɣ
dji
delta
urafiki
##dp
carr
##jon
mahat
##phansi
ግራ
##cchi
гла
##jiyey
waren
ngeci
nice
maama
##angazi
##መነ
juwa
pipul
##କେଟ
над
##pahala
hyɛ
##ବାଇ
ntanda
principio
kako
shishi
##dados
##ይዳ
onwa
kitaka
yakin
ponte
paese
madaxwa
nucleo
viumbe
መስመር
aver
ራሱን
arkay
gespeel
##ufaika
pontos
##zeera
መንፈሳዊ
መገ
comport
uguo
oza
##ከላዊ
sosiale
##ɗon
##gten
##banya
##yanyasa
ዘላ
##fakazi
dalle
##ورا
nalu
dzu
stadt
gizo
области
wapima
##uruu
እስር
karkashin
perf
ህወሓት
##ذكر
ɖeka
ነዋሪዎች
anterior
##utos
እግ
funcao
ኢንተር
jet
##cture
##lones
አወ
##arina
bongofle
godfrey
majuto
certains
itum
kunst
##valo
የተባለ
የኢትዮጵያን
እስራ
##vao
kanaaf
awataka
kufundisha
##kwana
##gaye
##pangi
дви
##ereke
##iee
современ
ron
##wamu
kupigana
menejimenti
rooi
القر
verband
ସାର
ኃይሎች
imin
gɨ
akia
##lewesha
altre
isis
wakit
immoo
jeed
есть
manha
##сит
rosa
bunduki
##qal
##malizika
##lings
##erna
ndip
государствен
finfinnee
yarjejeni
wow
mariam
muhe
مر
مب
shabiki
##ନଧର
mapumziko
##ወጣው
tini
##bonisa
nambo
fifidianana
filoha
ukarabati
kubaki
##areeb
operation
##ሳው
impr
kutwaa
##ለስ
କୟା
240
##ombola
beng
ଧରମ
inna
sure
##sai
jaka
##ками
ishu
ስቴ
fundi
##ɗɗo
message
jinai
membe
kufuta
##anea
##mood
gamba
##ented
cem
ያደረገ
sace
amper
##ାନୀ
yɛlɛ
mbuli
##timi
وتم
##କାଣଡ
upepo
bamwe
vietnam
କାହ
##amde
ଅଗନ
panya
##ርቅ
sebele
guta
##weebwa
poa
samba
ବାର
dili
antony
##unan
anar
izrel
yagize
taasoo
##wulira
1942
nebukad
nir
waliok
wakiil
круп
itt
элект
ግዛት
##kwat
##нее
በገ
ଫଲମ
pageviews
aaron
diambu
ପରସତତ
rita
وجود
ପରଧାନମନତରୀ
##kiwe
kuham
##tio
କଂଗରେସ
nyɔɔ
##veer
##enana
majaji
##meer
##cwadi
##web
opos
kifua
omba
kode
pequeno
saki
ngwo
elisha
wafdi
svil
1935
କରବାର
ወስ
ሪፖርት
hape
والن
koŋ
##qonda
##зульта
byose
соб
##ባቸዋል
ଉଦଧାର
ହେବେ
londres
nip
akitokea
ujinga
lungu
ngemva
tumia
##itsh
##benzisa
aterineto
##dier
beauty
ଆଲୋ
##ርሻ
aanda
##ବରଷ
tiku
buur
hoggaami
turismo
asɛ
jahre
ବନ
##cele
administration
bhana
##vunjika
qad
sixu
kany
ntsh
pesquisa
##teed
lingbi
esu
она
qoraalka
تا
##pito
seku
##rs
##gire
##ኦት
pigo
ps140
##gblɔ
ሁሉንም
##ɑm
hamsini
kungani
entonces
mguu
kɔc
botlhe
doro
ndg
##يرات
mabu
kansu
galile
igp
kaj
predom
nesse
##lank
କହଲେ
kishi
nyanya
linea
motse
newspa
##mara
##landela
maniere
cher
redes
aling
gradu
بس
የሚሆኑ
جامعة
##enia
##iasana
##cce
instru
##ማሽ
##kɔɔ
##ରଚଚ
wahr
divi
akifungua
danksy
dhici
nasema
##bawa
ds
##oshin
wand
жен
ал
maqaa
bondye
fronteira
caracteri
ଲା
abrahamu
figura
deka
ando
guil
1900
osolobue
иг
bubble
الامريكية
blɔ
##qqa
##usto
abamu
##ließ
##lawa
##ariamente
mian
##pendeza
##ukurasa
haj
uiteindelik
cita
##wangule
referencia
##fant
##ishsha
କଣ
##reer
ታዲያ
##ole
yakiwa
poana
nguzo
##داد
##yihii
toba
በሌሎች
mother
haiwezekani
ପଞଚ
alini
ober
inoltre
rere
njenge
enco
hut
vision
bevestig
pang
##hetha
padi
##ታችንን
noro
##embea
nahone
вме
ሃይማኖት
##hung
choice
beleid
limit
gedurende
njambi
studies
##xx
bza
##endas
##asavyo
baxday
##ଡକ
hear
##tenham
результа
dhowa
borno
kasuwanci
distancia
##ሮን
grow
##urin
ارب
kufikiri
acid
##nos
сев
voors
##ስተዳ
tweaks
statis
##бои
moga
##baza
wuru
created
ከል
dukan
##omoka
daarin
kumw
niyo
ବାପ
##има
##enyu
perspe
bic
የነበረውን
##elekeza
bantsi
champions
##iriye
##ረግ
formar
kifu
##wandii
popo
kuthibitisha
boma
##መንት
##ɗum
siam
cum
boor
borwa
tract
aroni
በአጠቃላይ
##وث
teɣ
gabor
##usalema
acred
iu
имен
ሁለተኛ
student
mitikasi
##weg
ଟେଷଟ
uhoro
##wasilisha
##ዕና
##ابق
epai
##yun
##itz
leba
##likani
miller
traffic
akanya
##መልከት
kamo
makam
##لاق
journa
##plos
##wuka
wokovu
##tangulia
ቅድሚያ
##ɔkɔ
##ቢሲ
kuwapatia
##yudaaya
uitges
##ግባብ
vathu
ujasiriamali
elements
##dings
kwala
አመለካ
verhaal
##dhuriwa
kujitoa
lacagta
bammata
done
ሲባል
madagasi
gumu
##esababisha
giza
##lene
ŋm
phezu
##ያንስ
କରପାର
tafiti
ከብ
kers
lubanga
marathon
nul
dhamma
الطبي
harry
humano
##wid
##ij
##دل
dimpoz
reto
##خرج
marca
kupenda
imaaraadka
halima
tsohle
##ችኋ
##мет
yeremia
tlot
lukwangule
manya
hitler
ско
##грам
awɔ
vroe
##ሞላ
##amele
tela
##лага
##inger
waliofanya
ଓଡଆ
taan
##temwa
haddana
wanhu
eddy
##illes
shinikizo
##ifi
##khati
الثالث
##pɩ
critica
veroor
##zalɛ
khuli
##ବଲପର
yecu
ለበ
##essu
karama
##ራሪ
##ному
ለዘ
miljoen
исследов
asara
kusho
average
amesi
uhaba
vosi
guitar
ይወ
##itv
የመገናኛ
##lendo
gior
##huhuda
fried
##isyo
##ikitra
akut
##ତନ
nokuti
situe
maximo
ማየት
ቢሊዮን
##wike
##дол
ኤል
##ንጻ
##giji
dance
##erung
##gea
liku
##dez
sool
mosala
pendant
mint
wakii
##layi
diep
አነ
inhoud
nuuni
ሃላፊ
sɛnea
ወዲህ
cafe
akas
igwe
mataimakin
##ሊት
commercial
alba
الاح
بما
##ıs
145
ntsi
naaŋ
ши
kiku
asar
##sembe
##ово
##يية
ameongeza
##wolo
tabu
##ାରୀ
sometimes
ping
##phet
проис
##asubiri
kammala
##ↄↄ
iguru
ወቅታዊ
ተወላ
sokoni
lokela
##ାଗର
##teke
zero
dhɛ
gɔd
madagasikara
dhall
##huru
በውጭ
የምርጫ
ezalaki
ସମବଲପର
##yiso
##كي
##hlukene
decor
buux
bt
##ɗin
kusambaza
yatangaza
##пра
jeff
keki
manera
yare
##jesus
##hudumu
luo
sojoji
##aneka
በቃ
yoane
medida
justice
tunapo
kuc
##aswa
nian
siel
rappres
##zzato
መቆ
thank
አቋም
##wɑ
nyekundu
investiga
ድምፅ
развит
wall
ସଂସ
kog
##itud
mashujaa
wachimbaji
board
obus
loa
adlis
governemanta
الثانية
##lera
ais
vanga
felix
ooit
ዳን
shiryen
gose
##kep
##buti
umasikini
fica
duur
##stryd
amash
##cb
mishi
አዳዲስ
asilia
rodo
menli
unique
dila
mediante
chon
tratado
##atorio
abim
˗bha
ukuras
ikut
##yawa
ଘଟଣ
vendi
ሰነድ
ተን
wanamuziki
gudu
minor
reprodu
##ondera
ፎቶ
##yelo
##angazia
gebore
##ارا
##прав
##lelezo
tenga
militares
##oran
##bak
mota
received
lange
##gique
##мента
##atul
organizacao
announ
ଅବସ
##ମରେ
xukuumada
ло
##dewa
ampli
kigwangalla
##sum
vikali
قر
##elek
спе
islaamka
##ቷን
##erera
engeri
##telike
historico
እነዚህን
##inada
largo
lyon
ilaahay
sobr
##hati
##zeich
akpe
vee
##ርታ
##يدي
##вшии
animais
inwon
taken
ofere
presenca
kuingilia
##сср
dambi
funɛ
اسب
karto
gola
165
##ombelona
الناس
##ibua
gumi
##wiy
anati
ጽሑፍ
namwe
teke
jerus
derde
##ሳኝ
ekonomi
##benki
##جن
telef
hospitaal
www
lamu
develo
ኣብዚ
estavam
##deur
መልዕክት
madawati
formal
hotuna
nwɔ
novos
katabazi
freedom
yihoo
kasashe
nakong
##post
##liro
koto
помо
መጀመሪያ
duma
lahayd
idu
##gqi
persoonlike
በተመ
mmwe
sweet
##щее
baovao
kexile
##yoogaa
##kulo
situation
ሰል
kufuzu
eens
amafaranga
kwim
uny
ecrit
##velmente
islamic
ejemplo
nsen
##ɔgɔn
دور
liwa
##kibwa
መሸ
lehilahy
walii
##foon
kalan
##ረታ
kumsaidia
تز
viv
vorige
ارت
habe
sallam
utaka
nuhu
jak
lese
ବରତତ
ପାଳ
##effan
##onoma
aanval
serious
faara
marzo
የሚባል
##tale
ଆଣ
##gisha
wasifu
##ombia
ପରବ
tarime
hona
##ቁም
kuharibu
##unit
toddo
ସମସ
maimaim
የዶ
##ንግሊዝ
mwomwo
girls
##ዋር
##ଂଚ
kabiri
slider
ofu
##sɔɔ
emwi
##ዋርያ
ebigambo
##gome
wete
##ከው
ipasavyo
kosi
vumbi
የጉ
gaadiidka
##اتي
نظ
የገንዘብ
revol
umati
voca
nosho
##wɛn
ukuth
##dok
##ياه
comercial
##الب
problema
##ାଖ
pant
wɔa
##سمة
ɣa
asase
besondere
mɛlɛka
moyen
igual
nass
##ሕአዴግ
##ሄዱ
##ampy
##funu
energie
ibs
##ثال
##anua
##january
washirika
lieu
##бор
vidogo
especially
wavu
gic
##yita
tora
senza
##lisia
##ريقة
carabta
lana
ଶଶ
jad
соот
hauja
entretanto
##yek
##fautiana
challenge
award
##looni
akazi
dann
afp
##kaazi
##gena
##honi
ትዕዛዝ
waam
iban
##kappy
munaasa
veroorsaak
mlim
kuts
homa
sarka
##ቴን
1917
groups
ikan
eupsa
ደስታ
ቦታዎች
rir
miso
##veld
##ancin
considered
ania
ipe
luwa
##hethe
novas
oluvannyuma
اللي
##phun
exter
##ୟାଳ
المل
nomin
mseto
kofin
abdullahi
ifuatavyo
##wiza
yaliyojiri
##konda
puso
##ተናል
voice
##xaka
##mme
##ending
##ମେ
kifupi
coro
##yoota
lisa
##ateau
المسلم
የኢኮኖሚ
##ontein
ሆስፒ
algeria
sams
ከሌሎች
##hisho
##lemo
##cian
##mor
ofishin
##ŋk
oloze
##yaya
esika
wapate
##ɔma
##qaba
ଅଭଯକତ
genes
msikiti
የተባለው
obten
ኦርቶዶክስ
yum
##деи
بالاضافة
prior
muafaka
##pereka
gmt
других
shomari
ameeleza
gooi
siria
ɛnee
##300
##gote
ain
girma
directory
wɛn
anjara
ɔnɛ
manan
##ayo
##okpo
mtukufu
gbia
##rate
kwaya
ነፃነት
unas
amɔ
minti
mubu
##voko
##erada
tese
kuun
##ktor
##ፋን
##ichango
wanasa
##fano
awaji
##longa
gake
##anela
murima
пла
ትናንት
eona
muro
1937
ଦରଘଟ
##bax
verhouding
በከፍተኛ
œu
decision
የሚሰጡ
succes
ሆይ
chegou
lugola
##ambere
vuur
fanjakana
kusaini
ikir
woma
verkoop
اقل
bubi
кни
resour
mikubwa
ndefu
داخل
evo
review
olee
kamuktaindet
goro
uff
##vichekesho
##سكر
magacaabo
metsi
##пол
ወይንም
nokwa
xiv
kio
wakish
##kunan
drop
##mam
vaze
versao
##cic
mavun
##ዳሚ
##deli
tropas
waliohudhuria
itoophiyaa
mtumiaji
##zise
revista
##not
faransa
##ген
otwa
2a
jirtay
mediterr
##ናይትድ
makatibu
نحو
##yɛl
وغير
sego
gobe
addun
##irsan
inve
ଆନଧର
feito
##idas
marios
##zany
##fam
##lazwa
ଯୋଜନା
##ꞌba
executive
##ትስ
##raim
##boola
meas
irre
magnet
የሚኖሩ
yindu
piet
##yane
showing
ପରଚ
составля
bambi
xee
##orts
funny
fanka
waliba
كبيرة
ciidama
bwanji
sola
yemi
insi
tenim
##ppel
ରପୋରଟ
ndino
lix
##irayeli
tinham
chinese
ልዩነት
dɔw
iewers
souther
##fuatayo
##bilite
ngue
##cɔ
##isit
አግኝ
daarmee
##hileng
prent
କେତେ
1500
##ጨት
##than
хара
vrug
tind
ምሳሌ
ndizo
pray
##etes
owhe
##ገልግሎት
aura
##ус
##ቀሳ
jezi
kwahiyo
стан
souvent
##fumana
ps210
quelques
aqui
##ill
##itaan
nbɑ
waendelea
audi
##rede
ones
##بير
aids
##vane
kawe
arro
##taire
omolwa
jerry
mshikamano
##amile
ባለሥ
risi
##phatha
mitovy
amandla
dokokin
##امي
adwuma
##ufi
vergeet
በኃ
##jə
##ieko
laai
mummun
especie
amsa
част
##ାଉନ
##ርላማ
uliyo
usoo
stelsel
niliyo
##wind
هد
beide
immi
ሀብት
##ledge
palo
geeshsha
apoio
##ration
ውድድር
utlwa
##benza
السا
##щего
phy
bod
##pori
##cii
ወጪ
pilo
dominio
فرن
sayar
##ዮር
##fahr
keli
የሚታወ
##icont
1040
cili
iweze
##utwa
bukaci
ኣስ
nduyɛ
ଉଠ
##ହଣ
ଏମ
anaku
majini
ፋብሪካ
wyn
kukimbia
ପଅ
namibia
##дель
neces
##maal
след
##dhu
##guqu
nande
fitsarana
##hiya
abia
mmiri
ordin
qii
ସଷଟ
daaroor
afha
jazeera
ከተሞች
tsə
##rys
##mg
kinni
ይቀ
##cheni
gaborone
nilim
##cting
kupum
ፌዴ
enf
siiyo
songo
##tab
##ግን
aron
daag
ive
بار
nadi
የሚያሳ
malembe
parad
kwit
kusafiri
mwanasiasa
flori
ubongo
cə
wø
##ሁድ
##bank
##umbulu
udo
ruzuku
ନହେ
ଅନସ
##millard
patr
##annin
zinasema
##бур
##ждения
କମଶନ
aere
intsony
abaku
quat
በተያያዘ
kipengele
urugua
የተዘጋጀ
waarskynlik
አድማ
несколько
lli
tong
eben
የሚተ
internasi
agricultura
jɛn
ବାସ
##ረፍ
መስከረም
2018millard
##ሆነው
yiyi
ይመስላል
କେବଳ
550
##rir
shili
##werya
nangwa
clear
combin
nyinyi
periode
الهند
##daar
ବାହାର
##ቻለ
hetsika
jadi
ammaa
presies
ingekuwa
ሥነ
tottenham
golf
ସୀ
450
አስተሳሰብ
femin
faham
ስርዓ
##rita
ଭଡଓ
##boon
##ኒት
108
ortho
prest
##hawa
##umbiji
hikwalaho
##ካዮች
anae
kupatiwa
noqotay
atwa
setshaba
##blogu
swaar
тру
##atsh
##jeruhiwa
##itual
ضمن
building
nha
sowel
parts
kutia
мног
musoma
nguru
muwaad
##gc
##onyeshwa
##bezi
akata
##ፋር
kulmay
mio
##jul
አለኝ
tigra
jio
anaty
꞊dhɛ
የነበሩት
mimea
presenta
anakuwa
zvo
##zilla
waaweyn
የከተማ
##ሬን
carreira
matajiri
vibadala
giti
spor
zanak
umm
juba
kaz
wareega
komi
wayahudi
wakifanya
አለባቸው
kess
እኩል
kulwa
yakwa
mtaji
hiri
wamem
##ributions
##buza
uadilifu
epoque
usingi
haeba
##zuba
##ቃቸው
nahe
toyota
maintsy
##geu
##anthu
ትች
127
bonso
##hlela
ଦୱାରା
academy
opa
tsotra
iraisam
ଅଛ
undi
##kololo
ترك
globe
qabo
انا
ujue
mwanzojumu
##iamatukio
##msaadam
mwanzojumuiamatukio
karibunimabadiliko
karibuniukurasa
bahatimsaadam
bahatimsaadamichango
التاريخ
حم
##jya
##anite
rahoto
penzi
tess
##льных
##umiki
hujaingi
sigi
kursi
##leɣ
josefa
reve
proced
##part
##وبي
akauntiingia
prak
##iago
hiicont
imene
failikurasa
##ributionsunda
hujaingiamajadiliano
hiicontributionsunda
palestina
##ድያ
##sadeen
##athini
##ኾኑ
symbo
hira
##fes
mpasi
kuruhusu
##jihusisha
beet
jakob
##fanek
dhacdo
timoteo
##yisi
ପରବତ
likelike
karatasi
##anie
##ɔng
##pasa
machache
##ظيم
efeso
alie
990
ଅପର
##ድዮ
##bato
##ጠኞች
qabaa
##ቀቁ
theory
የሕግ
##qhubeka
ufun
daɣ
##vante
origina
hera
##ፈጥሮ
##buzo
horey
zonse
issi
akti
##شاء
##limia
##nic
empe
naari
goyon
##wafanya
aikatan
obore
saraakiil
قص
##ጅቱ
##tood
ehu
jawaab
##coin
معظم
limekuwa
##sible
##fm
المسي
iseraele
ngun
fabr
ufupi
ebibi
የሐ
##ulanga
liu
##ieur
##naye
sanata
kilikuwa
##tsiny
yamekuwa
##fungaji
##kedi
##valu
mǝ
##ggend
##verina
##aruri
bahoaka
caca
tsawon
mista
ancien
##bɔɔ
initia
dome
heze
##fukuza
biɛ
rule
russell
##ipata
##tena
expert
pase
መኪና
amini
southern
kushangaza
litaba
allem
##atele
celulas
viungavyo
የሲ
pus
ቅን
##pwile
dabal
эн
##edza
##angalizi
место
ጳው
##ereye
ps070
kheri
##diu
tomo
zer
middle
بك
pamp
##ingie
##atokeo
ନୀତ
kuier
ምሕ
ተሳት
##bing
kinach
ሆቴ
raan
##lisme
msimamizi
##نان
makani
shaaban
matarajio
ነውና
mahara
yesuusi
##busa
shirkadda
ଆଲୋଚନା
السعود
yafuatayo
wany
##zote
manara
esia
soll
##kundo
beri
cade
##ኛሉ
lembe
##usalem
bazalaki
script
basis
ନଷ
ସବା
isiraeri
##keze
opport
kadə
universal
funga
zie
bote
desarrollo
rek
makame
##jare
##usela
noqdo
sari
qoray
##ungum
المق
በራሱ
reka
##ceram
الدا
##culos
bli
##arieti
##amaan
gewil
በትግራይ
lezaku
ait
tulipo
##yaani
##heka
##راسة
noqona
muchos
wapiganaji
##ሾች
experience
reaksie
##aradda
nyana
различ
вклю
freder
geleer
##kundige
##shangaa
bonse
bauchi
jukwaani
deutsch
የወጣ
zimenezi
incl
1a
taro
##bida
anaamini
wabula
provi
serem
setlho
usually
sakhe
adqu
##ለል
##achia
ରାୟ
aguas
ruru
##xy
hoef
ପରା
qabi
##lyo
##inwe
haandi
dessa
##gomo
mapishi
ଘଣଟ
mki
rost
means
cs
##lava
##chara
alpha
1922
qorshaha
tunge
##ɔs
3d
##angula
##gging
syste
##wise
iddy
kuxi
products
iɣ
benz
የምታ
##bolana
የሚወ
##ضي
##ongolo
##imamisha
nomba
##ସବ
bbcswahili
ngaphambi
ችሎ
maqal
kavu
mafy
##ondolewa
የእኛ
udhaifu
bour
##400
ingabe
بش
እንደሌ
##аны
israele
##phum
mathem
tiya
nyere
weiter
escolas
descend
kʼ
##wos
giovan
wetenskap
barack
luninga
infor
cut
##hirikisha
##lamika
##graphie
##amilia
kusala
##tigos
botsa
palavra
safa
akijibu
marx
##କଷଣ
xafiis
##kiye
yedi
ብሓ
ተረ
insa
ouder
aleke
kigira
nilaza
##ruok
##berna
##portes
wandi
molo
dhaqaa
ሥርዓ
##قيق
##hoa
testament
elias
kutua
required
agano
##guli
##omboa
iruo
oorspronk
wanawa
voeg
kyokka
bawa
##aneng
дж
них
##hiana
tindo
148
ያላቸውን
##جي
##ବେଶ
mamo
kuunganisha
##kilizwa
nete
nage
kwem
deriva
naweek
##arela
sɑɑ
الخل
nup
trouve
taiwan
diction
الاي
uone
##cile
ngeenge
ivan
swilo
neh
ରାସତା
##ليات
##craft
visu
##ляр
ikumi
jubilee
lost
eines
bine
##dadi
xaq
concentra
##kok
tagh
mpanda
وما
practic
##ገለጹ
daidai
akum
db
akon
rice
አስቀ
estudos
ከሚያ
faga
unachezwa
alip
nwaanyi
toepassing
##ety
##ɔnɛ
##unto
yaab
##وط
tbl
indica
территории
estudio
##kame
##amour
aniga
tup
hawajui
deegaanada
الشر
ponda
##irir
anatakiwa
homo
##gosi
ጎን
congress
stay
psico
filhos
የዲ
saara
khum
ማይ
uanachama
##umes
organisation
##በረታ
miguel
##atie
##adze
mukua
ndee
ብሄራዊ
wachi
##lied
ufuna
nuclear
1929
##omewa
stone
alhamis
##ንሢ
##arai
wanajua
tulio
kambo
nolosha
fə
gebring
##ንፃ
watsi
##скую
በ20
без
##wasiliane
1951
କରାଯବ
nyuki
kuhusika
fumana
الفل
##ንክ
##ናፊ
mazi
jala
##qondo
##ющих
cheo
dimoun
recursos
wp
ଆତମ
##lesa
kugh
yika
aquel
##chunguza
##tery
ሀገራት
ወንጌ
produtos
melao
እንግዲህ
مجلس
jerusalemu
kony
estadio
ମଣଡ
youth
##fl
afka
kuzipiga
industry
##mem
ድምጽ
upan
zola
wanta
##usurika
##joog
##unhu
ƙasar
tzem
vvu
jazz
gobalka
የሆኑት
champion
wayn
##glio
lone
ተገኝ
inahitaji
khus
fampi
hair
አባት
superd
kugeza
kemi
በዕ
##ŋə
##وبر
##ାମୀ
##dao
##usuru
hiiraan
ଏକା
##ateen
gero
كثير
geɖe
momb
መፅ
##ственно
##одер
##amaji
moderne
arin
jino
wulu
##bamba
##eriam
ɓɔɔ
##باب
anatarajiwa
humanos
lililopo
##amena
tsira
dria
ରହବ
lite
##ሻገር
##onders
selemani
wenger
نظام
##higa
##geera
sort
##isikiliza
##iasaina
##ysta
##شرين
##igwa
orinasa
paso
коман
francese
##kusan
କଷେ
afhayeen
##ongelo
mbovu
##gona
ନରମାଣ
mya
sashen
francaise
##гов
##ደረጃ
biyyatti
##ился
kwakho
toege
normalmente
ziyarci
##kiliwa
hampi
##bore
##ደስ
##lifu
##gelea
inoo
musulunci
haruna
lup
siman
##thern
ምርት
bug
የዜ
regs
الحديث
doŋ
tweets
##itura
insh
moma
italy
lisboa
bodaboda
tumboni
##حا
##ባባ
gesig
rafa
መብቶች
muthamaki
151
illust
pipol
##gizi
примен
nesta
ይመ
least
aim
ହୋଇଥଲେ
chegar
presidencia
##ደና
bibel
##istico
ራስ
##ዋዕ
##hanna
amakuru
waraka
credit
##ዳና
hack
wivu
faarax
##inshi
##entacao
ɗaa
የጋ
gongwe
kupelekwa
##roe
feki
##ገነባ
eac
umthetho
utamu
censo
ምልክት
##hangi
пис
##istra
##pendant
beplan
tompon
128
##ходит
##indika
алекс
##чных
hava
fabric
vos
##tional
figh
##fwaya
shit
958
matt
##лев
xvii
mayai
ቤተክርስቲያን
sekretarieti
ପଶଚ
acesso
attem
square
ମାତର
onver
airport
##yeel
ተጠር
seguintes
taxa
ikpo
genet
احمد
##anayaan
etiti
cependant
edition
##ему
##yans
##عداد
##раб
вос
kondoo
##ጫው
diminu
ኸም
##ching
fitant
manufa
kuwekwa
##vamia
##isang
atia
ባለሙያዎች
igb
tony
rail
lintho
##fna
precis
ଆସଛ
kaart
makon
የተለየ
addanci
jita
matar
##khara
##ልክቶ
два
##يري
чтобы
##rad
##туры
speed
##kamilisha
ሪፖር
lwo
inya
msumbiji
ቀይ
poor
tuun
##unguo
##ziba
##ungisa
quer
ዝቅ
yerus
andere
##ዕል
ଅନତର
##deni
classic
secondary
geni
##uz
tetikasa
sunga
##ometa
##ደቅ
marque
kleur
##utsi
bange
##ويل
##ነብ
rico
administrativa
jamu
نوع
isbita
generale
##انات
##gisa
aid
djo
kupende
##himbo
afunga
የጸ
posit
ସୱାସଥୟ
moscow
##fran
abbas
apha
##ynayaa
##angiye
qalabka
##ନାଥ
يون
xiriira
በደቡብ
##rɑ
principales
##bakia
ወደፊት
##lamo
slee
##aniin
каче
##rao
wakut
በቀላሉ
moderna
traves
efu
caval
##وما
ସାଧାରଣ
##ደበ
voorsien
##hard
##hesa
oghe
sharif
sportpesa
##inay
tshama
kek
##centes
##ତୀୟ
kuwaasi
bahar
##lib
##ኘው
nuovo
ተጠያቂ
##يادة
##sawa
долж
##riwa
hiɗi
ujasiri
አጀ
getty
mootummaan
ଭଳ
yoowo
mashe
ahoana
kamer
kupand
##bik
nl
##lique
holy
##anisa
fall
##gero
maqu
serve
##ለቲከ
shaaci
notes
ngeke
abanga
katsina
capo
ditiro
itatu
##itetea
visto
toest
##itaja
xoogan
##تيجة
##мина
##ooyinka
общ
mnyama
##amisha
ሃይማኖ
franz
በመጨረሻ
አንድም
utakapo
thought
wosi
semel
twiga
dhinte
williams
studente
الجيش
##ጽሐፍ
##sada
ደቂቃ
ଆବଶ
##ɔa
faŋ
firi
phat
##arem
topo
##giu
መንግሥታት
tindi
horumarka
##pianatra
rimwe
##ዕኖ
ebir
##rano
julie
nyalo
##urre
irai
mbezi
ତଦ
##ضر
5a
path
aheyd
##bhɛ
##unze
preci
mitume
kec
dihl
##ركات
ndien
uvuen
##pose
୧୮
ongelu
##ሰዋል
235
omai
##ሎቹ
ady
kombisa
mutapu
de7
##goye
##mie
በአማራ
የይ
kwin
holl
##нима
hoewel
hʋ
angela
dhalliny
ɔbɛ
tempel
ምት
kuzu
##anyɛ
wadde
graad
##ቅናቄ
nbc
እግዚ
mwandamizi
schools
omundu
luba
##sando
weche
semana
stock
hant
##ieg
adə
wajjin
##ɗu
##лия
الاتحاد
##cite
##gix
##vered
gerais
koosa
masumbwi
adv
kikristo
drive
##alle
##publi
እንደሚችል
ସଚ
##ارد
aur
lonke
dhuusam
chica
4a
madh
mtoni
peninsu
stryd
tutumie
mbolea
##wards
spoti
anyun
በሶ
ጥም
##imia
##duje
##itable
اعل
##ɣt
yuni
##ururu
ሰይ
##zoea
##اذ
##oman
emin
##ፈጸመ
kooxaha
egypt
maje
sentle
cens
professional
ଆହର
##isce
heddu
##wamba
በተደጋጋሚ
ይገኛሉ
ମଳଛ
شمال
##polisi
distingu
aisha
mangi
mpik
##qada
darteed
сторо
##heeda
##eya
##usaa
бла
iron
ብዙኃን
фун
huidi
نج
saru
##esya
voorkom
በቤተ
able
mpana
##yei
kwali
ratsy
##werhu
ነዚ
ብን
wars
wakhti
bikin
aandag
wanaishi
donker
አብሮ
##isahau
omutima
kimata
developed
##linganisha
degaanka
ዘዴ
okpa
mollel
##тия
waze
##buto
##tek
issues
##dooyin
lae
tanda
ዝብል
endrika
##ଶୀ
##tahay
goal
montan
laam
siga
fonction
##nim
##መለሱ
የዓ
ବଲକ
affe
wife
ህወ
ሰዓ
##ised
218
wapa
##yeme
cwiny
˗nu
nibo
wyse
##gione
##ሌክትሪክ
hloka
##dulo
##rato
walo
colombia
##anio
منا
dominika
fiv
##روع
በኤ
kuiba
##zva
##ጧል
fokus
estudo
kok
##ismos
biografia
wildlife
##wakabili
بالن
gui
tta
##uuka
የማያ
koda
dhoo
plano
produk
kowane
seti
vrye
##след
alfred
##games
##fontein
##ompo
tuni
zeru
##ении
##teek
oman
##isubiri
cane
##dg
kurudisha
##piana
vermel
mnara
inze
##woordig
hell
compara
موسم
##lulekile
##hase
##bɨ
##vona
ዮሐንስ
yite
conserva
systeme
የጀ
piga
##feli
ክሳብ
##delike
democra
##onyeza
afro
bɛyɛ
воен
##ሥር
среди
ለመስጠት
ያቀረ
لاح
otra
##bitishwa
jig
##khristu
kichwani
ሙስሊ
piano
itai
phen
stella
##ብረተሰቡ
##zamu
##ጊያ
107
በሽታ
tace
##ather
##образ
##bats
utangazaji
ቱቦ
##ريف
tranon
fuhr
1934
beelaha
ታሪካዊ
114
quality
##vanga
mchu
consum
ଏଥରେ
seman
qaadeen
contex
ciencia
##ficar
##kholwa
nhi
##etan
##katika
የሚገኘው
##quier
##ganiro
##eraka
የዩ
ameamua
atin
baaq
ይና
شكل
##erings
nuut
swona
tuf
##leis
batalha
takara
zija
быть
diva
desse
ନେତା
woro
ጥና
##ስተዋ
communes
##мат
zusam
##kri
working
considerada
kuda
kusaka
clinton
የቁ
##ጡን
daarvoor
resol
##umɔ
trading
фо
##ረዱ
##guta
roro
tukiwa
fifan
explo
awie
##ething
##umile
##ggya
kuut
##teurs
##فظ
##prise
edificio
##pao
uliofanywa
##ካኤል
##ସଥତ
ବକାଶ
sidi
behoef
##gacao
##andani
##bonye
##urado
vur
ወላ
opportun
##wei
በፌ
##ʔɔ
largest
fifandraisana
tokoa
ayoŋ
atari
ንዝ
##raan
##biye
##ppen
##inao
bonus
челове
ссср
اللا
mlipuko
uzalendo
estende
الاور
##əi
##geed
metatra
##etha
njama
##አል
##ሳሽ
parana
patrimonio
dora
rara
reun
##elezo
akkuma
የሚያስችል
##fala
##duko
୩୦
pilato
fitao
ସକାଳ
ана
deke
askar
versoek
##реи
finn
function
##ምጣት
kumuombea
##komeye
jd
ኮር
enna
##ruu
haddaba
mpian
museum
##hefana
guul
##bilidad
##ନୟ
##guka
kumuona
qoo
atividades
አልባ
анг
የኃ
yaji
اصبح
kaye
kpɔn
tlhom
##hawu
kumuua
soviet
##bine
abata
pina
##gelaat
lavi
miy
fanao
mkito
ɗon
okuk
passe
sterf
garab
ላለ
marketing
##kanisa
የመጣ
##hyira
plekke
вс
يل
##ganga
mafoko
##tembre
##muka
ayuda
##6938
waaqa
##atives
##oraho
utilizado
xiray
davide
##popo
daladala
mori
shafuka
mure
akho
ɔm
yeeyo
##worho
teria
teg
esses
flood
focus
ghoro
kudumisha
##kelwe
##honga
если
ɲin
fadar
##zzazione
bami
ታስ
tuvo
ching
فترة
bogolo
uzye
intanet
ድርጊት
nombreux
ଭାବରେ
saro
##kasie
kibinadamu
##grafic
drag
beweeg
mahiri
تر
adri
masina
etyi
kpalɛ
ከኢ
jakobo
##gwanga
dakatar
##እምሮ
##antsika
suɔ
hutu
onyesha
carri
buno
mpu
relacion
kova
##ших
akin
doit
biba
ubangiji
verbet
##rithi
ngba
##ichita
ebɔ
##khutha
##ايم
olimp
ጠቁ
##wide
mann
ps120
ሀሳብ
##bire
wape
##ريب
##siku
##ንተር
zvaka
ክፉ
something
##alonika
##urula
##kutlo
##tido
disse
leiers
yaali
##pier
##orona
kaali
##jal
inwe
truth
lily
##essuu
##konsha
oware
tund
onon
muwa
##rak
##doe
jeer
dress
ଆସନତା
##kuya
marxu
ukwi
veter
##сков
bangaren
mandai
##hiniwa
kacha
kyerɛɛ
ተደርጎ
kutaa
reich
xukuumad
##joka
الكل
##ungia
cuenta
geeriyooday
dzina
puru
welt
ут
один
##rero
wasaarada
ዘው
vus
kuwait
wayi
sewe
bewer
lives
words
##tit
coordination
ደህንነት
##4t
aani
marti
parmi
##wyn
##nat
kanneen
ambany
spy
olom
pama
##ани
karhi
رس
##cə
##cano
yewo
jara
figo
kutaja
##zeit
##cious
banja
ያነ
ପରବତନ
##jinsi
yapigwa
##israel
መፍትሔ
ishii
##lisy
dhuusamareeb
mshauri
##halali
##سلسل
consecu
ወንጀ
##amula
pamwenga
በዚ
##khono
##емо
learn
ngang
vitamini
##etro
rac
##спу
plasing
bomoi
bixin
senior
сти
faith
northern
charge
ntirho
chaguo
umute
izim
reuters
erst
ntsha
##asia
##ingir
ଜଣାପଡ
##xil
вне
kisarawe
የሰላም
##deleterepliesreplyanonymous
ሰም
hino
155
ባህር
አጠቃላይ
እኔም
የግብ
territo
##ፕሎ
kujifungua
بج
mbata
##gɩ
sites
gudbi
##iteite
judi
abantwana
##demi
ፕሮፌሰር
suff
esempio
xiran
boamma
##osaaso
самы
ቀጠ
sibe
oficia
hadin
kudad
134
wayya
##ambiri
sett
##imos
muoyo
hawakuwa
tribu
chaguzi
khalfan
guku
akifafanua
zil
1931
hato
##aruhusu
abeid
##ancas
##lope
vincent
wɔwɔ
ask
##linze
##oraa
##gender
naweza
horjee
lɛk
lapa
effek
feel
boston
##ገዳ
##amuru
benchi
adis
##shavbo
##кла
##طية
##komste
ikiwamo
kuelezea
buto
обы
##haah
morning
dangane
##ሽት
##putara
6a
bewus
nci
##طبي
##haga
vue
##anani
##amos
rather
##itani
##bui
toets
rebe
particulier
##hukumu
nuo
tomb
##ላቅ
dhiga
understand
tsaina
emirembe
adul
dea
الرياض
oowa
ahon
የሚችሉ
gegaan
ዓም
cɛɛ
ଖସ
##elt
neli
azon
اثناء
ମହା
matusi
ଜଳ
tokea
nekk
##asse
wazima
bukuku
vlak
matthe
emig
كرة
unidades
##ଧକ
nahay
##lles
kufikiria
mallakar
##amun
totale
pepper
raka
የኤርትራ
ማለትም
الروم
likolo
gula
##ክሲ
hogaami
yate
##ዋለሁ
wanatumia
##jid
makaburi
mesa
##ysto
##umbile
##tead
ngoro
ohuru
ɔkɔ
##ዎቹን
##tangaza
rica
laban
mitego
alitaka
olana
тран
##quement
##atajwa
mois
examin
allen
eritrea
##ድል
##ɲɛ
##weynaha
mwadui
##yuk
bongo5
reje
##olwa
infatti
kungiyoyin
የመጀመሪያው
initi
##itoe
dakken
sater
nikam
vipengele
cismaan
kuin
kaloo
dilka
protected
##liano
##indana
ovan
rhie
##ይይ
miemb
wilson
origen
songs
mwanahabari
##kenk
##rama
aanges
ମାରଚଚ
hamis
##bhalo
included
соответ
elik
##bhayibheli
##yale
በብዙ
##mn
broadcasting
##sadi
betrou
запад
linaweza
##old
invece
كن
akkasumas
проце
torne
##ክታ
kuanguka
##xaan
##вые
umwami
mso
ubina
sugnaa
mathemati
richmond
catolica
##lese
##فه
በአሜሪካ
sagte
##shasa
ша
ingiriiska
ሓበ
ተቀባ
##neur
##umbufu
عملية
ଉତତର
efile
состав
zamfara
##اصمة
##fang
lux
##ishini
harrison
##ପଟାଲ
weri
gevaar
gaaffi
የግን
##ede
##ሠሩ
alayhi
luse
organization
acer
##يسة
lila
##umuka
воины
ху
##dɛn
የሚከተ
myi
diego
akhe
established
qaadi
ፓትርያ
##جمع
##telling
##huna
abang
zifuata
##phelele
##redi
nobu
tuweze
gereeld
##pcion
ዳይሬክተር
7a
filip
##atarajiwa
llin
ସଫଳ
banaan
##sheni
kujitolea
ikes
ɓu
##قص
chane
typ
xuquuqda
yawɛ
##meko
qorsha
ян
cce
##ଆରୀ
ugomvi
##bino
##ልበት
##fundisa
noon
بينما
profa
ବଧାନସଭା
kwas
primeiras
##ሊና
goobaha
hwo
##dhila
watetezi
##essi
##рая
algunas
ɖu
##soz
##личе
sungula
qaxoo
igbe
repla
makocha
##qeq
arabe
##anakaviana
##pashe
##vato
petrus
##intany
kujieleza
mataki
##ፈጠረው
profe
cancer
##yeho
faust
##geeza
movim
amaka
daada
attack
ioso
##ଭୟ
adighi
independent
eventos
##losa
observa
የተደረገ
##rasie
abay
##ciil
##zig
aliamua
turn
baiskeli
##ستخدام
hedduu
знач
kiafya
##ፈታ
bez
##hunda
manerantany
nasarar
кня
akipata
##andoa
linal
всего
localizado
1910
kumn
1932
krit
##ጦች
ngulu
ይታወቃል
قب
##sto
kunda
antsika
##wans
##indlu
booli
nimekuwa
dhalinyarada
nifanye
reforma
bete
description
##ambique
##anina
parliam
አልነበረም
hija
yosi
produced
galeen
escape
prefer
extrem
wameanza
##getsi
##ናንተ
##ቃቤ
meeting
الاغ
instal
iyol
estacao
الحر
lugares
hufanya
jones
##мот
aposto
##uriya
burudan
torn
upanga
dibedda
ማክ
asom
##yuli
которои
petroli
##ልካ
abubuwa
anaendelea
##ግዚአብሄር
bakaba
bibilia
yɛli
##ጀመርያ
وعلى
kuinua
reta
wonderlike
##ግለጽ
##ራምፕ
walinzi
amon
vlo
ሀብ
##ጠነ
1928
ouest
konyo
kusisitiza
iter
bɔbɔ
indice
mokgwa
ግብረ
##كا
ukumb
##ɲa
tino
##erias
interview
kiet
##ሱዳን
##chem
##thola
كاس
##qobo
kufanywa
garoowe
##unganishwa
ስፖርት
##pigania
جدا
ራሱ
220
ଫେ
ሊቃ
##atoria
##wad
yimaa
mbɨ
tloga
እዚያ
viu
##kund
yine
ሐሳብ
significant
رم
##irio
በግልጽ
utambulisho
tunahitaji
ଦାବ
##ሴት
rabi
scott
corporation
arumeru
##doro
frag
##thers
ford
##رع
casti
ɔha
##льнои
roberto
fihe
ireto
##əndə
8a
ፍሬ
##መኑ
etant
##tream
##inia
##vista
ውል
miha
##wanyi
loon
##ንግሥት
inclusi
lakho
hvo
waathirika
##ontlhe
imperial
inicialmente
ለማወቅ
tecnologia
hojje
melody
bonde
amategeko
zifuatazo
##kɛn
wesi
##hado
americana
harka
ቢያንስ
##angulizi
##ለፈ
ପରାୟ
langer
арм
##jela
посе
##него
njiani
наибо
ogwa
autonom
keuse
journal
akila
##ዳሜ
kenan
##ynuhu
##xada
opi
ክፍያ
cie
gulu
deix
ስፍራ
lepo
##angili
##vora
kukom
##usoro
autonoma
neke
север
sisa
ኢንዱ
huidige
##tei
mpendwa
шко
##kɑ
kukimbi
##qqo
declara
##md
##ଙଗା
blood
drei
eega
##ኹን
##chitika
consiste
hirshabe
kivuko
##kkig
نسمة
ንኣ
##ushaka
geeska
##ambulika
lukuvi
boammaaruri
##ሀት
tc
ahsante
##ጀመረው
1038
ɛnyɛ
yalo
kukos
ሲኖዶስ
ኪሎ
##ሽከር
лин
jlo
plantas
yus
anatu
inspe
##በሳ
bilood
##kutsi
እንድን
можно
dehibe
gord
kwathe
kufikisha
maher
seka
ጠብ
##ቶችና
الدم
ዛሬም
ሃይል
cambio
##cked
##ୀରେ
ukitaka
kultuur
zilizokuwa
anayes
yinga
ˈka
##ንሲ
##khasi
dhexeeya
timoti
tuɣ
135
˗a
##zionale
seks
dallas
olive
##ቀቀ
##wand
estaba
##ɓɓ
sinza
tb
designa
naxan
upon
yapata
wanaofanya
##ህም
ustream
##ነታት
ሕይወ
nget
ekonomiese
supa
##linganishwa
kigaidi
በምን
uhoraho
nʼa
ismaa
##gelwa
shum
flights
gie
blyk
oxi
##чин
##ሰጠው
mujer
##kanaka
##них
እርዳታ
chip
ስለመ
facul
sehlo
##ensia
kwal
addunyaa
tende
bayanan
dhibaatoo
##yiga
ସେହପର
##ሻሻል
piya
klere
nilivyo
wavo
yɩɩ
surface
##ficios
nwen
##ولي
በመጠቀም
##ዝግ
kizuri
translation
nkha
kupitisha
##скому
alikiba
##ክሽን
##merk
##antu
servico
rahotanni
elles
kɛi
##kumana
battle
pfuna
##бов
##кономи
bamba
kurekebisha
ufuatiliaji
##creen
##citi
gelin
##nima
kuchaguliwa
##ራስ
##zingatiwa
ensemble
chicago
##eram
safaris
utilis
quatre
##shana
1000
ସଥତ
##unguliwa
##seerde
shiina
##boreshwa
##ደድ
##onele
##khatsi
kuuawa
dhii
##standighede
vaar
koowaad
dry
tales
saad
latela
የቀረበ
invloed
kuwafanya
##nung
##ɖee
ማንነት
ଯାହ
tap
comando
dram
##ଥାନତ
kpakpa
##ithanda
karu
اللغة
ɖokpo
##ጠዋል
##kaana
ganacsi
elemento
plans
##damar
##graph
##cun
##ህዴ
assess
##riza
mauji
mdomo
##under
ቁር
disputa
kumiliki
характ
##body
ሙከራ
የዘር
##ቦና
icc
##zion
المنت
ଚାହ
leader
музы
##keme
hoofs
##pire
##dox
nebu
encuentra
##kpru
##wangwa
moab
guide
##isoes
sed
poland
##adamu
kusitisha
##irikare
##amel
##omoa
sheegayaan
civi
sri
لع
##athane
jɔn
kibo
mehe
reda
واحدة
##eracao
ilhas
naija
всех
agwa
العربي
በመጀመሪያ
tf
vifungo
kumfanya
famille
بيت
ɣɛ
##нут
kuuliza
dumela
##ɨm
eedeeyay
##mine
ଗୋ
##buda
##teil
escra
structure
соста
##фф
conde
ଜର
bedien
##wabo
corru
aat
ግዴታ
والس
##duk
utapata
##kumkani
##ኬት
kuwii
##ዮርጊ
##вра
ବରତତମାନ
##wum
hd
##تل
##ishie
ghɨ
##foi
honor
##ителеи
##jibikaji
keliya
##etswe
inywe
asem
##yr
##loi
dadaal
onlangse
##ielle
##vbe
ntchitu
niny
##uve
ibikorwa
kigo
province
dokta
##ጠይቅ
##mont
novamente
vamu
##ators
fotsiny
التص
gada
abanya
mchumba
##lun
ଜନମ
ልን
kubadilishana
dye
ማረ
inani
titel
gata
ци
አንቀጽ
##ለዉ
ዴሞክራሲያዊ
##ርብ
hanyoyin
gewees
##ଠକ
charahani
salvador
фак
casas
##onais
waandamana
##fuza
ଜେ
##fut
yok
##p97
cuatro
nchemba
shighe
ukoko
vyuoni
utd
bevol
artific
projek
wadudu
defe
##ከን
##kiki
lk
ndyoka
##janga
iby
##linyi
jahren
shujaa
الفترة
ciise
yaqa
##efen
126
##ଜନ
##ፁዕ
обе
1925
##dishu
ሁለቱ
##ፏል
##መናን
##khat
kporo
thanks
oriental
##ድረስ
diid
##ାନାରେ
argagix
##fele
##anaha
xogha
uburyo
museu
swak
mariya
rispet
wanaamini
ክልሎች
времени
pake
quilomet
##gter
vyetu
tenha
##polit
##rand
kupungua
##lanka
xari
contrario
parliament
##ଷଣ
andron
mahmo
ተብሏል
bayii
##juu
waliotembelea
remember
##umelo
##loss
scrit
oran
طا
##impe
gabon
dhiig
ingabo
yait
256
مقاط
princess
тор
##راييل
କରବ
rakkoo
cakuti
mayoria
waarmee
phambili
irma
wiwe
matter
rubanga
କମାର
ecc
ስለተ
ɛwɔ
liɛ
ስጋት
vipande
##grund
##ዛቤ
##engono
soda
bishop
tuny
sigara
ታይ
akor
##vye
221
limite
encar
waxana
##lewing
wanahitaji
ተመራ
##isada
mahafali
##gileng
milimo
ይመስለኛል
##pic
etena
ɛkɛ
##sak
864
walu
##used
##kuvu
##taga
በይፋ
##holic
ወርቅ
ምም
##potso
politicas
##voudig
##gania
##imbe
##ፈለገ
##vision
labaran
denmark
bontsi
ሰሞ
woga
##ereka
kadri
oje
ቡና
ମଳବ
##vho
##wethu
iisal
psycho
omolwashike
##yuŋ
goom
የደቡብ
kutisha
dhinteen
mamba
ahoro
السن
obwakabaka
kisima
wic
##saan
diver
kouma
sondag
ilaah
##вин
njenga
belas
usoro
##ished
dami
ndila
الحكومة
giki
##ግርኛ
##delik
##ischer
warfaa
##atitra
ଏଭଳ
##lire
khud
сим
lomu
##ier
##care
baala
##entlich
##fiseer
cigaba
ንቅናቄ
هـ
##uali
##vite
telegram
conference
##hishwa
##moto
##heim
ତେଣ
##ትነት
mzimu
lase
afungua
skuld
arthur
ପରଶାସନ
taʼe
celebra
enkulu
##ريم
kipaji
360
##beta
##viwo
ለማን
diiday
xus
chipu
hanna
samweli
##cidad
gile
karamar
##ዶም
training
##ilonga
mkaguzi
nipashe
mulheres
mbagala
##mɛn
##fashi
joel
##строи
teka
vake
ndam
##esaba
древ
talata
чу
tesɣ
akisisitiza
##ረሱ
hukumomin
setse
መዓልቲ
##kusudia
##lisay
##ameen
privile
gebed
этот
nahat
kimataif
##aska
permite
darem
##kand
maalmood
yela
xan
##wr
motema
##shawishi
экономи
##yɑ
lunaku
አና
##ନୀତ
wanakuwa
kuondolewa
##ooi
dictionaries
warka
estudios
gruppo
መወ
##ሽኑ
##itete
##arisha
unos
bind
በእርግጥ
##doch
##phie
дер
kinshasa
survi
hetra
благо
##humbi
iŋes
ଏମତ
weni
ሳያ
wakuti
##xhosa
##ulum
molti
cabsi
##وء
emb
yalio
##ngɛ
230
jit
##መዘ
bandia
##leki
kaasi
limita
essas
##ପା
ደመ
perde
bjo
magaalooyinka
##ጉን
tokala
አስፈጻሚ
qoor
principios
ncc
ivya
##zeshaji
ଆବଶୟକ
abena
fumu
##voaka
ከምኡ
sigba
##hoog
internasionale
tiny
personas
salomo
##ların
sarah
##kud
##pitishwa
falta
wolper
##طاع
##ለቅ
thiini
##ହମ
socio
questions
dawlada
bogosi
##chat
utaona
##lena
kpukpru
##lage
sierra
##ready
##قاف
oggend
dhawaaqay
##wanawa
compre
መንግስታት
uyi
zargi
##cheka
eing
mbandu
aahi
##pcao
##ድቅ
midde
monduli
added
appo
abs
gode
afite
##dancin
##nuu
175
corps
ዉስጥ
kufanyia
##onee
##khwa
jeediyay
خاصة
deep
kikapu
bjang
efm
bundesliga
kifaa
mzozo
لعب
ayya
faze
lunga
individual
tecnica
ekun
##fad
##hevitra
##orf
##راه
kheyre
##ልማ
kolin
conna
سيا
##стя
አዝ
distint
filosofia
agora
##ايمة
kusukela
mots
gewa
watawala
##fieke
fahim
daran
malays
uwajibikaji
##ብርሃ
jaribu
የክልሉ
##ሰል
yoze
nyia
kimye
##ୟାସ
mahmoud
county
akisoma
brood
nyang
କରମଚାର
kusafirisha
futuro
mwako
kutunga
regione
natureza
zak
የሚሉት
ngisho
emper
##lalao
прези
mohlala
moshe
bord
##hanya
##umike
kadɨ
##vata
bats
особ
продол
uliokuwa
sini
rino
##bau
qaabka
lote
njoo
punte
eastern
##ነታቸውን
mashauri
vivo
ተወካዮች
ଲୋକେ
gedink
123
እንደማ
anglisy
kɔr
##vity
handi
akee
lapha
ማህበረሰብ
codice
biyan
tig
програм
ተጽ
##anje
##engera
ህዝባዊ
aliendelea
proximo
##ации
فيما
xii
episode
lisusu
almost
akukho
olaitoriani
133
##entam
универ
154
tsallaka
##lali
sunan
አይመስ
vinywaji
##asisi
omunye
akus
##eb
##ጠመ
mawakili
jie
wende
atan
botshelo
degmoo
##barua
##вших
ibindi
jorge
augustus
ቅዱሳን
mlimani
ምዕ
vakansie
##ራኒ
##xenye
fair
dirang
ለስ
##entando
samson
gwara
uholanzi
witness
sgames
bevor
umuyobozi
insluit
##ربة
yaliyopo
wakimsikiliza
bazo
tram
ተጠና
zaba
magani
окру
##jama
##ድሮስ
kurusha
swalla
everything
muslimi
olymp
jangwa
libo
vibali
wakar
oral
##lomo
କନ
nhc
dap
lefa
##chelewa
##ሴን
ଇନ
##ateurs
##ellement
ቃላት
ደብረ
geestelike
nupya
ሜዳ
darro
gister
etwa
portanto
baitu
ambony
dwa
କରାଯାଇଥଲା
##କୋ
mulala
##gende
እነርሱ
altro
##ولوج
##вали
##በሌ
armas
ukwu
tunat
mangana
መቅ
##ዘረ
propaganda
##kalin
kabu
waliom
##ameli
lwakhe
##ongele
право
ଠାର
sabasaba
kalso
rival
yeremiya
msigwa
waggaa
kadiri
##lery
lukas
ሚንስት
gasi
nyɛm
البلاد
በቁጥጥር
wado
wacho
produce
##fesa
##chang
କରଥଲା
mbuga
##lore
jammer
ezint
##coli
pengo
aboo
idaa
##oses
kilichofanyika
##ƙa
rene
የእርስ
አላማ
##cana
##jeshwa
kujaza
##ላለች
##በስ
##hogo
shani
ibraahim
##ተረ
herman
##woya
##betsa
##ሉትን
risa
##usuku
سنوات
capacidade
##fort
bespreek
##спубли
لج
##kʋ
##zuza
tila
1039
bakwe
jafo
ekigambo
##lalamika
##dago
ପରଭାବ
ማው
suluhisho
kuzaa
ተቀብ
##unuliwa
neɣ
resolu
cela
ameli
በተመሳሳይ
giovanni
يوجد
latina
##ብብር
##kufanya
aholu
pente
смер
komai
republican
##ться
kisiwani
kɛra
التق
yint
idiin
umoya
እድል
##inne
nunua
familias
##ships
absor
addin
gedo
ersten
karim
##poni
rul
instead
khuye
##mla
salom
ድርሻ
lancado
eca
##ɔt
ምኒ
национа
nango
ସମସୟା
ሰላ
##tane
forne
raawwa
xabsi
##ሳተፍ
koer
defa
ngako
##ⲟⲩ
kufwa
بص
##сла
##ዝን
watahiniwa
sinai
ዘመናዊ
dhawa
##volge
fatto
saartay
ትክክለኛ
deem
kiristo
республи
hoji
value
salo
ovina
facil
##teria
domes
ему
##ାନସ
##ገኙት
الالم
hijira
##ስቡክ
nyengo
pila
አሰራ
ቦርድ
##sele
kunjalo
inizio
bureau
waaqayyoo
يز
член
doctor
ገልፀ
hukuncin
##ଠନ
emhin
jiha
shahidi
numb
chipwe
mwenz
peninsula
##demie
mudo
haavon
mlezi
##atoliki
الكثير
ዳንኤል
muz
maswala
##himili
mbarawa
##ithuti
ଜାଣବା
possuem
fao
geomet
angani
ኃላፊነት
dambeyn
##ussia
already
jisos
lawo
تست
دم
መሐ
##ዋሳ
sokoine
khilaafka
tcu
1924
##laag
yamo
##تمع
mən
reho
mwai
thailand
trabajo
##unded
inatarajiwa
popi
##fitra
##guar
ndiko
kraist
tsone
auß
command
##reu
##ነህ
የአየር
oduu
##طات
##inen
моск
##rei
anapaswa
العلا
rend
mampiseho
marxuum
eat
##andikie
otten
##gika
##brand
እውነተኛ
##دمة
bakh
##epusha
mera
##jah
годы
nsima
ɗan
##xiyay
##يدا
##ением
مليون
መጽሐ
geg
kuwanufaisha
ligongo
maalintii
ማህበር
aliyet
##klaar
дет
diagn
zose
##yanye
##ማግ
##fazi
taca
ينا
በምር
##ateka
##ctors
##ሰቢያ
አጀንዳ
religiao
##goba
entra
kuoa
abor
ocorr
acompan
mpanjaka
ଗା
ukula
napoli
above
bindiga
neymar
##erezo
elimin
bash
kubuni
vroeer
nyikani
##يي
9a
agriculture
##ከም
##uch
dugsi
scu
khilaaf
cv
situato
bohle
السكان
politicos
palacio
kutambulisha
criada
eware
##tufikia
ops
branco
##luma
sijawahi
tipe
zonas
bairro
waafrika
##ledi
machine
##seka
luego
legi
misava
ngwavo
##orra
combina
protes
tti
fadi
ngokwe
ɗoŋ
wario
##endom
lilo
##berta
##стеи
mwl
##ŋaa
##praat
ngabe
##phepha
kiafrika
everton
የተሰጠ
##soe
hamna
##linga
dar24
chomene
##tir
##льныи
##arama
##atamente
koba
الموا
santiago
kitakacho
ukuzi
miton
##yonyo
falsafa
##anji
##ститу
roep
oggi
mwamb
##كتب
##zayo
rain
nggo
ajje
esikh
duis
132
agli
ከሕ
##futia
ushawishi
projects
##heit
##oola
godsdiens
geplaas
realizar
କମବା
walioko
##erer
acima
موا
taab
afges
akish
##ongano
bell
nugbo
binu
dowans
##onyani
muo
##juka
##يمي
##صار
meseji
##wɩ
taminy
kabidi
arra
nate
##inza
manni
temo
ተል
believe
978
safe
мы
makore
አስታወቀ
##dieke
maleeshi
aram
الاب
anarana
eede
condicoes
##ለጋ
kɛse
edda
##onica
##shambulia
pib
##оде
##kise
##ابعة
putin
2n
୧୬
mpinzani
korinto
zakho
##inna
ebai
##تمد
##p97qq
ଚଢ
wazuri
fantatra
10a
digi
##asikia
kufariki
ደሳ
pyn
##daya
##road
mwanaharakati
yese
##غيرة
myself
በላ
harmoni
lands
gool
##isika
hend
mudug
jiz
##keri
##wem
spra
primi
utakaofanyika
ጽሁፍ
##uncia
sexual
እነሱ
ጳውሎስ
##kova
አንፃ
gobollada
barsi
quru
unapaswa
ndaba
bombar
armee
mpikambana
ଟମ
hanci
izing
አቋ
provide
ስድስት
የጨ
##wick
ahubwo
ለዚህም
aanan
malaa
##اول
##winy
##ଂଶ
fakke
##arwa
##enke
##aland
socota
keenay
tambula
sense
ስለም
##يرية
##вает
##الف
tutawa
dadku
##krywing
##ፈጠር
pio
palest
##работ
##enso
##ቂዎች
yaliyokuwa
roll
##ምባሲ
ବଧାୟକ
الصح
اجل
lock
majanga
anki
daah
ይበ
chɔ
literatura
ବନଧ
babiri
yalivyo
baix
##vene
pei
setor
ntwa
የኦሮሚያ
ophu
madagas
##шь
ସନଦର
##mbɔ
1923
durant
##theth
bobe
##изи
etaient
psalm
##uthi
shang
orig
camb
tunisia
abanto
##dale
berbera
universidad
jesosy
destin
junie
mgba
##ନେଇ
alingbi
##ሳደር
##قيقة
ፖለቲከ
endaweni
мини
zijazo
zwine
mohab
ተቀባይነት
امريك
1921
amala
ismaaciil
##xinta
kukiwa
осно
##мери
amiri
bello
usingizi
ambas
duh
desember
dino
##هورية
##osan
bevind
##druk
amagezi
##عى
bondie
ndaka
##сен
##kobwa
##stelling
joalo
تاس
##imamiwa
kↄn
##ଥର
dangote
александ
ƃela
ndiri
wacce
mwanawe
poet
количе
baharini
المخ
verspre
мест
arzi
ወታደራዊ
munisipa
##ሰለ
አይቻ
kutangazwa
kilometa
tigi
fotos
happen
vote
##iede
##ሉበት
inapaswa
ତଦନତ
vermoe
##posi
adai
распро
##dira
##city
inwoners
tunavyo
phetha
akielezea
klom
tienen
##hliziyo
##etika
መሰል
tshu
chati
kaman
hayati
филь
##zalisha
jolay
pangani
mbiri
cases
sovietica
bariga
##fere
alcune
igunga
walter
##xeen
ଜାତୀୟ
bridge
td
ପରବରତତ
##غر
kutibu
ebony
هم
##dja
##ikha
popola
jaanong
##واقع
ጥቁር
kwede
mkoloni
tumekuwa
kith
nessa
265
tutto
##teeda
bumi
ቀድሞ
##በሪያ
mwasi
swana
##hota
majeraha
mgambo
trots
##diliwa
tafel
##ፖሊስ
unakuwa
mpangilio
##uraga
abuu
anglo
ከባቢ
polu
nelyo
vatican
localizada
pian
akua
##onywa
gak
##arratti
paper
##itsweng
##وريا
счита
##шел
ibrahimu
ኤርትራውያን
##kwalo
##ሕመድ
makinda
##lembo
ghu
##wot
janar
lengwe
##buso
tukut
ezinga
orto
##dari
kufungiwa
monina
ସରକାରୀ
##amatwa
##chal
##hiro
finans
##କଷେପ
lightness
##dego
##ffen
uq
ህል
ubel
የሚገኝ
aer
##وبة
##lose
##urso
bitcoin
upi
trilioni
simolola
njila
tib
diferencia
imperador
##зии
##kidi
gobol
ዘግ
##patie
ሎሚ
##liyey
kumpiga
izwi
арх
tanzia
##irri
ፕሬዝዳንት
abafundi
##ysal
mabara
kyala
termos
ଛାଡ
##haram
##kuk
ontstaan
ሊቀመን
ux
infin
arena
ultra
##ملة
opu
ପରଦାନ
kilichotokea
##komela
keenta
ମଲ
የዳ
enfer
መዘ
##khumi
dissip
dhugaa
##sima
dhibaato
##vini
afirma
##ski
staff
##ላቸውም
mami
dintsi
kv
ଡର
qabe
kifa
abuur
##ቶን
ellos
##teo
##limbi
##beza
##imbazi
##yena
tribun
ondo
wikibolana
vlieg
bevat
wastaafu
##inyak
##fore
boosaaso
madeira
kose
##pei
mwita
##اسية
##sababisha
##onii
duleedka
minimum
quick
bavua
##andikia
eau
chaque
##paro
lililofanyika
##oreshe
muya
iskaashiga
##ାଇଥବା
mgongo
infra
##fate
##amuka
active
yanni
правитель
nikech
##େତ
diven
##omeka
parlement
evento
omuk
napo
inayoendelea
madoo
baje
##efeso
##itiibwa
862
kipimo
البريط
ebile
achie
chef
##kumbana
##itam
gn
درجة
ليس
maari
ولاية
##vɛ
seem
peso
12a
campaign
berig
ehele
juri
prefeito
##vhu
francesa
kuenje
kull
ଭାଇର
нико
levou
kwir
compani
yano
busca
gib
сша
ደሳለኝ
##elina
rediyo
kasoro
##ryp
ସରକଷା
##ጋንዳ
asc
rapidamente
muhal
##osope
jedhamu
##jamb
##edit
begri
##inoa
العالمية
አስተያየ
mzi
yaak
kobe
الاسب
ለት
##دن
ኢሳ
##heke
mbeyu
mawakala
sirele
##rana
##yawo
##aticas
##tsɔ
##ingilia
yaraan
hula
mediese
tuttavia
ontwerp
##yeka
hikuva
##oradio
##lizia
##kort
1927
ምዃኑ
##ковод
##andri
kni
transforma
##imon
##saaklik
##ንቀሳቀ
dhimma
1926
burbur
ayagala
##imamishwa
kujipatia
የን
lower
qofa
awen
inatu
##eran
##loŋ
ପଞଜ
##pusha
waca
ጠቃሚ
##vorm
##sos
halla
##geuza
algor
alitumia
sultan
ማህበራዊ
kuban
boela
februarie
በጋ
correspon
developp
##rics
kundu
rogo
horree
ପରସଙଗ
##ପନ
jamuhuri
البر
ፈረን
beauti
ይታወሳል
mbwe
interest
حك
بير
majalisa
termine
##anyarwanda
jpm
astronom
emm
taak
vitisho
alike
chikuma
አስረድ
nneɛma
уч
እናት
ampiasaina
yea
uaminifu
##ture
hafu
amn
atividade
fb
##ጸን
verke
##ገራሉ
##ʼee
ngoo
zulu
##itue
kunya
spesifieke
dame
kulipia
##ሬዎች
omstandighede
##kov
##вис
hiɛ
tsin
jaridar
የያዘ
howlaha
yerusaale
kwase
maaliyadda
##ጉት
maart
##واس
xabsiga
##heng
kuata
stage
امام
waimbaji
##kamp
##ሳተፉ
zethu
bits
uul
የኔ
##kilishi
##ادل
##unguu
hekalu
158
содер
##ፈልገው
የሌለው
bupilo
upima
tanzanite
##irudi
አሠ
##atte
nufin
##telle
##ପଟେ
##uais
klɛ
kutokomeza
##ሆናቸው
##rang
ilma
encontrar
higher
##ashinda
ህዝቦች
##ଜା
##ема
የቤት
gov
shamim
zikiwemo
ndinga
omusajja
መጻሕ
ሓበሬታ
kiwan
##lisiti
kent
##rata
sebas
clement
ሳምን
ongeloof
veve
desturi
mle
##راب
jarige
ስልጠና
inzu
simbolo
кол
conselho
seenaa
fale
kungen
wanacho
okathi
##enyeji
slaan
fatma
##poe
thina
##ስተዳደር
##keti
##hitimisha
ongelukkig
ሆስፒታል
fitondrana
##gelinta
leu
العثم
dream
##wayo
peuvent
realizado
dando
##yɛlɛ
ainyak
eghe
##ank
እንዳለው
info
kimarekani
##inet
##tola
##kwamba
impul
##lolin
manifesta
kuyini
193
banana
composta
##hosha
muujina
አስታውቋል
akul
walipata
piɛ
обра
##ኩን
##riso
bajja
الرغم
omari
responsavel
##ቃሽ
ଗାଡ
billion
##zimishwa
##sihi
libre
doontaa
royaume
ahitana
yakabidhi
chize
woƒe
kiso
ስልክ
##ጣጥ
fly
walifanya
consegui
department
veye
mapokezi
##dah
##top
update
##mbani
passo
pt
##ମୀ
##ние
esposa
የሆነውን
##ାରଥ
сте
kudaden
boos
ajiuzulu
##ዞም
##lopo
حكم
сою
traditional
упо
##лиз
dinast
расс
habita
guriga
named
benin
сам
raga
ተጠቅ
conseil
##lowo
##enwa
milima
ouderdom
117
##реб
tudo
tmz
##щения
orhe
chez
administracao
kjamii
pum
oyu
##kolera
حسب
konse
##enede
jiragen
kessy
pequenas
gbas
ଦଶ
millones
ଅନସାରେ
kujengwa
##tunan
11a
disci
ህዝቡ
glamour
gelyk
ǁna
##ствов
prisons
ammin
##thandi
##ኹም
##angaje
jobs
kuisaidia
ool
meter
imesha
kusonga
xoolaha
mikumi
across
naval
riu
##zuva
##ବଦ
gaasha
carne
umugore
pwo
waliofika
akamwambia
viki
shirkii
amewo
##edin
mioyo
##page
##дела
##zalwane
baker
upimaji
ይር
መገናኛ
kukwepa
kiseera
grandi
propri
##zame
የምግብ
##unwa
##aticos
жизни
wames
##صبحت
##ዋወ
amman
mashoga
mwanamume
بلغ
wiss
исп
lililokuwa
##umuika
поддер
ଦେଇଥଲେ
##ራቢ
አገዛዝ
biden
kuhud
vulika
fundada
uhamisho
##ତଙକ
yash
iliyoandaliwa
ghari
gig
iliyoko
##faananyi
ይበልጥ
##yapata
##بال
kusudi
quantidade
xor
pote
##english
jedoch
ቅድመ
fuga
nɔm
polepole
##sɨ
ubus
opposition
##ድሩ
crime
##karia
ikilinganishwa
dout
واب
##lingana
particolare
temple
አገሪ
studie
deadline
hlam
anad
##ଜୀ
napole
##ingesi
المملكة
ተዛ
kwis
zozote
##sile
comand
##utha
omut
waliofariki
filipi
ኮይኑ
langue
wysig
##ends
الشخص
##likiwa
##льного
##porti
vose
##koso
suga
##ɗen
avokoa
fihla
fulls
##celo
hoerskool
320
ngoja
fɔlɔ
другие
##ingizwa
ካሳ
##jage
kopi
thuso
inkastoo
fasihi
baiti
huzuni
iyoŋ
##firishwa
wathu
ameyasema
##ntu
##gunya
wasanni
##balo
taariikhda
ግርማ
##ଜର
kpobi
lanka
##veka
##laani
erkenning
navy
እንግሊዝ
lisilo
##ብይ
tunam
kuat
##ረፍት
saaka
aamin
capela
##መደ
##aris
сох
shuruu
##በትና
نفسه
ይባላል
bilaabay
##diging
##سمية
suf
jing
lusa
tcra
##gq
##utawala
course
የመሳሰ
الميل
የተሳ
dot
revolucion
##ላችንም
lolu
reko
matigi
liti
##irai
jow
kugawa
transmis
##kumbusho
##тин
gallery
udhamini
okunrin
##phere
##ambazwa
##amisa
isirael
ዝኾነ
bute
stru
tanteraka
ଜବତ
##woti
arquitet
maadui
satis
libro
ነዋሪ
የፋ
kumpala
milango
slag
208
kumpata
##waat
haben
nibe
ngonyani
##ጁን
##ambulu
##hungu
ቅድሚ
##herekea
kapu
iminyaka
ኑሮ
kais
qassi
heslb
##main
gagga
##اسي
ይዘው
አስመልክቶ
mirongo
##weekend
##hanana
pori
wabu
mtaalam
stig
የሚሆን
##gwasya
nagu
tango
wɔbɛ
ugumu
##tina
192
ኣመ
litakalo
##تر
##ሽቱ
kutumiwa
##ኒኬ
##lets
መጠቀም
##urar
annabi
mboni
ምዕራፍ
vivyo
##ରେନଦର
hollywood
авгу
##ገንባት
удалить
geystay
usumbufu
muerte
##inete
salu
##icelo
##bbu
##weeg
sedi
completamente
ብሔረ
ጌታቸው
mubi
kela
nɛra
amefunguka
##طع
الظ
138
##fane
usoni
lerato
daaraan
##ющие
##weer
pastor
mucaaradka
patro
ganduje
dadi
##aluma
abiri
##asuke
ርዕስ
##raham
luholo
decide
литера
ମର
##ውው
kelee
ଗରହଣ
##qab
ବଲା
ontdek
ያደረገው
##ɛne
##бра
bekommer
تف
mitɔn
richi
ʋa
##bst
##issao
arqui
mcc
км
malaysia
mateyu
##дж
matakan
uyesu
14a
castro
##xim
udiwani
цар
ሙዚቃ
usaidizi
inatakiwa
kaasoo
##زيز
##صور
ngata
##ameera
quin
eden
kids
##anganyifu
nɔnɔ
peko
##yayyakin
warfaafinta
mʼ
##kiisu
ግጭ
##intha
feira
amasa
الحياة
##atiewe
samwel
##ቃሉ
kaso
##osheni
arewacin
voorbeeld
##ሰስ
jangwani
##villa
ryo
##teel
##welela
decisi
##gl
ስለሆነም
ncha
##211
##zawa
especific
ƃe
##lende
vrywil
##казыва
##beeyay
##ምረ
sepe
##tawala
dmk
##irim
##fila
itaka
atatu
mwali
##hirishwa
wakis
##feld
##erani
diverse
vilabu
መዳ
msimbazi
kujehova
##chez
##мини
##мент
georgia
fɛn
##itou
hirshabeelle
mea
degree
##yize
streng
дека
lawama
plata
mbiu
hiari
kiban
124
akana
##kiso
اهل
totdat
ସାମନା
ክስተ
nader
prison
syl
baixo
humana
ennaku
##ጣሉ
talent
abandon
thread
ngʼ
କାରଯୟକରମ
kiapo
##wetu
##erian
nokut
yoli
##የሩ
ars
##engenezo
لق
##бя
избранного
##ପକଷ
olombelona
##didina
fullscreen
##taniya
uitdag
ዐቢይ
bing
##loga
rajo
tugu
muchima
catholic
الاقتص
##hlanu
افضل
vrysta
جنوب
##vumilia
##ጻር
advo
alde
በኦሮሚያ
fatan
##kɛɛ
##bizo
sawirka
kopo
africans
##tudo
##solo
##omoto
keta
##ସଂ
##inal
የሰብዓዊ
ଜୟ
ማወቅ
ladha
##hukumiwa
##hna
##ደፍ
naɣ
dudu
arzikin
mweusi
kubadilika
assum
kutoroka
##стоян
kayayyakin
##zuzu
obulungi
fuskan
liwe
meni
diegene
sopr
doka
ndum
kajun
tafakari
##tian
tsim
staal
##ithwa
idh
ଜଲଲାର
kuik
wahariri
hatuja
toni
##tende
##େନଦର
##piri
##woni
sugges
##ŋŋi
tufu
##тура
##ካዊ
wanan
ruth
ଅତ
particip
##arbe
nabu
naak
##льные
kava
kakar
horse
rostam
reel
ቁጥጥር
cred
##tech
##fahana
voltoo
tattaunawa
nccr
##yoona
reven
##vola
ekoki
##ታም
wafanye
##urr
inye
entrada
gado
##سون
##umina
nɑn
nyengine
relations
##illeurs
kri
##ꞌo
khami
direitos
##ንቃቄ
uhifadhi
##vumel
qol
##asii
cagta
ngeda
dhaxeeya
toban
wanaos
zilizotufikia
beautiful
maxay
deja
ametu
##pop
extern
parties
ረገድ
kwakuwa
gawa
ukub
በን
##ጠቁ
kill
ðe
alhoe
roye
##ሕን
kruis
##lɛn
ilianza
##ቀጥል
escala
crise
mend
nusura
nongo
yamba
bɛa
tsarinmu
избранное
ernest
ምግባር
bij
zee
talaa
##fundishwa
makumbusho
##itiin
maloba
##hetho
##sadaan
##sʋa
manus
ntina
##goota
የካቲት
##oi
reform
ensu
gashay
houve
ubelgiji
ଅରଥ
በቲ
በፈ
##anɛ
tui
የተባበሩት
xisa
##aticamente
fadin
manten
ସଂହ
scholar
##tland
конце
##atama
layi
theatre
الاحت
##ሸነፍ
regions
በቅርብ
##ବଧ
select
quasi
##ፕሎማ
hate
الاجتما
କା
##fɛn
##በቅ
##werking
novembre
##ktore
##fwana
hashi
ቢኖር
##asing
ɔde
mzito
የተመሰ
mɑɑ
ismail
custom
##ndu
afdeling
kajunason
mejor
luno
ተዘ
##shia
usen
##badan
alhoewel
##ቪዥን
chakuti
##etii
ambito
maaskofu
poku
tuin
##бре
stellen
##ረኞች
elk
ditaba
ወሳኝ
rwego
##ዎስ
##ommo
greek
gsengo
injini
насто
kpoo
gelee
mwanae
maneira
##ጾች
mwanangu
codigo
##conde
qodob
grund
baabwe
የአገር
estrateg
ondu
vertrou
vrydag
##vian
uitste
wɑɑ
ajuda
##େକ
dacwa
diphe
##orero
العامة
pfhumu
ɛmɔ
##okia
##toot
latsa
##ведения
##uruka
obwo
##risa
##isiwe
tago
##ße
mmene
hayaan
anisan
caminho
gesondheid
conos
umili
talle
escu
lyakwe
##еры
لكرة
cima
gedagtes
##ባይል
##ቡና
##asiin
gudo
nazar
islands
warioba
##ጣቱ
isna
vidiyo
##ାଇଥଲା
በ200
##ምሩ
ምርቶች
fice
የኢህአዴግ
##burgo
##ccao
##ziva
benedi
##inishwa
##idiwa
utun
vitatu
የሱስ
##town
bekende
خم
୫୦
ኣል
angle
ikun
dite
kuibua
spater
iyie
ansa
quilometros
wakiendelea
guard
ኃይለ
##uuzi
kuteuliwa
ዕድሜ
owen
ଇଣଡ
silo
daahir
ହୋଇପାର
sanin
ametangaza
gaz
geraak
##byi
henri
##kilize
tunao
madaxwey
lʼ
zinazos
aangebied
equip
المخت
tzm
ongeveer
##هب
maovu
##tila
nothing
##ambye
mensa
cesar
##ɔti
ନେଲେ
yawasili
በሐ
##yise
tane
##helela
ପରଷ
inadaiwa
nahiyar
ይስ
kalli
verkeerd
##chili
142
positive
taq
yati
dagaalama
ishe
shehu
mnazi
##ftari
tche
incorpor
##ambar
dakarun
wens
##getto
##cm
munu
eis
##kwaniilwa
umutekano
##ተወ
kavi
munyu
bril
##ishile
boits
##temming
ennyo
sojin
##hloni
በሁሉም
corporate
ገባ
destaca
rhand
tutakuwa
##ବାସୀ
dimu
insieme
##unuka
jorna
ግለሰብ
##ilo
##bama
ǁib
yiho
kimwili
companhia
##fikie
##ባችን
saama
belem
nafa
relationship
adan
مباراة
told
omur
gbara
ulwazi
##wasaidia
##wisisa
cron
zango
##atur
##atiki
chɛhowa
saida
seek
doonayo
kukabidhiwa
governador
офи
##ህነት
ulike
##fukuzwa
##grafico
ntho
wamo
##eo
могу
импера
css
hamasa
двух
##bonde
ମମ
##eze
oriente
ocidental
godzilla
pouvoir
ዜናዊ
##ener
cimma
gewone
classes
yanayoendelea
fils
يب
sym
ବବାହ
ታውቋል
430
##eyo
mijadala
okwen
behalwe
##yula
blou
suuqa
hanti
##isy
##kish
##rados
died
shigar
cuna
maazi
##antenin
absal
telecom
اط
##data
##osajiliwa
basic
atakapo
zino
ngar
##гово
##posta
##ايلة
##zɔs
##በን
##keena
muc
jaal
ଦଲଲୀ
inqu
##tigi
jizɔs
steel
##teve
litu
saaro
kustaafu
እንደዚህ
##କଳ
sade
hud
rip
kunena
ssente
##mix
ereferred
##fsiriwa
goomenti
dubar
voas
በቀለ
##zeke
##ствии
guo
aay
وكذلك
decadas
##ዕቲ
fitiavana
ወዲያ
##ነሣ
##goed
lombar
tard
وصل
mkwera
psg
direcao
utiliz
نسبة
##bisho
elin
ሃሳ
##mwu
ሊያስ
##pali
mangu
bɔne
rapela
devient
helaan
leerders
jeri
##lemba
##eray
##oratana
kursiga
ለአንድ
museo
##жении
gond
iint
onlangs
ኣባ
madre
filmes
##hlungu
shambani
##indig
bahia
worra
##how
farin
##ግባት
kulima
devid
composto
prota
shilole
boniface
oji
anwu
ruush
ጉዳዩ
##asiliamali
merc
jah
boso
##nz
utengenezaji
своеи
magic
##ungwana
zuɣu
рим
ትራምፕ
januarie
situasie
نشر
merkel
ǀkha
##atɔ
zilizotolewa
##ାନଧ
##ሰጠ
ella
lezot
isila
addini
natafuta
##ɣen
ocasi
kutegemea
midda
akita
mazito
функ
которая
sker
##foro
اعمال
##େଟ
##hinga
ଏଲ
valores
выпу
##ኖችን
malan
makka
ሰሞኑን
luli
asent
seul
##aminana
ɔcɛ
ተያይ
##wizi
ተሳትፎ
ሕዝቡ
بول
duits
proye
ቤተሰብ
መጠየ
አብዮ
gaal
ngaku
anie
weyi
##ଗଡା
##khwo
##duud
bizin
huta
kebbi
yagamba
onaf
ህብረት
##kambe
societa
କମପ
biza
ଦେବା
##vez
##ዎቻችን
210
academia
ትምህ
##ማሩ
nchimbi
opges
haro
сек
ସଥାନରେ
dareen
##hey
##اند
##ziz
ulioto
##kenu
kwlaa
wanaharakati
gouvernement
soul
##ገባት
yarda
jaamac
##atiese
##ላስ
barat
mwanadada
##kuzwa
hakikisha
aitwa
yeton
التش
fanana
kwata
kilomet
##hehebu
lungo
والب
ମଡ
amaze
kujitegemea
winu
окт
##ituŋa
denomin
##achwa
ምንድን
አዛ
nicho
##kuluku
1870
zinazoendelea
የመስመር
conforme
vata
forest
ପଛ
ƙar
##ጣጣ
boŋ
spr
kinde
##tengenezwa
##hima
swaku
baak
doonin
investig
mukono
ଦେଶର
በመስጠት
##atique
##kando
rien
ስደተኛ
##xad
jecha
##miraawo
ፕሮጀክት
jijji
feita
twin
##ooyin
conci
bwu
ilaina
tole
akkam
##umira
rubuta
amaanka
appel
mitandaoni
occasi
semb
##kins
engelse
##pru
##ଚତ
##ishirikiana
wenn
##ଯାୟୀ
##kade
jopo
mbaroni
amazi
ŋan
taray
agency
##liin
izira
adad
utani
carro
የአማርኛ
figure
qeer
##ወሰን
pw
pure
##ዬን
tlhat
##ታችሁ
kapati
temperature
nuova
##prises
##ሰቦ
##вар
bandeira
୧୪
muteko
##fanekiso
aanga
sosi
seh
educa
nnyumba
hog
aaya
##ାଇଲେ
##hwaj
oceano
dadelik
##ቃን
ያሉትን
ମାନଙକ
prix
##ени
miresaka
ciclo
ମାଲକ
korona
##utano
vavo
##kanwa
##ାନର
navorsing
##imiza
##ለማርያም
jab
##ꞌi
##pepe
##asiya
ianareo
diary
##мыш
##аться
subira
୧୩
kanta
##sty
##ካሂ
nafikiri
##bede
ɔlɛ
##sche
##гия
##qad
kusahau
malkia
##ጫወት
##ciya
##leede
sd
mapungufu
omukazi
amerikaanse
somahariri
##ashu
እንስ
kuachia
ufadhili
##enan
ማስታወቂያ
kwayo
asb
machafuko
##оне
##takia
##oof
##imen
produkte
##itry
lombwele
##looyin
sindi
hein
##циеи
kakakin
ምስክር
##عيد
መሰረታዊ
አግባብ
hallo
##pou
umth
ይናገራሉ
tond
##ብራት
##itere
##gados
vroeg
##ዮርጊስ
xanuun
##futaji
analys
##vwi
ingo
niji
##ynaya
kuipa
##ቁን
yehu
xidhiidh
##icios
часто
ଟଙକ
##yumba
debat
protection
rwoth
በትክ
boba
ngale
##mbili
chukua
yaalama
በመተ
aliji
##humi
built
##gago
እስራኤል
##bent
reported
msomaji
kujeruhiwa
maggior
tishio
noqoto
ɔlɔ
inside
sacri
##bidii
florida
##xal
##deka
temas
kevin
othe
imisebenzi
miaƒe
##ሻል
##katia
sitaki
agents
jol
##iale
الموج
revolucao
mashuhuri
shooting
kuhama
##tude
الاث
tunajua
ewur
siciid
janja
utotoni
resources
##ኖስ
contudo
guha
fece
continued
መሀ
repo
[...]
